{
  "vocab": {
    "ต": 0,
    "ュ": 1,
    "$": 2,
    "0": 3,
    "₹": 4,
    "-": 5,
    "(": 6,
    "í": 7,
    "ō": 8,
    "æ": 9,
    "n": 10,
    "ก": 11,
    "\"": 12,
    "£": 13,
    "l": 14,
    ",": 15,
    "v": 16,
    "ص": 17,
    "g": 18,
    "♯": 19,
    "ヴ": 20,
    "@": 21,
    "c": 22,
    "+": 23,
    "f": 24,
    "'": 25,
    "8": 26,
    "x": 27,
    "β": 28,
    "s": 29,
    "7": 30,
    "場": 31,
    "z": 32,
    "=": 33,
    "ル": 34,
    "’": 35,
    "4": 36,
    "ح": 37,
    "%": 38,
    "!": 39,
    "d": 40,
    "ä": 41,
    "−": 42,
    "×": 43,
    "ż": 44,
    "2": 45,
    "&": 46,
    "</w>": 47,
    "3": 48,
    "i": 49,
    "の": 50,
    "š": 51,
    ";": 52,
    "µ": 53,
    "t": 54,
    "♭": 55,
    "5": 56,
    "[": 57,
    "ง": 58,
    "ア": 59,
    "á": 60,
    "é": 61,
    "リ": 62,
    ".": 63,
    "^": 64,
    "₤": 65,
    "b": 66,
    "?": 67,
    "ن": 68,
    "ñ": 69,
    "u": 70,
    "–": 71,
    "์": 72,
    "戦": 73,
    "a": 74,
    "o": 75,
    "ṯ": 76,
    "9": 77,
    "q": 78,
    "→": 79,
    "ณ": 80,
    "ม": 81,
    "ล": 82,
    "—": 83,
    "6": 84,
    "ê": 85,
    "ั": 86,
    "î": 87,
    "~": 88,
    "²": 89,
    "<": 90,
    "ā": 91,
    "่": 92,
    "ë": 93,
    "r": 94,
    "ร": 95,
    "ô": 96,
    "ç": 97,
    "ิ": 98,
    "…": 99,
    "p": 100,
    "⁄": 101,
    "ş": 102,
    ">": 103,
    "ć": 104,
    "#": 105,
    "w": 106,
    "ń": 107,
    "キ": 108,
    "ü": 109,
    "h": 110,
    "ö": 111,
    "]": 112,
    "è": 113,
    "*": 114,
    "k": 115,
    "ó": 116,
    "1": 117,
    "j": 118,
    "ァ": 119,
    "†": 120,
    "°": 121,
    "“": 122,
    "”": 123,
    "y": 124,
    ")": 125,
    "m": 126,
    "e": 127,
    "μ": 128,
    "€": 129,
    "č": 130,
    "ย": 131,
    "đ": 132,
    "‘": 133,
    "ł": 134,
    "า": 135,
    "‑": 136,
    "/": 137,
    ":": 138,
    "e</w>": 139,
    "s</w>": 140,
    "th": 141,
    "d</w>": 142,
    "n</w>": 143,
    "er": 144,
    "the</w>": 145,
    "t</w>": 146,
    "in": 147,
    ",</w>": 148,
    "an": 149,
    "y</w>": 150,
    "ed</w>": 151,
    ".</w>": 152,
    "un": 153,
    "or": 154,
    "ar": 155,
    "k</w>": 156,
    "al": 157,
    "f</w>": 158,
    "o</w>": 159,
    "re": 160,
    "ti": 161,
    "unk</w>": 162,
    "<</w>": 163,
    "></w>": 164,
    "of</w>": 165,
    "a</w>": 166,
    "and</w>": 167,
    "on": 168,
    "en": 169,
    "er</w>": 170,
    "g</w>": 171,
    "in</w>": 172,
    "on</w>": 173,
    "@</w>": 174,
    "st": 175,
    "ing</w>": 176,
    "ro": 177,
    "as</w>": 178,
    "to</w>": 179,
    "ch": 180,
    "es</w>": 181,
    "at": 182,
    "hi": 183,
    "\"</w>": 184,
    "=</w>": 185,
    "el": 186,
    "m</w>": 187,
    "ou": 188,
    "it": 189,
    "ic": 190,
    "al</w>": 191,
    "at</w>": 192,
    "an</w>": 193,
    "or</w>": 194,
    "is": 195,
    "th</w>": 196,
    "il": 197,
    "ac": 198,
    "ol": 199,
    "as": 200,
    "ur": 201,
    "es": 202,
    "ec": 203,
    "am": 204,
    "om": 205,
    "is</w>": 206,
    "was</w>": 207,
    "en</w>": 208,
    "-</w>": 209,
    "ir": 210,
    "tion</w>": 211,
    "'</w>": 212,
    "wi": 213,
    "ri": 214,
    "ly</w>": 215,
    "ow": 216,
    "si": 217,
    "l</w>": 218,
    "em": 219,
    "ra": 220,
    "pl": 221,
    "di": 222,
    "that</w>": 223,
    "ch</w>": 224,
    "for</w>": 225,
    "with</w>": 226,
    "gh": 227,
    "ag": 228,
    "he</w>": 229,
    "us": 230,
    "ad": 231,
    "ev": 232,
    "le</w>": 233,
    "li": 234,
    "be": 235,
    "ha": 236,
    "by</w>": 237,
    "ent</w>": 238,
    "ve</w>": 239,
    "con": 240,
    "0</w>": 241,
    "ent": 242,
    "(</w>": 243,
    ")</w>": 244,
    "le": 245,
    "os": 246,
    "19": 247,
    "su": 248,
    "it</w>": 249,
    "ere</w>": 250,
    "pro": 251,
    "the": 252,
    "op": 253,
    "ar</w>": 254,
    "wh": 255,
    "com": 256,
    "bu": 257,
    "de": 258,
    "ers</w>": 259,
    "ex": 260,
    "for": 261,
    "ab": 262,
    "whi": 263,
    "ce</w>": 264,
    "sp": 265,
    "ma": 266,
    "ap": 267,
    "his</w>": 268,
    "ted</w>": 269,
    "tion": 270,
    "ov": 271,
    "ation</w>": 272,
    "oc": 273,
    "fro": 274,
    "from</w>": 275,
    "cl": 276,
    "se": 277,
    "ul": 278,
    "ts</w>": 279,
    "20": 280,
    "sh": 281,
    "p</w>": 282,
    "ne": 283,
    "oun": 284,
    "vi": 285,
    "ds</w>": 286,
    "w</w>": 287,
    "were</w>": 288,
    "ter</w>": 289,
    "i</w>": 290,
    "pre": 291,
    "st</w>": 292,
    "ity</w>": 293,
    "ic</w>": 294,
    "ru": 295,
    "tw": 296,
    "man": 297,
    "ther</w>": 298,
    "1</w>": 299,
    "rec": 300,
    "ea": 301,
    "per": 302,
    "du": 303,
    "ated</w>": 304,
    "oo": 305,
    "qu": 306,
    "ay</w>": 307,
    "2</w>": 308,
    "all</w>": 309,
    "ding</w>": 310,
    "ate</w>": 311,
    "tic": 312,
    "5</w>": 313,
    "par": 314,
    "4</w>": 315,
    "tim": 316,
    "ff": 317,
    "are</w>": 318,
    "bl": 319,
    "3</w>": 320,
    "ame</w>": 321,
    "no": 322,
    "one</w>": 323,
    "which</w>": 324,
    "ded</w>": 325,
    ";</w>": 326,
    "our": 327,
    "wor": 328,
    "ter": 329,
    "ir</w>": 330,
    "ear": 331,
    "est</w>": 332,
    "de</w>": 333,
    "im": 334,
    "ay": 335,
    "had</w>": 336,
    "tr": 337,
    "ish": 338,
    "um": 339,
    "so</w>": 340,
    "ing": 341,
    "me": 342,
    "ber</w>": 343,
    "6</w>": 344,
    "fe": 345,
    "por": 346,
    "be</w>": 347,
    "af": 348,
    "el</w>": 349,
    "ation": 350,
    "ld</w>": 351,
    "–</w>": 352,
    "out</w>": 353,
    "gh</w>": 354,
    "ally</w>": 355,
    "mar": 356,
    "ong</w>": 357,
    "te</w>": 358,
    "8</w>": 359,
    "est": 360,
    "her</w>": 361,
    "its</w>": 362,
    "all": 363,
    "au": 364,
    "fir": 365,
    "der": 366,
    "this</w>": 367,
    "ght</w>": 368,
    "ta": 369,
    "fi": 370,
    "bo": 371,
    "po": 372,
    "rou": 373,
    "she</w>": 374,
    "iv": 375,
    "tur": 376,
    "ies</w>": 377,
    "7</w>": 378,
    "sc": 379,
    "og": 380,
    "ary</w>": 381,
    "also</w>": 382,
    "ran": 383,
    "200": 384,
    "ser": 385,
    "der</w>": 386,
    "but</w>": 387,
    "ine</w>": 388,
    "clu": 389,
    "their</w>": 390,
    "has</w>": 391,
    "age</w>": 392,
    "9</w>": 393,
    "shi": 394,
    "other</w>": 395,
    "ow</w>": 396,
    "ke</w>": 397,
    "go": 398,
    "stor": 399,
    "not</w>": 400,
    "av": 401,
    "after</w>": 402,
    "first</w>": 403,
    "des": 404,
    "ig": 405,
    "car": 406,
    "two</w>": 407,
    "ge</w>": 408,
    "own</w>": 409,
    "pe": 410,
    "bec": 411,
    "pu": 412,
    "ost</w>": 413,
    "fin": 414,
    ":</w>": 415,
    "mor": 416,
    "gu": 417,
    "ment</w>": 418,
    "ents</w>": 419,
    "fl": 420,
    "ia</w>": 421,
    "ould</w>": 422,
    "et</w>": 423,
    "char": 424,
    "comm": 425,
    "they</w>": 426,
    "cre": 427,
    "00</w>": 428,
    "have</w>": 429,
    "duc": 430,
    "ome</w>": 431,
    "mil": 432,
    "ast</w>": 433,
    "ting</w>": 434,
    "who</w>": 435,
    "sec": 436,
    "oll": 437,
    "ty</w>": 438,
    "ep": 439,
    "str": 440,
    "201": 441,
    "end</w>": 442,
    "ack</w>": 443,
    "ks</w>": 444,
    "been</w>": 445,
    "uring</w>": 446,
    "rit": 447,
    "ue</w>": 448,
    "sa": 449,
    "ned</w>": 450,
    "ence</w>": 451,
    "ater</w>": 452,
    "play": 453,
    "cri": 454,
    "ely</w>": 455,
    "new</w>": 456,
    "id": 457,
    "ess</w>": 458,
    "18": 459,
    "att": 460,
    "us</w>": 461,
    "ial</w>": 462,
    "pol": 463,
    "mo": 464,
    "pres": 465,
    "ard</w>": 466,
    "cont": 467,
    "off": 468,
    "dis": 469,
    "ass": 470,
    "time</w>": 471,
    "ant</w>": 472,
    "to": 473,
    "min": 474,
    "ous</w>": 475,
    "spec": 476,
    "gre": 477,
    "cor": 478,
    "during</w>": 479,
    "ft</w>": 480,
    "mus": 481,
    "ph": 482,
    "our</w>": 483,
    "man</w>": 484,
    "son</w>": 485,
    "over": 486,
    "dec": 487,
    "iti": 488,
    "most</w>": 489,
    "ish</w>": 490,
    "king</w>": 491,
    "id</w>": 492,
    "ons</w>": 493,
    "fil": 494,
    "ations</w>": 495,
    "ion</w>": 496,
    "ical</w>": 497,
    "b</w>": 498,
    "inclu": 499,
    "ember</w>": 500,
    "ited</w>": 501,
    "il</w>": 502,
    "ad</w>": 503,
    "ree</w>": 504,
    "tra": 505,
    "thou": 506,
    "cent": 507,
    "x</w>": 508,
    "aw": 509,
    "able</w>": 510,
    "eral</w>": 511,
    "ces</w>": 512,
    "more</w>": 513,
    "ill": 514,
    "use</w>": 515,
    "tu": 516,
    "een</w>": 517,
    "mon": 518,
    "se</w>": 519,
    "stru": 520,
    "ver": 521,
    "als</w>": 522,
    "ell</w>": 523,
    "ace</w>": 524,
    "sev": 525,
    "bri": 526,
    "ined</w>": 527,
    "tive</w>": 528,
    "ple</w>": 529,
    "kn": 530,
    "ound</w>": 531,
    "publ": 532,
    "nor": 533,
    "than</w>": 534,
    "inter": 535,
    "air": 536,
    "gen": 537,
    "ased</w>": 538,
    "recor": 539,
    "ca": 540,
    "lo": 541,
    "col": 542,
    "up</w>": 543,
    "albu": 544,
    "ure</w>": 545,
    "ess": 546,
    "jo": 547,
    "over</w>": 548,
    "form": 549,
    "pos": 550,
    "ked</w>": 551,
    "co": 552,
    "ates</w>": 553,
    "ance</w>": 554,
    "ever</w>": 555,
    "when</w>": 556,
    "pr": 557,
    "arch": 558,
    "sy": 559,
    "land</w>": 560,
    "ese</w>": 561,
    "while</w>": 562,
    "only</w>": 563,
    "ings</w>": 564,
    "and": 565,
    "we": 566,
    "into</w>": 567,
    "ins</w>": 568,
    "aga": 569,
    "mi": 570,
    "ason</w>": 571,
    "coun": 572,
    "tions</w>": 573,
    "ni": 574,
    "ice</w>": 575,
    "loc": 576,
    "ste": 577,
    "arm": 578,
    "yp": 579,
    "ian</w>": 580,
    "gro": 581,
    "used</w>": 582,
    "ke": 583,
    "serv": 584,
    "old</w>": 585,
    "ite</w>": 586,
    "tic</w>": 587,
    "red</w>": 588,
    "writ": 589,
    "city</w>": 590,
    "ye": 591,
    "ship</w>": 592,
    "ss</w>": 593,
    "ase</w>": 594,
    "reg": 595,
    "though</w>": 596,
    "mad": 597,
    "sion</w>": 598,
    "tre": 599,
    "199": 600,
    "ten": 601,
    "ist": 602,
    "sch": 603,
    "histor": 604,
    "war</w>": 605,
    "later</w>": 606,
    "ell": 607,
    "struc": 608,
    "ern</w>": 609,
    "h</w>": 610,
    "album</w>": 611,
    "z</w>": 612,
    "no</w>": 613,
    "may</w>": 614,
    "tor": 615,
    "num": 616,
    "there</w>": 617,
    "three</w>": 618,
    "pri": 619,
    "throu": 620,
    "eg": 621,
    "would</w>": 622,
    "ook</w>": 623,
    "ose</w>": 624,
    "buil": 625,
    "la": 626,
    "lar": 627,
    "about</w>": 628,
    "ps</w>": 629,
    "hou": 630,
    "sou": 631,
    "wil": 632,
    "tow": 633,
    "of": 634,
    "tea": 635,
    "re</w>": 636,
    "secon": 637,
    "ames</w>": 638,
    "betw": 639,
    "between</w>": 640,
    "season</w>": 641,
    "ord": 642,
    "ten</w>": 643,
    "many</w>": 644,
    "ans</w>": 645,
    "ew": 646,
    "do": 647,
    "produc": 648,
    "stu": 649,
    "some</w>": 650,
    "ood</w>": 651,
    "olog": 652,
    "year</w>": 653,
    "sur": 654,
    "sel": 655,
    "ren": 656,
    "ily</w>": 657,
    "ble</w>": 658,
    "sig": 659,
    "eng": 660,
    "ist</w>": 661,
    "ished</w>": 662,
    "dev": 663,
    "ang": 664,
    "ning</w>": 665,
    "pp": 666,
    "ust</w>": 667,
    "pop": 668,
    "res</w>": 669,
    "bro": 670,
    "them</w>": 671,
    "ational</w>": 672,
    "iz": 673,
    "him</w>": 674,
    "ric": 675,
    "rele": 676,
    "na": 677,
    "fu": 678,
    "fer": 679,
    "being</w>": 680,
    "ears</w>": 681,
    "these</w>": 682,
    "film</w>": 683,
    "ities</w>": 684,
    "rea": 685,
    "beg": 686,
    "ob": 687,
    "bel": 688,
    "ger": 689,
    "ong": 690,
    "fa": 691,
    "sub": 692,
    "ect</w>": 693,
    "sti": 694,
    "000</w>": 695,
    "les</w>": 696,
    "game</w>": 697,
    "pa": 698,
    "mov": 699,
    "vis": 700,
    "such</w>": 701,
    "ered</w>": 702,
    "sh</w>": 703,
    "poin": 704,
    "where</w>": 705,
    "world</w>": 706,
    "can": 707,
    "charac": 708,
    "second</w>": 709,
    "enti": 710,
    "ture</w>": 711,
    "gra": 712,
    "indi": 713,
    "ed": 714,
    "foll": 715,
    "gal": 716,
    "cap": 717,
    "und</w>": 718,
    "whe": 719,
    "consi": 720,
    "um</w>": 721,
    "bar": 722,
    "led</w>": 723,
    "made</w>": 724,
    "oper": 725,
    "ms</w>": 726,
    "number</w>": 727,
    "cra": 728,
    "ating</w>": 729,
    "op</w>": 730,
    "direc": 731,
    "te": 732,
    "ol</w>": 733,
    "mis": 734,
    "cu": 735,
    "fac": 736,
    "port</w>": 737,
    "fore</w>": 738,
    "years</w>": 739,
    "four</w>": 740,
    "sul": 741,
    "cul": 742,
    "jord": 743,
    "jordan</w>": 744,
    "although</w>": 745,
    "with": 746,
    "under</w>": 747,
    "how": 748,
    "194": 749,
    "became</w>": 750,
    "both</w>": 751,
    "nov": 752,
    "tri": 753,
    "well</w>": 754,
    "gi": 755,
    "amer": 756,
    "lan": 757,
    "can</w>": 758,
    "ement</w>": 759,
    "ge": 760,
    "white</w>": 761,
    "play</w>": 762,
    "ork</w>": 763,
    "national</w>": 764,
    "compl": 765,
    "tiv": 766,
    "var": 767,
    "then</w>": 768,
    "c</w>": 769,
    "are": 770,
    "tor</w>": 771,
    "owing</w>": 772,
    "descri": 773,
    "star": 774,
    "ters</w>": 775,
    "tly</w>": 776,
    "offic": 777,
    "day</w>": 778,
    "fic": 779,
    "ors</w>": 780,
    "pen": 781,
    "posi": 782,
    "mem": 783,
    "hel": 784,
    "early</w>": 785,
    "nam": 786,
    "music</w>": 787,
    "song</w>": 788,
    "fe</w>": 789,
    "orig": 790,
    "mat": 791,
    "several</w>": 792,
    "way</w>": 793,
    "however</w>": 794,
    "sup": 795,
    "side</w>": 796,
    "od": 797,
    "state</w>": 798,
    "ross</w>": 799,
    "tish</w>": 800,
    "tro": 801,
    "work</w>": 802,
    "pan": 803,
    "like</w>": 804,
    "ected</w>": 805,
    "ved</w>": 806,
    "part</w>": 807,
    "diff": 808,
    "known</w>": 809,
    "ause</w>": 810,
    "ie": 811,
    "ays</w>": 812,
    "united</w>": 813,
    "before</w>": 814,
    "americ": 815,
    "through</w>": 816,
    "sing": 817,
    "rema": 818,
    "ei": 819,
    "ced</w>": 820,
    "because</w>": 821,
    "dre": 822,
    "scho": 823,
    "198": 824,
    "hea": 825,
    "ular</w>": 826,
    "ton</w>": 827,
    "ju": 828,
    "team</w>": 829,
    "wheel": 830,
    "inal</w>": 831,
    "tran": 832,
    "ber": 833,
    "br": 834,
    "british</w>": 835,
    "ying</w>": 836,
    "inv": 837,
    "sin": 838,
    "ury</w>": 839,
    "ards</w>": 840,
    "again": 841,
    "against</w>": 842,
    "call": 843,
    "cc": 844,
    "states</w>": 845,
    "bas": 846,
    "west</w>": 847,
    "dra": 848,
    "long</w>": 849,
    "chur": 850,
    "her": 851,
    "sted</w>": 852,
    "mu": 853,
    "10</w>": 854,
    "line</w>": 855,
    "fam": 856,
    "—</w>": 857,
    "ining</w>": 858,
    "pi": 859,
    "revi": 860,
    "self</w>": 861,
    "york</w>": 862,
    "rel": 863,
    "ower</w>": 864,
    "gover": 865,
    "ae": 866,
    "peo": 867,
    "bed</w>": 868,
    "succ": 869,
    "cer": 870,
    "fri": 871,
    "%</w>": 872,
    "wheeler</w>": 873,
    "ann": 874,
    "ving</w>": 875,
    "peri": 876,
    "including</w>": 877,
    "me</w>": 878,
    "van": 879,
    "ole</w>": 880,
    "rach": 881,
    "each</w>": 882,
    "tional</w>": 883,
    "ns</w>": 884,
    "ii</w>": 885,
    "ised</w>": 886,
    "people</w>": 887,
    "iver": 888,
    "began</w>": 889,
    "ale</w>": 890,
    "app": 891,
    "history</w>": 892,
    "stan": 893,
    "port": 894,
    "ses</w>": 895,
    "ot</w>": 896,
    "ory</w>": 897,
    "contin": 898,
    "said</w>": 899,
    "lit": 900,
    "193": 901,
    "archae": 902,
    "archaeolog": 903,
    "devel": 904,
    "cur": 905,
    "typ": 906,
    "times</w>": 907,
    "church</w>": 908,
    "series</w>": 909,
    "tle</w>": 910,
    "ines</w>": 911,
    "/</w>": 912,
    "high": 913,
    "govern": 914,
    "sm": 915,
    "des</w>": 916,
    "ris": 917,
    "north</w>": 918,
    "vest": 919,
    "shor": 920,
    "ry</w>": 921,
    "win": 922,
    "rachel</w>": 923,
    "feat": 924,
    "off</w>": 925,
    "ll</w>": 926,
    "grou": 927,
    "fur": 928,
    "ony</w>": 929,
    "critic": 930,
    "sol": 931,
    "ual</w>": 932,
    "eiv": 933,
    "could</w>": 934,
    "sed</w>": 935,
    "area</w>": 936,
    "desig": 937,
    "act</w>": 938,
    "ties</w>": 939,
    "ched</w>": 940,
    "best</w>": 941,
    "ve": 942,
    "bi": 943,
    "nic": 944,
    "galvest": 945,
    "galveston</w>": 946,
    "under": 947,
    "$</w>": 948,
    "univer": 949,
    "same</w>": 950,
    "tel": 951,
    "south</w>": 952,
    "develop": 953,
    "u</w>": 954,
    "you": 955,
    "public</w>": 956,
    "plac": 957,
    "he": 958,
    "bor": 959,
    "chil": 960,
    "high</w>": 961,
    "dition</w>": 962,
    "name</w>": 963,
    "life</w>": 964,
    "gods</w>": 965,
    "val": 966,
    "joh": 967,
    "ground</w>": 968,
    "ass</w>": 969,
    "cep": 970,
    "dy</w>": 971,
    "sen": 972,
    "form</w>": 973,
    "ther": 974,
    "care": 975,
    "sl": 976,
    "ga": 977,
    "tru": 978,
    "accor": 979,
    "even</w>": 980,
    "released</w>": 981,
    "played</w>": 982,
    "receiv": 983,
    "def": 984,
    "ll": 985,
    "17": 986,
    "ome": 987,
    "ful</w>": 988,
    "general</w>": 989,
    "since</w>": 990,
    "scor": 991,
    "retur": 992,
    "sty": 993,
    "called</w>": 994,
    "ball</w>": 995,
    "air</w>": 996,
    "black</w>": 997,
    "comman": 998,
    "dered</w>": 999,
    "inc": 1000,
    "0s</w>": 1001,
    "arly</w>": 1002,
    "kel": 1003,
    "ot": 1004,
    "wee": 1005,
    "ron": 1006,
    "ism</w>": 1007,
    "ster</w>": 1008,
    "hum": 1009,
    "ague</w>": 1010,
    "out": 1011,
    "bers</w>": 1012,
    "following</w>": 1013,
    "jun": 1014,
    "batt": 1015,
    "iev": 1016,
    "site</w>": 1017,
    "soc": 1018,
    "roy": 1019,
    "dem": 1020,
    "dam": 1021,
    "giv": 1022,
    "lion</w>": 1023,
    "fran": 1024,
    "phi": 1025,
    "pt": 1026,
    "30</w>": 1027,
    "dic": 1028,
    "hol": 1029,
    "stein</w>": 1030,
    "army</w>": 1031,
    "do</w>": 1032,
    "ious</w>": 1033,
    "ew</w>": 1034,
    "20</w>": 1035,
    "ented</w>": 1036,
    "itary</w>": 1037,
    "fre": 1038,
    "sive</w>": 1039,
    "another</w>": 1040,
    "record</w>": 1041,
    "town": 1042,
    "sar": 1043,
    "squ": 1044,
    "five</w>": 1045,
    "you</w>": 1046,
    "ip": 1047,
    "back</w>": 1048,
    "ker</w>": 1049,
    "construc": 1050,
    "american</w>": 1051,
    "any</w>": 1052,
    "tal</w>": 1053,
    "contro": 1054,
    "book</w>": 1055,
    "partic": 1056,
    "sts</w>": 1057,
    "sity</w>": 1058,
    "found</w>": 1059,
    "tain</w>": 1060,
    "according</w>": 1061,
    "thir": 1062,
    "military</w>": 1063,
    "onal</w>": 1064,
    "tem": 1065,
    "spon": 1066,
    "pic": 1067,
    "described</w>": 1068,
    "nia</w>": 1069,
    "around</w>": 1070,
    "lead": 1071,
    "up": 1072,
    "century</w>": 1073,
    "fiel": 1074,
    "new": 1075,
    "da": 1076,
    "ali": 1077,
    "ences</w>": 1078,
    "ver</w>": 1079,
    "12</w>": 1080,
    "197": 1081,
    "gg": 1082,
    "god</w>": 1083,
    "sk": 1084,
    "ery</w>": 1085,
    "island</w>": 1086,
    "games</w>": 1087,
    "if</w>": 1088,
    "send</w>": 1089,
    "aged</w>": 1090,
    "roc": 1091,
    "named</w>": 1092,
    "school</w>": 1093,
    "polish</w>": 1094,
    "ven</w>": 1095,
    "differ": 1096,
    "home</w>": 1097,
    "appear": 1098,
    "ages</w>": 1099,
    "disc": 1100,
    "cav": 1101,
    "spor": 1102,
    "resul": 1103,
    "league</w>": 1104,
    "hor": 1105,
    "[</w>": 1106,
    "]</w>": 1107,
    "coll": 1108,
    "dist": 1109,
    "formed</w>": 1110,
    "dent</w>": 1111,
    "50</w>": 1112,
    "octo": 1113,
    "october</w>": 1114,
    "built</w>": 1115,
    "eu": 1116,
    "order</w>": 1117,
    "ba": 1118,
    "group</w>": 1119,
    "german</w>": 1120,
    "townsend</w>": 1121,
    "finkel": 1122,
    "finkelstein</w>": 1123,
    "those</w>": 1124,
    "unti": 1125,
    "until</w>": 1126,
    "did</w>": 1127,
    "org": 1128,
    "studi": 1129,
    "egyp": 1130,
    "antim": 1131,
    "single</w>": 1132,
    "ram": 1133,
    "maj": 1134,
    "anc": 1135,
    "government</w>": 1136,
    "fun": 1137,
    "cou": 1138,
    "career</w>": 1139,
    "received</w>": 1140,
    "youn": 1141,
    "war": 1142,
    "repres": 1143,
    "hal": 1144,
    "ships</w>": 1145,
    "character</w>": 1146,
    "will</w>": 1147,
    "pers": 1148,
    "plo": 1149,
    "what</w>": 1150,
    "ject</w>": 1151,
    "inst": 1152,
    "incre": 1153,
    "191": 1154,
    "ches</w>": 1155,
    "nicole</w>": 1156,
    "zhou": 1157,
    "zhou</w>": 1158,
    "based</w>": 1159,
    "position</w>": 1160,
    "east</w>": 1161,
    "larg": 1162,
    "cour": 1163,
    "ain</w>": 1164,
    "cle": 1165,
    "university</w>": 1166,
    "some": 1167,
    "thing</w>": 1168,
    "comple": 1169,
    "row": 1170,
    "gar": 1171,
    "omin": 1172,
    "don</w>": 1173,
    "along</w>": 1174,
    "ized</w>": 1175,
    "main</w>": 1176,
    "place</w>": 1177,
    "power</w>": 1178,
    "ful": 1179,
    "ril</w>": 1180,
    "set</w>": 1181,
    "fle": 1182,
    "large</w>": 1183,
    "ise</w>": 1184,
    "tex": 1185,
    "initi": 1186,
    "ility</w>": 1187,
    "sept": 1188,
    "september</w>": 1189,
    "ken</w>": 1190,
    "auth": 1191,
    "open": 1192,
    "per</w>": 1193,
    "april</w>": 1194,
    "popul": 1195,
    "ut": 1196,
    "craft</w>": 1197,
    "antimony</w>": 1198,
    "od</w>": 1199,
    "end": 1200,
    "continu": 1201,
    "now</w>": 1202,
    "took</w>": 1203,
    "respon": 1204,
    "style</w>": 1205,
    "co</w>": 1206,
    "import": 1207,
    "wom": 1208,
    "ects</w>": 1209,
    "emp": 1210,
    "show</w>": 1211,
    "ti</w>": 1212,
    "aug": 1213,
    "human</w>": 1214,
    "ban": 1215,
    "medi": 1216,
    "ner</w>": 1217,
    "november</w>": 1218,
    "cam": 1219,
    "light</w>": 1220,
    "little</w>": 1221,
    "nat": 1222,
    "195": 1223,
    "original</w>": 1224,
    "pat": 1225,
    "pur": 1226,
    "john</w>": 1227,
    "ently</w>": 1228,
    "ack": 1229,
    "tian</w>": 1230,
    "stitu": 1231,
    "rist": 1232,
    "million</w>": 1233,
    "pit": 1234,
    "them": 1235,
    "much</w>": 1236,
    "owed</w>": 1237,
    "included</w>": 1238,
    "christ": 1239,
    "aircraft</w>": 1240,
    "sarnia</w>": 1241,
    "epis": 1242,
    "abl": 1243,
    "six</w>": 1244,
    "so": 1245,
    "family</w>": 1246,
    "tical</w>": 1247,
    "down</w>": 1248,
    "prot": 1249,
    "moved</w>": 1250,
    "bru": 1251,
    "ends</w>": 1252,
    "196": 1253,
    "rus": 1254,
    "due</w>": 1255,
    "love</w>": 1256,
    "fied</w>": 1257,
    "ately</w>": 1258,
    "sit": 1259,
    "species</w>": 1260,
    "roman": 1261,
    "vide": 1262,
    "top</w>": 1263,
    "ral</w>": 1264,
    "ection</w>": 1265,
    "cla": 1266,
    "reli": 1267,
    "appro": 1268,
    "ision</w>": 1269,
    "arti": 1270,
    "establ": 1271,
    "ous": 1272,
    "har": 1273,
    "ported</w>": 1274,
    "try</w>": 1275,
    "iety</w>": 1276,
    "ually</w>": 1277,
    "25</w>": 1278,
    "organ": 1279,
    "ves</w>": 1280,
    "rock</w>": 1281,
    "am</w>": 1282,
    "signed</w>": 1283,
    "building</w>": 1284,
    "often</w>": 1285,
    "ments</w>": 1286,
    "flu": 1287,
    "provi": 1288,
    "den": 1289,
    "assoc": 1290,
    "associ": 1291,
    "ba</w>": 1292,
    "ys": 1293,
    "pal": 1294,
    "fey</w>": 1295,
    "vic": 1296,
    "within</w>": 1297,
    "spac": 1298,
    "yue</w>": 1299,
    "third</w>": 1300,
    "forces</w>": 1301,
    "ged</w>": 1302,
    "thern</w>": 1303,
    "2007</w>": 1304,
    "jan": 1305,
    "previ": 1306,
    "young</w>": 1307,
    "requ": 1308,
    "ode</w>": 1309,
    "plan": 1310,
    "june</w>": 1311,
    "den</w>": 1312,
    "equ": 1313,
    "compan": 1314,
    "cast": 1315,
    "west": 1316,
    "dest": 1317,
    "wan": 1318,
    "sum": 1319,
    "small</w>": 1320,
    "fes": 1321,
    "won</w>": 1322,
    "wro": 1323,
    "wrote</w>": 1324,
    "ghts</w>": 1325,
    "tin</w>": 1326,
    "bur": 1327,
    "del": 1328,
    "august</w>": 1329,
    "15</w>": 1330,
    "ones</w>": 1331,
    "austr": 1332,
    "ows</w>": 1333,
    "less</w>": 1334,
    "posed</w>": 1335,
    "simil": 1336,
    "11</w>": 1337,
    "star</w>": 1338,
    "2013</w>": 1339,
    "kes</w>": 1340,
    "clos": 1341,
    "club</w>": 1342,
    "ching</w>": 1343,
    "gold</w>": 1344,
    "considered</w>": 1345,
    "ath</w>": 1346,
    "foo": 1347,
    "lab": 1348,
    "dge</w>": 1349,
    "published</w>": 1350,
    "indu": 1351,
    "euro": 1352,
    "2010</w>": 1353,
    "action</w>": 1354,
    "just</w>": 1355,
    "stated</w>": 1356,
    "issu": 1357,
    "left</w>": 1358,
    "thers</w>": 1359,
    "eff": 1360,
    "stra": 1361,
    "lev": 1362,
    "december</w>": 1363,
    "water</w>": 1364,
    "perfor": 1365,
    "performan": 1366,
    "cat": 1367,
    "field</w>": 1368,
    "video</w>": 1369,
    "ach</w>": 1370,
    "through": 1371,
    "throughout</w>": 1372,
    "success": 1373,
    "gener": 1374,
    "dou": 1375,
    "among</w>": 1376,
    "commun": 1377,
    "using</w>": 1378,
    "believ": 1379,
    "my</w>": 1380,
    "om</w>": 1381,
    "16</w>": 1382,
    "ogra": 1383,
    "ley</w>": 1384,
    "sent": 1385,
    "ures</w>": 1386,
    "very</w>": 1387,
    "read": 1388,
    "make</w>": 1389,
    "major</w>": 1390,
    "18</w>": 1391,
    "agre": 1392,
    "2008</w>": 1393,
    "exam": 1394,
    "monum": 1395,
    "player</w>": 1396,
    "advan": 1397,
    "still</w>": 1398,
    "ward</w>": 1399,
    "pass": 1400,
    "192": 1401,
    "ef": 1402,
    "construction</w>": 1403,
    "away</w>": 1404,
    "boo": 1405,
    "late</w>": 1406,
    "tball</w>": 1407,
    "v</w>": 1408,
    "pil": 1409,
    "great</w>": 1410,
    "half</w>": 1411,
    "spir": 1412,
    "town</w>": 1413,
    "james</w>": 1414,
    "track</w>": 1415,
    "nav": 1416,
    "km</w>": 1417,
    "influ": 1418,
    "dom</w>": 1419,
    "sha": 1420,
    "uary</w>": 1421,
    "ied</w>": 1422,
    "hy": 1423,
    "ys</w>": 1424,
    "r</w>": 1425,
    "cham": 1426,
    "brea": 1427,
    "stern</w>": 1428,
    "doll": 1429,
    "lim": 1430,
    "become</w>": 1431,
    "ped</w>": 1432,
    "art</w>": 1433,
    "period</w>": 1434,
    "board</w>": 1435,
    "13</w>": 1436,
    "eight</w>": 1437,
    "christm": 1438,
    "christmas</w>": 1439,
    "card": 1440,
    "county</w>": 1441,
    "ements</w>": 1442,
    "again</w>": 1443,
    "leg": 1444,
    "ended</w>": 1445,
    "sugg": 1446,
    "2009</w>": 1447,
    "jew": 1448,
    "director</w>": 1449,
    "route</w>": 1450,
    "ality</w>": 1451,
    "produced</w>": 1452,
    "project</w>": 1453,
    "stri": 1454,
    "ously</w>": 1455,
    "lock</w>": 1456,
    "win</w>": 1457,
    "deities</w>": 1458,
    "ga</w>": 1459,
    "sible</w>": 1460,
    "os</w>": 1461,
    "hu": 1462,
    "lon": 1463,
    "isra": 1464,
    "january</w>": 1465,
    "els</w>": 1466,
    "los": 1467,
    "further</w>": 1468,
    "erc": 1469,
    "relation": 1470,
    "role</w>": 1471,
    "2011</w>": 1472,
    "force</w>": 1473,
    "episode</w>": 1474,
    "given</w>": 1475,
    "im</w>": 1476,
    "right</w>": 1477,
    "my": 1478,
    "noted</w>": 1479,
    "arch</w>": 1480,
    "key</w>": 1481,
    "served</w>": 1482,
    "ict</w>": 1483,
    "head</w>": 1484,
    "near</w>": 1485,
    "doc": 1486,
    "placed</w>": 1487,
    "ie</w>": 1488,
    "pe</w>": 1489,
    "tics</w>": 1490,
    "fren": 1491,
    "az": 1492,
    "vol": 1493,
    "members</w>": 1494,
    "tar": 1495,
    "ribu": 1496,
    "recorded</w>": 1497,
    "muse": 1498,
    "men</w>": 1499,
    "ths</w>": 1500,
    "sex": 1501,
    "hun": 1502,
    "2006</w>": 1503,
    "kra": 1504,
    "poli": 1505,
    "release</w>": 1506,
    "point</w>": 1507,
    "ven": 1508,
    "last</w>": 1509,
    "chan": 1510,
    "wat": 1511,
    "ured</w>": 1512,
    "inten": 1513,
    "march</w>": 1514,
    "ford</w>": 1515,
    "father</w>": 1516,
    "mark": 1517,
    "writing</w>": 1518,
    "ron</w>": 1519,
    "haven</w>": 1520,
    "story</w>": 1521,
    "sal": 1522,
    "different</w>": 1523,
    "acc": 1524,
    "tage</w>": 1525,
    "tively</w>": 1526,
    "central</w>": 1527,
    "et": 1528,
    "attemp": 1529,
    "acti": 1530,
    "19</w>": 1531,
    "ells</w>": 1532,
    "ples</w>": 1533,
    "french</w>": 1534,
    "western</w>": 1535,
    "ext</w>": 1536,
    "production</w>": 1537,
    "cas": 1538,
    "telev": 1539,
    "ze</w>": 1540,
    "childre": 1541,
    "children</w>": 1542,
    "ute</w>": 1543,
    "bs</w>": 1544,
    "without</w>": 1545,
    "tog": 1546,
    "syn": 1547,
    "located</w>": 1548,
    "local</w>": 1549,
    "death</w>": 1550,
    "21</w>": 1551,
    "ton": 1552,
    "hur": 1553,
    "uns</w>": 1554,
    "ditional</w>": 1555,
    "invol": 1556,
    "moder": 1557,
    "sing</w>": 1558,
    "song": 1559,
    "40</w>": 1560,
    "sem": 1561,
    "former</w>": 1562,
    "tin": 1563,
    "speci": 1564,
    "get</w>": 1565,
    "fem": 1566,
    "div": 1567,
    "ring</w>": 1568,
    "friends</w>": 1569,
    "ide</w>": 1570,
    "gr": 1571,
    "nathan</w>": 1572,
    "ried</w>": 1573,
    "tial</w>": 1574,
    "class</w>": 1575,
    "ign</w>": 1576,
    "sequ": 1577,
    "television</w>": 1578,
    "14</w>": 1579,
    "held</w>": 1580,
    "tom": 1581,
    "contr": 1582,
    "london</w>": 1583,
    "important</w>": 1584,
    "pra": 1585,
    "take</w>": 1586,
    "house</w>": 1587,
    "bal": 1588,
    "search</w>": 1589,
    "wal": 1590,
    "civ": 1591,
    "came</w>": 1592,
    "austral": 1593,
    "24</w>": 1594,
    "dents</w>": 1595,
    "tors</w>": 1596,
    "ested</w>": 1597,
    "chart</w>": 1598,
    "squad": 1599,
    "expl": 1600,
    "va</w>": 1601,
    "sions</w>": 1602,
    "vo": 1603,
    "stem</w>": 1604,
    "written</w>": 1605,
    "trans": 1606,
    "cast</w>": 1607,
    "gl": 1608,
    "sta": 1609,
    "should</w>": 1610,
    "ind</w>": 1611,
    "assi": 1612,
    "comb": 1613,
    "space</w>": 1614,
    "desp": 1615,
    "despite</w>": 1616,
    "promo": 1617,
    "23</w>": 1618,
    "continued</w>": 1619,
    "institu": 1620,
    "clear</w>": 1621,
    "july</w>": 1622,
    "review": 1623,
    "excav": 1624,
    "fic</w>": 1625,
    "once</w>": 1626,
    "fan": 1627,
    "ur</w>": 1628,
    "signi": 1629,
    "gir": 1630,
    "ars</w>": 1631,
    "final</w>": 1632,
    "nu": 1633,
    "cha": 1634,
    "rul": 1635,
    "castle</w>": 1636,
    "wn</w>": 1637,
    "fron": 1638,
    "ref": 1639,
    "ail": 1640,
    "2012</w>": 1641,
    "ick</w>": 1642,
    "ions</w>": 1643,
    "lead</w>": 1644,
    "17</w>": 1645,
    "ws</w>": 1646,
    "population</w>": 1647,
    "cir": 1648,
    "king": 1649,
    "vir": 1650,
    "sym": 1651,
    "med": 1652,
    "command": 1653,
    "operations</w>": 1654,
    "control</w>": 1655,
    "set": 1656,
    "non</w>": 1657,
    "review</w>": 1658,
    "songs</w>": 1659,
    "100</w>": 1660,
    "acad": 1661,
    "academ": 1662,
    "we</w>": 1663,
    "stry</w>": 1664,
    "fleet</w>": 1665,
    "aml</w>": 1666,
    "chang": 1667,
    "ests</w>": 1668,
    "list</w>": 1669,
    "main": 1670,
    "ra</w>": 1671,
    "fel": 1672,
    "good</w>": 1673,
    "blue</w>": 1674,
    "elec": 1675,
    "sci": 1676,
    "row</w>": 1677,
    "feet</w>": 1678,
    "not": 1679,
    "defen": 1680,
    "india</w>": 1681,
    "dru": 1682,
    "stand": 1683,
    "mation</w>": 1684,
    "players</w>": 1685,
    "upon</w>": 1686,
    "similar</w>": 1687,
    "live</w>": 1688,
    "include</w>": 1689,
    "respec": 1690,
    "nec": 1691,
    "aper</w>": 1692,
    "women</w>": 1693,
    "society</w>": 1694,
    "scored</w>": 1695,
    "range</w>": 1696,
    "sil": 1697,
    "sour": 1698,
    "eastern</w>": 1699,
    "bus": 1700,
    "shiva</w>": 1701,
    "nba</w>": 1702,
    "him": 1703,
    "seven</w>": 1704,
    "presi": 1705,
    "ols</w>": 1706,
    "int</w>": 1707,
    "long": 1708,
    "few</w>": 1709,
    "stre": 1710,
    "night</w>": 1711,
    "ult</w>": 1712,
    "spacing</w>": 1713,
    "ferred</w>": 1714,
    "having</w>": 1715,
    "ways</w>": 1716,
    "himself</w>": 1717,
    "next</w>": 1718,
    "come</w>": 1719,
    "gave</w>": 1720,
    "body</w>": 1721,
    "ists</w>": 1722,
    "public": 1723,
    "febru": 1724,
    "february</w>": 1725,
    "uk</w>": 1726,
    "depic": 1727,
    "type</w>": 1728,
    "ston</w>": 1729,
    "cardinal</w>": 1730,
    "!</w>": 1731,
    "performance</w>": 1732,
    "tural</w>": 1733,
    "acks</w>": 1734,
    "ide": 1735,
    "ative</w>": 1736,
    "origin": 1737,
    "cop": 1738,
    "how</w>": 1739,
    "pped</w>": 1740,
    "established</w>": 1741,
    "186": 1742,
    "days</w>": 1743,
    "ligh": 1744,
    "center</w>": 1745,
    "afric": 1746,
    "ina</w>": 1747,
    "wing</w>": 1748,
    "é</w>": 1749,
    "bar</w>": 1750,
    "returned</w>": 1751,
    "ill</w>": 1752,
    "move</w>": 1753,
    "toge": 1754,
    "together</w>": 1755,
    "ce": 1756,
    "popular</w>": 1757,
    "design</w>": 1758,
    "stone</w>": 1759,
    "author": 1760,
    "various</w>": 1761,
    "river</w>": 1762,
    "chap": 1763,
    "ey</w>": 1764,
    "signific": 1765,
    "hos": 1766,
    "ental</w>": 1767,
    "seen</w>": 1768,
    "ade</w>": 1769,
    "ound": 1770,
    "truj": 1771,
    "trujill": 1772,
    "trujillo</w>": 1773,
    "developed</w>": 1774,
    "lin": 1775,
    "short</w>": 1776,
    "others</w>": 1777,
    "museum</w>": 1778,
    "ural</w>": 1779,
    "quar": 1780,
    "bir": 1781,
    "ead</w>": 1782,
    "han": 1783,
    "atory</w>": 1784,
    "phy</w>": 1785,
    "mid": 1786,
    "manag": 1787,
    "appoin": 1788,
    "kingdom</w>": 1789,
    "pag": 1790,
    "characters</w>": 1791,
    "que</w>": 1792,
    "class": 1793,
    "support</w>": 1794,
    "uk": 1795,
    "felt</w>": 1796,
    "novel</w>": 1797,
    "ark": 1798,
    "189": 1799,
    "instead</w>": 1800,
    "depar": 1801,
    "occu": 1802,
    "claim": 1803,
    "international</w>": 1804,
    "lad": 1805,
    "date</w>": 1806,
    "dy": 1807,
    "jewish</w>": 1808,
    "heav": 1809,
    "ats</w>": 1810,
    "victor": 1811,
    "ially</w>": 1812,
    "iting</w>": 1813,
    "country</w>": 1814,
    "abo": 1815,
    "domin": 1816,
    "union</w>": 1817,
    "ago</w>": 1818,
    "fif": 1819,
    "ator</w>": 1820,
    "earli": 1821,
    "onom": 1822,
    "press</w>": 1823,
    "version</w>": 1824,
    "ta</w>": 1825,
    "squadron</w>": 1826,
    "relationship</w>": 1827,
    "depen": 1828,
    "system</w>": 1829,
    "suff": 1830,
    "ems</w>": 1831,
    "too</w>": 1832,
    "yed</w>": 1833,
    "road</w>": 1834,
    "tation</w>": 1835,
    "sent</w>": 1836,
    "remained</w>": 1837,
    "187": 1838,
    "tis": 1839,
    "tech": 1840,
    "wide</w>": 1841,
    "commerc": 1842,
    "ering</w>": 1843,
    "view": 1844,
    "four": 1845,
    "cath": 1846,
    "cathol": 1847,
    "israel</w>": 1848,
    "li</w>": 1849,
    "playing</w>": 1850,
    "gam": 1851,
    "development</w>": 1852,
    "points</w>": 1853,
    "ep</w>": 1854,
    "full</w>": 1855,
    "mit": 1856,
    "cy</w>": 1857,
    "188": 1858,
    "educ": 1859,
    "nh": 1860,
    "colle": 1861,
    "curren": 1862,
    "storm</w>": 1863,
    "brit": 1864,
    "audi": 1865,
    "nest</w>": 1866,
    "vision</w>": 1867,
    "destroy": 1868,
    "face</w>": 1869,
    "ided</w>": 1870,
    "modern</w>": 1871,
    "ash</w>": 1872,
    "total</w>": 1873,
    "moun": 1874,
    "born</w>": 1875,
    "fav": 1876,
    "colum": 1877,
    "band</w>": 1878,
    "’</w>": 1879,
    "never</w>": 1880,
    "iled</w>": 1881,
    "aver": 1882,
    "ander": 1883,
    "formation</w>": 1884,
    "tad": 1885,
    "previous</w>": 1886,
    "indivi": 1887,
    "individu": 1888,
    "created</w>": 1889,
    "reported</w>": 1890,
    "ably</w>": 1891,
    "ast": 1892,
    "ically</w>": 1893,
    "anderson</w>": 1894,
    "anti</w>": 1895,
    "dollar</w>": 1896,
    "ire</w>": 1897,
    "great": 1898,
    "ever": 1899,
    "prob": 1900,
    "cro": 1901,
    "event": 1902,
    "head": 1903,
    "ams</w>": 1904,
    "survi": 1905,
    "training</w>": 1906,
    "roman</w>": 1907,
    "voc": 1908,
    "accep": 1909,
    "mix</w>": 1910,
    "duced</w>": 1911,
    "egyptian</w>": 1912,
    "dies</w>": 1913,
    "ox": 1914,
    "went</w>": 1915,
    "battle</w>": 1916,
    "sw": 1917,
    "ben": 1918,
    "ics</w>": 1919,
    "addition</w>": 1920,
    "navy</w>": 1921,
    "cru": 1922,
    "police</w>": 1923,
    "died</w>": 1924,
    "put</w>": 1925,
    "mix": 1926,
    "award</w>": 1927,
    "ada</w>": 1928,
    "bran": 1929,
    "iii</w>": 1930,
    "spea": 1931,
    "does</w>": 1932,
    "member</w>": 1933,
    "ularly</w>": 1934,
    "enced</w>": 1935,
    "research</w>": 1936,
    "president</w>": 1937,
    "profes": 1938,
    "jac": 1939,
    "dian</w>": 1940,
    "double</w>": 1941,
    "bre": 1942,
    "recording</w>": 1943,
    "royal</w>": 1944,
    "awards</w>": 1945,
    "sov": 1946,
    "rang</w>": 1947,
    "secre": 1948,
    "making</w>": 1949,
    "ens</w>": 1950,
    "22</w>": 1951,
    "becom": 1952,
    "ital</w>": 1953,
    "scen": 1954,
    "mater": 1955,
    "go</w>": 1956,
    "taken</w>": 1957,
    "damaged</w>": 1958,
    "tower</w>": 1959,
    "common</w>": 1960,
    "ash": 1961,
    "oned</w>": 1962,
    "ots</w>": 1963,
    "ues</w>": 1964,
    "person": 1965,
    "ak": 1966,
    "enth</w>": 1967,
    "saw</w>": 1968,
    "eman</w>": 1969,
    "leuk": 1970,
    "archaeological</w>": 1971,
    "sap": 1972,
    "saprang</w>": 1973,
    "low</w>": 1974,
    "person</w>": 1975,
    "female</w>": 1976,
    "post</w>": 1977,
    "ient</w>": 1978,
    "leading</w>": 1979,
    "writer</w>": 1980,
    "mer</w>": 1981,
    "hom": 1982,
    "feder": 1983,
    "company</w>": 1984,
    "emplo": 1985,
    "guns</w>": 1986,
    "case</w>": 1987,
    "ls</w>": 1988,
    "vill": 1989,
    "schol": 1990,
    "ports</w>": 1991,
    "least</w>": 1992,
    "archit": 1993,
    "60</w>": 1994,
    "viol": 1995,
    "syl": 1996,
    "iston</w>": 1997,
    "leukem": 1998,
    "rest</w>": 1999,
    "ops</w>": 2000,
    "fire</w>": 2001,
    "originally</w>": 2002,
    "tures</w>": 2003,
    "park</w>": 2004,
    "performed</w>": 2005,
    "above</w>": 2006,
    "minist": 2007,
    "books</w>": 2008,
    "priv": 2009,
    "tour": 2010,
    "cent</w>": 2011,
    "langu": 2012,
    "political</w>": 2013,
    "mm</w>": 2014,
    "damage</w>": 2015,
    "intro": 2016,
    "era</w>": 2017,
    "court</w>": 2018,
    "radi": 2019,
    "gran": 2020,
    "special</w>": 2021,
    "ired</w>": 2022,
    "impro": 2023,
    "ach": 2024,
    "jour": 2025,
    "official</w>": 2026,
    "standing</w>": 2027,
    "ability</w>": 2028,
    "exten": 2029,
    "pris": 2030,
    "tment</w>": 2031,
    "mary</w>": 2032,
    "compe": 2033,
    "mother</w>": 2034,
    "val</w>": 2035,
    "micha": 2036,
    "run</w>": 2037,
    "films</w>": 2038,
    "industry</w>": 2039,
    "stat": 2040,
    "ants</w>": 2041,
    "wilde</w>": 2042,
    "works</w>": 2043,
    "ides</w>": 2044,
    "comp": 2045,
    "lish</w>": 2046,
    "dings</w>": 2047,
    "28</w>": 2048,
    "beh": 2049,
    "&</w>": 2050,
    "association</w>": 2051,
    "chris": 2052,
    "reached</w>": 2053,
    "ore</w>": 2054,
    "result</w>": 2055,
    "davi": 2056,
    "2015</w>": 2057,
    "britain</w>": 2058,
    "comed": 2059,
    "concer": 2060,
    "operation</w>": 2061,
    "texas</w>": 2062,
    "gol": 2063,
    "?</w>": 2064,
    "metr": 2065,
    "tained</w>": 2066,
    "critics</w>": 2067,
    "either</w>": 2068,
    "dar": 2069,
    "advantage</w>": 2070,
    "successful</w>": 2071,
    "present</w>": 2072,
    "identi": 2073,
    "sib": 2074,
    "ai</w>": 2075,
    "bert</w>": 2076,
    "ph</w>": 2077,
    "indian</w>": 2078,
    "ges</w>": 2079,
    "lost</w>": 2080,
    "sor": 2081,
    "chic": 2082,
    "conclu": 2083,
    "190": 2084,
    "level</w>": 2085,
    "lls</w>": 2086,
    "2003</w>": 2087,
    "commis": 2088,
    "wood</w>": 2089,
    "cel": 2090,
    "canada</w>": 2091,
    "ians</w>": 2092,
    "aer": 2093,
    "pping</w>": 2094,
    "underground</w>": 2095,
    "archaeology</w>": 2096,
    "ria</w>": 2097,
    "station</w>": 2098,
    "mul": 2099,
    "2014</w>": 2100,
    "records</w>": 2101,
    "xim": 2102,
    "worked</w>": 2103,
    "ened</w>": 2104,
    "ination</w>": 2105,
    "hall</w>": 2106,
    "strict</w>": 2107,
    "week</w>": 2108,
    "discover": 2109,
    "schools</w>": 2110,
    "resi": 2111,
    "rick</w>": 2112,
    "theat": 2113,
    "tv</w>": 2114,
    "iness</w>": 2115,
    "gn": 2116,
    "law</w>": 2117,
    "ane</w>": 2118,
    "sentence</w>": 2119,
    "osa": 2120,
    "outside</w>": 2121,
    "aff": 2122,
    "arded</w>": 2123,
    "mean": 2124,
    "initially</w>": 2125,
    "reve": 2126,
    "maga": 2127,
    "magaz": 2128,
    "princ": 2129,
    "eventually</w>": 2130,
    "hen": 2131,
    "behind</w>": 2132,
    "regim": 2133,
    "miles</w>": 2134,
    "roun": 2135,
    "gun</w>": 2136,
    "front</w>": 2137,
    "professi": 2138,
    "round</w>": 2139,
    "commercial</w>": 2140,
    "tter</w>": 2141,
    "phys": 2142,
    "pow": 2143,
    "fra": 2144,
    "neu": 2145,
    "albums</w>": 2146,
    "tl": 2147,
    "monument</w>": 2148,
    "iet</w>": 2149,
    "russi": 2150,
    "aniston</w>": 2151,
    "hon": 2152,
    "own": 2153,
    "command</w>": 2154,
    "sting</w>": 2155,
    "events</w>": 2156,
    "view</w>": 2157,
    "exp": 2158,
    "ending</w>": 2159,
    "english</w>": 2160,
    "tan": 2161,
    "ockey</w>": 2162,
    "lines</w>": 2163,
    "hand</w>": 2164,
    "chem": 2165,
    "26</w>": 2166,
    "goal</w>": 2167,
    "ness</w>": 2168,
    "estim": 2169,
    "community</w>": 2170,
    "sylvan": 2171,
    "comedy</w>": 2172,
    "ali</w>": 2173,
    "return</w>": 2174,
    "ine": 2175,
    "territ": 2176,
    "ly": 2177,
    "arri": 2178,
    "mas": 2179,
    "prepar": 2180,
    "service</w>": 2181,
    "aves</w>": 2182,
    "reti": 2183,
    "taking</w>": 2184,
    "hospit": 2185,
    "college</w>": 2186,
    "ka": 2187,
    "broad": 2188,
    "story": 2189,
    "cher</w>": 2190,
    "ishing</w>": 2191,
    "markgra": 2192,
    "markgraf</w>": 2193,
    "furtad": 2194,
    "furtado</w>": 2195,
    "fort</w>": 2196,
    "forms</w>": 2197,
    "month</w>": 2198,
    "office</w>": 2199,
    "mer": 2200,
    "studio</w>": 2201,
    "sometimes</w>": 2202,
    "sac": 2203,
    "wall</w>": 2204,
    "southern</w>": 2205,
    "recog": 2206,
    "cup</w>": 2207,
    "northern</w>": 2208,
    "ption</w>": 2209,
    "hockey</w>": 2210,
    "nhl</w>": 2211,
    "appointed</w>": 2212,
    "bc</w>": 2213,
    "enty</w>": 2214,
    "plan</w>": 2215,
    "success</w>": 2216,
    "treat": 2217,
    "transpor": 2218,
    "catholic</w>": 2219,
    "shol": 2220,
    "sholay</w>": 2221,
    "io</w>": 2222,
    "elling</w>": 2223,
    "strong</w>": 2224,
    "activi": 2225,
    "uses</w>": 2226,
    "child</w>": 2227,
    "kets</w>": 2228,
    "appeared</w>": 2229,
    "europe</w>": 2230,
    "na</w>": 2231,
    "45</w>": 2232,
    "tig": 2233,
    "ference</w>": 2234,
    "remains</w>": 2235,
    "norm": 2236,
    "aul</w>": 2237,
    "teen</w>": 2238,
    "neutr": 2239,
    "kers</w>": 2240,
    "nal</w>": 2241,
    "example</w>": 2242,
    "america</w>": 2243,
    "soviet</w>": 2244,
    "jap": 2245,
    "features</w>": 2246,
    "diffic": 2247,
    "uni": 2248,
    "cept</w>": 2249,
    "evid": 2250,
    "particularly</w>": 2251,
    "natural</w>": 2252,
    "draw</w>": 2253,
    "observ": 2254,
    "ington</w>": 2255,
    "flo": 2256,
    "ock</w>": 2257,
    "private</w>": 2258,
    "religi": 2259,
    "social</w>": 2260,
    "geor": 2261,
    "across</w>": 2262,
    "vari": 2263,
    "eat": 2264,
    "free</w>": 2265,
    "mag": 2266,
    "bridge</w>": 2267,
    "paul</w>": 2268,
    "michael</w>": 2269,
    "sound</w>": 2270,
    "bill": 2271,
    "cut</w>": 2272,
    "penn": 2273,
    "actre": 2274,
    "aying</w>": 2275,
    "fas": 2276,
    "bes</w>": 2277,
    "divine</w>": 2278,
    "men": 2279,
    "blood</w>": 2280,
    "hurric": 2281,
    "urus</w>": 2282,
    "adap": 2283,
    "occur": 2284,
    "kill": 2285,
    "thought</w>": 2286,
    "provided</w>": 2287,
    "magazine</w>": 2288,
    "kly</w>": 2289,
    "brou": 2290,
    "san": 2291,
    "aller</w>": 2292,
    "arts</w>": 2293,
    "historic</w>": 2294,
    "match</w>": 2295,
    "ek</w>": 2296,
    "thre": 2297,
    "ex</w>": 2298,
    "earlier</w>": 2299,
    "ounds</w>": 2300,
    "sylvania</w>": 2301,
    "argu": 2302,
    "temple</w>": 2303,
    "ders</w>": 2304,
    "avi": 2305,
    "expla": 2306,
    "hurricane</w>": 2307,
    "crake</w>": 2308,
    "ky": 2309,
    "real</w>": 2310,
    "opening</w>": 2311,
    "ution</w>": 2312,
    "limited</w>": 2313,
    "civil</w>": 2314,
    "med</w>": 2315,
    "forced</w>": 2316,
    "started</w>": 2317,
    "hib": 2318,
    "religious</w>": 2319,
    "closed</w>": 2320,
    "students</w>": 2321,
    "asons</w>": 2322,
    "australia</w>": 2323,
    "compar": 2324,
    "subsequ": 2325,
    "critical</w>": 2326,
    "eas": 2327,
    "whom</w>": 2328,
    "institute</w>": 2329,
    "eaton</w>": 2330,
    "show": 2331,
    "chron": 2332,
    "spe": 2333,
    "ech": 2334,
    "10": 2335,
    "featured</w>": 2336,
    "inspir": 2337,
    "possible</w>": 2338,
    "super": 2339,
    "officers</w>": 2340,
    "completed</w>": 2341,
    "ials</w>": 2342,
    "int": 2343,
    "fully</w>": 2344,
    "reac": 2345,
    "open</w>": 2346,
    "education</w>": 2347,
    "ology</w>": 2348,
    "2005</w>": 2349,
    "football</w>": 2350,
    "nar": 2351,
    "nature</w>": 2352,
    "econom": 2353,
    "tal": 2354,
    "adv": 2355,
    "see</w>": 2356,
    "pea": 2357,
    "additional</w>": 2358,
    "nine</w>": 2359,
    "help</w>": 2360,
    "regular</w>": 2361,
    "appe": 2362,
    "designed</w>": 2363,
    "piec": 2364,
    "working</w>": 2365,
    "avail": 2366,
    "deta": 2367,
    "anti": 2368,
    "commander</w>": 2369,
    "trav": 2370,
    "prior</w>": 2371,
    "word</w>": 2372,
    "ration</w>": 2373,
    "friend</w>": 2374,
    "base</w>": 2375,
    "lands</w>": 2376,
    "going</w>": 2377,
    "weeks</w>": 2378,
    "fourth</w>": 2379,
    "language</w>": 2380,
    "joined</w>": 2381,
    "david</w>": 2382,
    "followed</w>": 2383,
    "struck</w>": 2384,
    "reviews</w>": 2385,
    "ogue</w>": 2386,
    "flying</w>": 2387,
    "ean</w>": 2388,
    "thin": 2389,
    "2004</w>": 2390,
    "gy</w>": 2391,
    "jaz": 2392,
    "jazz</w>": 2393,
    "palest": 2394,
    "elli</w>": 2395,
    "thews</w>": 2396,
    "scri": 2397,
    "gradu": 2398,
    "lear": 2399,
    "troops</w>": 2400,
    "entire</w>": 2401,
    "inning</w>": 2402,
    "parts</w>": 2403,
    "eding</w>": 2404,
    "hear": 2405,
    "prec": 2406,
    "summer</w>": 2407,
    "ior</w>": 2408,
    "termin": 2409,
    "pressed</w>": 2410,
    "soon</w>": 2411,
    "indic": 2412,
    "ief</w>": 2413,
    "wife</w>": 2414,
    "dle</w>": 2415,
    "elled</w>": 2416,
    "willi": 2417,
    "fru": 2418,
    "ital": 2419,
    "ayer</w>": 2420,
    "scre": 2421,
    "zz": 2422,
    "metal</w>": 2423,
    "wea": 2424,
    "itz</w>": 2425,
    "baske": 2426,
    "basketball</w>": 2427,
    "bulls</w>": 2428,
    "zi": 2429,
    "valky": 2430,
    "valkyria</w>": 2431,
    "anim": 2432,
    "personal</w>": 2433,
    "meth": 2434,
    "tain": 2435,
    "corpor": 2436,
    "ils</w>": 2437,
    "lat": 2438,
    "31</w>": 2439,
    "goals</w>": 2440,
    "arsen": 2441,
    "rac": 2442,
    "wa": 2443,
    "proc": 2444,
    "allowed</w>": 2445,
    "department</w>": 2446,
    "brought</w>": 2447,
    "loo": 2448,
    "activities</w>": 2449,
    "added</w>": 2450,
    "significant</w>": 2451,
    "abor": 2452,
    "ories</w>": 2453,
    "ough</w>": 2454,
    "cm</w>": 2455,
    "close</w>": 2456,
    "contract</w>": 2457,
    "sure</w>": 2458,
    "rang": 2459,
    "va": 2460,
    "greatest</w>": 2461,
    "twenty</w>": 2462,
    "every": 2463,
    "every</w>": 2464,
    "mans</w>": 2465,
    "appl": 2466,
    "bey": 2467,
    "beyon": 2468,
    "thic</w>": 2469,
    "image</w>": 2470,
    "tour</w>": 2471,
    "aliers</w>": 2472,
    "stones</w>": 2473,
    "commandment</w>": 2474,
    "mathews</w>": 2475,
    "sters</w>": 2476,
    "material</w>": 2477,
    "decided</w>": 2478,
    "ditions</w>": 2479,
    "increased</w>": 2480,
    "wall": 2481,
    "conn": 2482,
    "ultim": 2483,
    "district</w>": 2484,
    "change</w>": 2485,
    "division</w>": 2486,
    "study</w>": 2487,
    "believed</w>": 2488,
    "+</w>": 2489,
    "jes": 2490,
    "cy": 2491,
    "200</w>": 2492,
    "pennsylvania</w>": 2493,
    "zed</w>": 2494,
    "coleman</w>": 2495,
    "chess</w>": 2496,
    "experi": 2497,
    "indepen": 2498,
    "evidence</w>": 2499,
    "finished</w>": 2500,
    "listed</w>": 2501,
    "27</w>": 2502,
    "500</w>": 2503,
    "generally</w>": 2504,
    "represent": 2505,
    "real": 2506,
    "six": 2507,
    "thus</w>": 2508,
    "opened</w>": 2509,
    "organiz": 2510,
    "land": 2511,
    "things</w>": 2512,
    "george</w>": 2513,
    "sea</w>": 2514,
    "back": 2515,
    "hab": 2516,
    "region</w>": 2517,
    "ators</w>": 2518,
    "tres</w>": 2519,
    "academy</w>": 2520,
    "vin": 2521,
    "shown</w>": 2522,
    "business</w>": 2523,
    "radio</w>": 2524,
    "zan": 2525,
    "osaurus</w>": 2526,
    "revol": 2527,
    "aled</w>": 2528,
    "elements</w>": 2529,
    "stly</w>": 2530,
    "armed</w>": 2531,
    "involved</w>": 2532,
    "achiev": 2533,
    "issue</w>": 2534,
    "purpos": 2535,
    "bud": 2536,
    "utive</w>": 2537,
    "agreed</w>": 2538,
    "proper": 2539,
    "nearly</w>": 2540,
    "broo": 2541,
    "chicago</w>": 2542,
    "professional</w>": 2543,
    "middle</w>": 2544,
    "conduc": 2545,
    "ices</w>": 2546,
    "trade</w>": 2547,
    "winning</w>": 2548,
    "highest</w>": 2549,
    "shoo": 2550,
    "break</w>": 2551,
    "jack</w>": 2552,
    "billboard</w>": 2553,
    "dance</w>": 2554,
    "occup": 2555,
    "actress</w>": 2556,
    "fashi": 2557,
    "culture</w>": 2558,
    "adop": 2559,
    "priest</w>": 2560,
    "counc": 2561,
    "fall</w>": 2562,
    "185": 2563,
    "ium</w>": 2564,
    "marri": 2565,
    "baby</w>": 2566,
    "excavation</w>": 2567,
    "chev": 2568,
    "carried</w>": 2569,
    "names</w>": 2570,
    "woman</w>": 2571,
    "available</w>": 2572,
    "inj": 2573,
    "almost</w>": 2574,
    "christian</w>": 2575,
    "ature</w>": 2576,
    "jects</w>": 2577,
    "mes</w>": 2578,
    "africa</w>": 2579,
    "ours</w>": 2580,
    "below</w>": 2581,
    "gram": 2582,
    "eter</w>": 2583,
    "street</w>": 2584,
    "highway</w>": 2585,
    "eph": 2586,
    "mir": 2587,
    "battl": 2588,
    "character": 2589,
    "architec": 2590,
    "entary</w>": 2591,
    "square</w>": 2592,
    "mc": 2593,
    "ulp": 2594,
    "oli": 2595,
    "ero</w>": 2596,
    "gate</w>": 2597,
    "catech": 2598,
    "catechism</w>": 2599,
    "chevaliers</w>": 2600,
    "units</w>": 2601,
    "pper</w>": 2602,
    "fy</w>": 2603,
    "sold</w>": 2604,
    "stop": 2605,
    "announ": 2606,
    "thom": 2607,
    "iron</w>": 2608,
    "paper</w>": 2609,
    "competi": 2610,
    "memor": 2611,
    "tioned</w>": 2612,
    "2002</w>": 2613,
    "caused</w>": 2614,
    "ight</w>": 2615,
    "draft</w>": 2616,
    "scoring</w>": 2617,
    "igh": 2618,
    "dro": 2619,
    "suggested</w>": 2620,
    "lu": 2621,
    "crew</w>": 2622,
    "report</w>": 2623,
    "complete</w>": 2624,
    "fern": 2625,
    "han</w>": 2626,
    "len</w>": 2627,
    "ective</w>": 2628,
    "oid</w>": 2629,
    "branch</w>": 2630,
    "corn</w>": 2631,
    "mex": 2632,
    "mexic": 2633,
    "romanian</w>": 2634,
    "krak</w>": 2635,
    "chronic": 2636,
    "praised</w>": 2637,
    "alth</w>": 2638,
    "tting</w>": 2639,
    "engine": 2640,
    "officer</w>": 2641,
    "cal": 2642,
    "towards</w>": 2643,
    "eded</w>": 2644,
    "appearance</w>": 2645,
    "bon": 2646,
    "pac": 2647,
    "title</w>": 2648,
    "sim": 2649,
    "ney</w>": 2650,
    "situ": 2651,
    "conver": 2652,
    "mur": 2653,
    "largest</w>": 2654,
    "ography</w>": 2655,
    "marked</w>": 2656,
    "liter": 2657,
    "rela": 2658,
    "sus": 2659,
    "anal": 2660,
    "cho": 2661,
    "lor": 2662,
    "girls</w>": 2663,
    "find</w>": 2664,
    "estimated</w>": 2665,
    "lik": 2666,
    "mal": 2667,
    "coach</w>": 2668,
    "might</w>": 2669,
    "ty": 2670,
    "daily</w>": 2671,
    "lady</w>": 2672,
    "bom": 2673,
    "tory</w>": 2674,
    "sty</w>": 2675,
    "drum</w>": 2676,
    "europe": 2677,
    "sculp": 2678,
    "poland</w>": 2679,
    "studies</w>": 2680,
    "fei</w>": 2681,
    "tintin</w>": 2682,
    "pagod": 2683,
    "nation</w>": 2684,
    "mission</w>": 2685,
    "heavy</w>": 2686,
    "shar": 2687,
    "whose</w>": 2688,
    "ready</w>": 2689,
    "destroyed</w>": 2690,
    "ingly</w>": 2691,
    "beginning</w>": 2692,
    "shortly</w>": 2693,
    "pre</w>": 2694,
    "save</w>": 2695,
    "enter": 2696,
    "foc": 2697,
    "necess": 2698,
    "bat": 2699,
    "tured</w>": 2700,
    "larger</w>": 2701,
    "electr": 2702,
    "sites</w>": 2703,
    "jackets</w>": 2704,
    "j</w>": 2705,
    "ranked</w>": 2706,
    "particip": 2707,
    "champi": 2708,
    "greater</w>": 2709,
    "laun": 2710,
    "dri": 2711,
    "nuclear</w>": 2712,
    "size</w>": 2713,
    "bus</w>": 2714,
    "start</w>": 2715,
    "80</w>": 2716,
    "tled</w>": 2717,
    "nomin": 2718,
    "ha</w>": 2719,
    "figh": 2720,
    "defin": 2721,
    "saying</w>": 2722,
    "itself</w>": 2723,
    "council</w>": 2724,
    "yi</w>": 2725,
    "90</w>": 2726,
    "mi</w>": 2727,
    "cultural</w>": 2728,
    "jer": 2729,
    "clark": 2730,
    "clarkson</w>": 2731,
    "media</w>": 2732,
    "standard</w>": 2733,
    "writers</w>": 2734,
    "sun": 2735,
    "specific</w>": 2736,
    "table</w>": 2737,
    "certain</w>": 2738,
    "wanted</w>": 2739,
    "chest": 2740,
    "ata</w>": 2741,
    "previously</w>": 2742,
    "exec": 2743,
    "ket</w>": 2744,
    "chin": 2745,
    "don": 2746,
    "shot</w>": 2747,
    "entran": 2748,
    "surroun": 2749,
    "mark</w>": 2750,
    "ling</w>": 2751,
    "claimed</w>": 2752,
    "hill</w>": 2753,
    "give</w>": 2754,
    "via</w>": 2755,
    "fifth</w>": 2756,
    "ris</w>": 2757,
    "ham": 2758,
    "newsp": 2759,
    "cullen</w>": 2760,
    "1996</w>": 2761,
    "introduced</w>": 2762,
    "increas": 2763,
    "surve": 2764,
    "pilot</w>": 2765,
    "sin</w>": 2766,
    "areas</w>": 2767,
    "golden</w>": 2768,
    "marriage</w>": 2769,
    "germany</w>": 2770,
    "caves</w>": 2771,
    "cave</w>": 2772,
    "settl": 2773,
    "horses</w>": 2774,
    "dershow": 2775,
    "dershowitz</w>": 2776,
    "assigned</w>": 2777,
    "always</w>": 2778,
    "alli": 2779,
    "amoun": 2780,
    "structure</w>": 2781,
    "particular</w>": 2782,
    "feel": 2783,
    "2001</w>": 2784,
    "robert</w>": 2785,
    "ho": 2786,
    "barker</w>": 2787,
    "thy</w>": 2788,
    "woo": 2789,
    "term</w>": 2790,
    "cana": 2791,
    "hour</w>": 2792,
    "minute</w>": 2793,
    "winds</w>": 2794,
    "mixed</w>": 2795,
    "bra": 2796,
    "primary</w>": 2797,
    "interest</w>": 2798,
    "prof": 2799,
    "monuments</w>": 2800,
    "fig": 2801,
    "aviation</w>": 2802,
    "european</w>": 2803,
    "af</w>": 2804,
    "bish": 2805,
    "zom": 2806,
    "geoff</w>": 2807,
    "positive</w>": 2808,
    "gres": 2809,
    "divi": 2810,
    "tes</w>": 2811,
    "em</w>": 2812,
    "mostly</w>": 2813,
    "serve</w>": 2814,
    "separ": 2815,
    "true</w>": 2816,
    "overall</w>": 2817,
    "serious</w>": 2818,
    "distinc": 2819,
    "captain</w>": 2820,
    "ultimately</w>": 2821,
    "read</w>": 2822,
    "accoun": 2823,
    "probably</w>": 2824,
    "campa": 2825,
    "shows</w>": 2826,
    "room</w>": 2827,
    "fair": 2828,
    "lic": 2829,
    "augh": 2830,
    "aught</w>": 2831,
    "ention</w>": 2832,
    "ounded</w>": 2833,
    "patter": 2834,
    "meas": 2835,
    "usually</w>": 2836,
    "replaced</w>": 2837,
    "helped</w>": 2838,
    "stage</w>": 2839,
    "ica</w>": 2840,
    "historical</w>": 2841,
    "says</w>": 2842,
    "supported</w>": 2843,
    "therap": 2844,
    "recogni": 2845,
    "far</w>": 2846,
    "cruis": 2847,
    "shr": 2848,
    "13": 2849,
    "rapped</w>": 2850,
    "ream</w>": 2851,
    "polic": 2852,
    "det": 2853,
    "madero</w>": 2854,
    "uran": 2855,
    "sources</w>": 2856,
    "tonin": 2857,
    "toniná": 2858,
    "toniná</w>": 2859,
    "expan": 2860,
    "grow": 2861,
    "tered</w>": 2862,
    "feature</w>": 2863,
    "rather</w>": 2864,
    "owned</w>": 2865,
    "29</w>": 2866,
    "directed</w>": 2867,
    "arsenal</w>": 2868,
    "remaining</w>": 2869,
    "actions</w>": 2870,
    "mitted</w>": 2871,
    "labor": 2872,
    "docum": 2873,
    "famil": 2874,
    "today</w>": 2875,
    "largely</w>": 2876,
    "20th</w>": 2877,
    "finally</w>": 2878,
    "ne</w>": 2879,
    "ey": 2880,
    "sun</w>": 2881,
    "background</w>": 2882,
    "pec": 2883,
    "tains</w>": 2884,
    "sexual</w>": 2885,
    "allowing</w>": 2886,
    "manager</w>": 2887,
    "better</w>": 2888,
    "commit": 2889,
    "subsequently</w>": 2890,
    "bil": 2891,
    "atlan": 2892,
    "inches</w>": 2893,
    "lled</w>": 2894,
    "charles</w>": 2895,
    "law": 2896,
    "dez</w>": 2897,
    "party</w>": 2898,
    "cover": 2899,
    "dary</w>": 2900,
    "sky</w>": 2901,
    "importance</w>": 2902,
    "vess": 2903,
    "ackn": 2904,
    "increase</w>": 2905,
    "eag": 2906,
    "ergy</w>": 2907,
    "leukemia</w>": 2908,
    "allosaurus</w>": 2909,
    "zanzi": 2910,
    "related</w>": 2911,
    "minor</w>": 2912,
    "happ": 2913,
    "kur": 2914,
    "aff</w>": 2915,
    "response</w>": 2916,
    "need</w>": 2917,
    "guit": 2918,
    "hop": 2919,
    "istic</w>": 2920,
    "arms</w>": 2921,
    "prev": 2922,
    "rap": 2923,
    "tivity</w>": 2924,
    "dr": 2925,
    "entrance</w>": 2926,
    "smaller</w>": 2927,
    "was": 2928,
    "teaching</w>": 2929,
    "black": 2930,
    "favor": 2931,
    "prin": 2932,
    "ma</w>": 2933,
    "promin": 2934,
    "becoming</w>": 2935,
    "terms</w>": 2936,
    "44</w>": 2937,
    "ques": 2938,
    "debut</w>": 2939,
    "average</w>": 2940,
    "fication</w>": 2941,
    "stars</w>": 2942,
    "exist": 2943,
    "difficult</w>": 2944,
    "bay</w>": 2945,
    "fernan": 2946,
    "fernandez</w>": 2947,
    "nasty</w>": 2948,
    "pun": 2949,
    "la</w>": 2950,
    "coins</w>": 2951,
    "mexico</w>": 2952,
    "regime</w>": 2953,
    "gas</w>": 2954,
    "ya</w>": 2955,
    "pt</w>": 2956,
    "met</w>": 2957,
    "porary</w>": 2958,
    "upper</w>": 2959,
    "crow": 2960,
    "ym": 2961,
    "staff</w>": 2962,
    "thes": 2963,
    "ilities</w>": 2964,
    "announced</w>": 2965,
    "pair</w>": 2966,
    "colon": 2967,
    "fo": 2968,
    "1994</w>": 2969,
    "sister</w>": 2970,
    "services</w>": 2971,
    "techn": 2972,
    "ency</w>": 2973,
    "holid": 2974,
    "1944</w>": 2975,
    "tries</w>": 2976,
    "event</w>": 2977,
    "deal</w>": 2978,
    "tch</w>": 2979,
    "discus": 2980,
    "metres</w>": 2981,
    "inch</w>": 2982,
    "current</w>": 2983,
    "ka</w>": 2984,
    "frag": 2985,
    "canc": 2986,
    "therapy</w>": 2987,
    "tians</w>": 2988,
    "met": 2989,
    "figure</w>": 2990,
    "gli": 2991,
    "aerod": 2992,
    "aerodro": 2993,
    "declar": 2994,
    "reag": 2995,
    "near": 2996,
    "mig": 2997,
    "tomb</w>": 2998,
    "omar</w>": 2999,
    "chronicles</w>": 3000,
    "hand": 3001,
    "told</w>": 3002,
    "growth</w>": 3003,
    "turn</w>": 3004,
    "health</w>": 3005,
    "divided</w>": 3006,
    "ributed</w>": 3007,
    "types</w>": 3008,
    "proposed</w>": 3009,
    "defe": 3010,
    "sibility</w>": 3011,
    "tra</w>": 3012,
    "eption</w>": 3013,
    "asp": 3014,
    "acy</w>": 3015,
    "governor</w>": 3016,
    "emer": 3017,
    "pair": 3018,
    "36</w>": 3019,
    "must</w>": 3020,
    "promis": 3021,
    "influence</w>": 3022,
    "makes</w>": 3023,
    "william</w>": 3024,
    "columbus</w>": 3025,
    "changed</w>": 3026,
    "utes</w>": 3027,
    "regul": 3028,
    "silver</w>": 3029,
    "notes</w>": 3030,
    "source</w>": 3031,
    "got</w>": 3032,
    "theast</w>": 3033,
    "suppor": 3034,
    "tons</w>": 3035,
    "acting</w>": 3036,
    "means</w>": 3037,
    "del</w>": 3038,
    "floo": 3039,
    "cele": 3040,
    "cells</w>": 3041,
    "groups</w>": 3042,
    "whether</w>": 3043,
    "living</w>": 3044,
    "bodies</w>": 3045,
    "whole</w>": 3046,
    "dynasty</w>": 3047,
    "wrapped</w>": 3048,
    "associated</w>": 3049,
    "1939</w>": 3050,
    "france</w>": 3051,
    "ison</w>": 3052,
    "master</w>": 3053,
    "gang": 3054,
    "19th</w>": 3055,
    "finals</w>": 3056,
    "russian</w>": 3057,
    "coldrum</w>": 3058,
    "archaeologist</w>": 3059,
    "martial</w>": 3060,
    "eless</w>": 3061,
    "eshi": 3062,
    "soldi": 3063,
    "selves</w>": 3064,
    "capital</w>": 3065,
    "ought</w>": 3066,
    "arity</w>": 3067,
    "federal</w>": 3068,
    "hold</w>": 3069,
    "conven": 3070,
    "tery</w>": 3071,
    "cali": 3072,
    "equip": 3073,
    "equipment</w>": 3074,
    "months</w>": 3075,
    "longer</w>": 3076,
    "places</w>": 3077,
    "england</w>": 3078,
    "care</w>": 3079,
    "sue</w>": 3080,
    "mel": 3081,
    "cover</w>": 3082,
    "lou": 3083,
    "chall": 3084,
    "champion": 3085,
    "male</w>": 3086,
    "individuals</w>": 3087,
    "nel</w>": 3088,
    "loss</w>": 3089,
    "represented</w>": 3090,
    "immedi": 3091,
    "mid</w>": 3092,
    "cred": 3093,
    "commissi": 3094,
    "circul": 3095,
    "span": 3096,
    "pop</w>": 3097,
    "ang</w>": 3098,
    "remix</w>": 3099,
    "tary</w>": 3100,
    "°</w>": 3101,
    "tually</w>": 3102,
    "music": 3103,
    "cin": 3104,
    "wol": 3105,
    "future</w>": 3106,
    "flight</w>": 3107,
    "god": 3108,
    "eas</w>": 3109,
    "traditional</w>": 3110,
    "festiv": 3111,
    "producer</w>": 3112,
    "airport</w>": 3113,
    "duce</w>": 3114,
    "crus": 3115,
    "reaction</w>": 3116,
    "energy</w>": 3117,
    "republic</w>": 3118,
    "storyline</w>": 3119,
    "lig": 3120,
    "houston</w>": 3121,
    "hygro": 3122,
    "176": 3123,
    "creut": 3124,
    "creutz</w>": 3125,
    "text</w>": 3126,
    "location</w>": 3127,
    "call</w>": 3128,
    "weap": 3129,
    "numbers</w>": 3130,
    "ellow</w>": 3131,
    "asked</w>": 3132,
    "themselves</w>": 3133,
    "offered</w>": 3134,
    "instru": 3135,
    "constructed</w>": 3136,
    "plans</w>": 3137,
    "15": 3138,
    "richar": 3139,
    "turned</w>": 3140,
    "wid": 3141,
    "alled</w>": 3142,
    "married</w>": 3143,
    "log": 3144,
    "entered</w>": 3145,
    "keep": 3146,
    "attention</w>": 3147,
    "lined</w>": 3148,
    "holiday</w>": 3149,
    "ball": 3150,
    "occurred</w>": 3151,
    "sn": 3152,
    "los</w>": 3153,
    "angel": 3154,
    "eve</w>": 3155,
    "minutes</w>": 3156,
    "clin": 3157,
    "conference</w>": 3158,
    "franc": 3159,
    "run": 3160,
    "bloc": 3161,
    "controlled</w>": 3162,
    "70</w>": 3163,
    "positions</w>": 3164,
    "theatre</w>": 3165,
    "ef</w>": 3166,
    "egypt</w>": 3167,
    "creation</w>": 3168,
    "past</w>": 3169,
    "ruler</w>": 3170,
    "frequ": 3171,
    "opin": 3172,
    "submar": 3173,
    "eagle</w>": 3174,
    "raaf</w>": 3175,
    "sentences</w>": 3176,
    "workers</w>": 3177,
    "earnest</w>": 3178,
    "theme</w>": 3179,
    "down": 3180,
    "portra": 3181,
    "selected</w>": 3182,
    "takes</w>": 3183,
    "interview</w>": 3184,
    "required</w>": 3185,
    "ority</w>": 3186,
    "taining</w>": 3187,
    "web": 3188,
    "twork</w>": 3189,
    "ances</w>": 3190,
    "artists</w>": 3191,
    "buildings</w>": 3192,
    "expe": 3193,
    "foot</w>": 3194,
    "already</w>": 3195,
    "ordered</w>": 3196,
    "yet</w>": 3197,
    "list": 3198,
    "12": 3199,
    "49</w>": 3200,
    "scop": 3201,
    "chief</w>": 3202,
    "rail": 3203,
    "author</w>": 3204,
    "conducted</w>": 3205,
    "tives</w>": 3206,
    "attack</w>": 3207,
    "tale</w>": 3208,
    "phot": 3209,
    "words</w>": 3210,
    "bia</w>": 3211,
    "ld": 3212,
    "village</w>": 3213,
    "rights</w>": 3214,
    "opport": 3215,
    "opportun": 3216,
    "variety</w>": 3217,
    "offs</w>": 3218,
    "eigh": 3219,
    "ets</w>": 3220,
    "lights</w>": 3221,
    "32</w>": 3222,
    "lack</w>": 3223,
    "arab": 3224,
    "contem": 3225,
    "1995</w>": 3226,
    "secondary</w>": 3227,
    "grew</w>": 3228,
    "aries</w>": 3229,
    "cle</w>": 3230,
    "phas": 3231,
    "hus": 3232,
    "want</w>": 3233,
    "bishop</w>": 3234,
    "had": 3235,
    "reines</w>": 3236,
    "neutrin": 3237,
    "zanzibar</w>": 3238,
    "pagoda</w>": 3239,
    "tac": 3240,
    "unit</w>": 3241,
    "poten": 3242,
    "acqu": 3243,
    "ster": 3244,
    "soldiers</w>": 3245,
    "combined</w>": 3246,
    "killed</w>": 3247,
    "themes</w>": 3248,
    "reception</w>": 3249,
    "scene</w>": 3250,
    "cited</w>": 3251,
    "leng": 3252,
    "iling</w>": 3253,
    "inspired</w>": 3254,
    "illu": 3255,
    "ans": 3256,
    "native</w>": 3257,
    "specim": 3258,
    "ession</w>": 3259,
    "tee</w>": 3260,
    "hem": 3261,
    "fact</w>": 3262,
    "property</w>": 3263,
    "hands</w>": 3264,
    "rif": 3265,
    "mou": 3266,
    "continue</w>": 3267,
    "jos": 3268,
    "suffered</w>": 3269,
    "itors</w>": 3270,
    "collabor": 3271,
    "artist</w>": 3272,
    "australian</w>": 3273,
    "provide</w>": 3274,
    "broken</w>": 3275,
    "enough</w>": 3276,
    "beau": 3277,
    "seasons</w>": 3278,
    "1998</w>": 3279,
    "course</w>": 3280,
    "fol": 3281,
    "ological</w>": 3282,
    "stant</w>": 3283,
    "hit</w>": 3284,
    "vice</w>": 3285,
    "john": 3286,
    "earned</w>": 3287,
    "forming</w>": 3288,
    "mach": 3289,
    "swe": 3290,
    "ming</w>": 3291,
    "annual</w>": 3292,
    "any": 3293,
    "secretary</w>": 3294,
    "acked</w>": 3295,
    "carol": 3296,
    "canadian</w>": 3297,
    "fashion</w>": 3298,
    "thak": 3299,
    "ingu": 3300,
    "rever": 3301,
    "envir": 3302,
    "strong": 3303,
    "promoted</w>": 3304,
    "process</w>": 3305,
    "older</w>": 3306,
    "practi": 3307,
    "prac": 3308,
    "information</w>": 3309,
    "certi": 3310,
    "claim</w>": 3311,
    "urania</w>": 3312,
    "sb</w>": 3313,
    "direct</w>": 3314,
    "fore": 3315,
    "explo": 3316,
    "aband": 3317,
    "dence</w>": 3318,
    "idea</w>": 3319,
    "tun": 3320,
    "tracks</w>": 3321,
    "revealed</w>": 3322,
    "latter</w>": 3323,
    "mos": 3324,
    "transferred</w>": 3325,
    "rison</w>": 3326,
    "smi": 3327,
    "news</w>": 3328,
    "giving</w>": 3329,
    "issued</w>": 3330,
    "elphi": 3331,
    "elphia</w>": 3332,
    "money</w>": 3333,
    "science</w>": 3334,
    "lake</w>": 3335,
    "ening</w>": 3336,
    "critic</w>": 3337,
    "hours</w>": 3338,
    "brown</w>": 3339,
    "calling</w>": 3340,
    "refl": 3341,
    "pope</w>": 3342,
    "exper": 3343,
    "400</w>": 3344,
    "da</w>": 3345,
    "attempt</w>": 3346,
    "plays</w>": 3347,
    "entertain": 3348,
    "acted</w>": 3349,
    "agn": 3350,
    "offen": 3351,
    "progra": 3352,
    "program</w>": 3353,
    "loose</w>": 3354,
    "environ": 3355,
    "emphas": 3356,
    "rated</w>": 3357,
    "deb": 3358,
    "espec": 3359,
    "especially</w>": 3360,
    "mic": 3361,
    "mental</w>": 3362,
    "risk</w>": 3363,
    "nyi</w>": 3364,
    "sligh": 3365,
    "fect</w>": 3366,
    "acre</w>": 3367,
    "newspaper</w>": 3368,
    "cab": 3369,
    "copies</w>": 3370,
    "abbar</w>": 3371,
    "referred</w>": 3372,
    "japan</w>": 3373,
    "officially</w>": 3374,
    "see": 3375,
    "cause</w>": 3376,
    "sey</w>": 3377,
    "ential</w>": 3378,
    "sense</w>": 3379,
    "lower</w>": 3380,
    "fer</w>": 3381,
    "coming</w>": 3382,
    "highly</w>": 3383,
    "ickly</w>": 3384,
    "civil": 3385,
    "urity</w>": 3386,
    "there": 3387,
    "classi": 3388,
    "consisted</w>": 3389,
    "laboratory</w>": 3390,
    "libr": 3391,
    "naval</w>": 3392,
    "tically</w>": 3393,
    "pression</w>": 3394,
    "spring</w>": 3395,
    "wind": 3396,
    "spent</w>": 3397,
    "kin": 3398,
    "clo": 3399,
    "girl</w>": 3400,
    "1943</w>": 3401,
    "respectively</w>": 3402,
    "chapel</w>": 3403,
    "memorial</w>": 3404,
    "drew</w>": 3405,
    "scienti": 3406,
    "likely</w>": 3407,
    "que": 3408,
    "deep</w>": 3409,
    "far": 3410,
    "compared</w>": 3411,
    "chinese</w>": 3412,
    "scot": 3413,
    "consec": 3414,
    "wins</w>": 3415,
    "results</w>": 3416,
    "stric": 3417,
    "normal</w>": 3418,
    "race</w>": 3419,
    "jesus</w>": 3420,
    "section</w>": 3421,
    "79</w>": 3422,
    "dram": 3423,
    "responsible</w>": 3424,
    "offer</w>": 3425,
    "brother</w>": 3426,
    "itation</w>": 3427,
    "bone</w>": 3428,
    "yn</w>": 3429,
    "battleshi": 3430,
    "goddes": 3431,
    "figu": 3432,
    "figures</w>": 3433,
    "independent</w>": 3434,
    "includes</w>": 3435,
    "ods</w>": 3436,
    "acts</w>": 3437,
    "residents</w>": 3438,
    "did": 3439,
    "35</w>": 3440,
    "rely</w>": 3441,
    "factory</w>": 3442,
    "typically</w>": 3443,
    "mint</w>": 3444,
    "china</w>": 3445,
    "serves</w>": 3446,
    "ler</w>": 3447,
    "chris</w>": 3448,
    "feelings</w>": 3449,
    "naz": 3450,
    "kai": 3451,
    "awarded</w>": 3452,
    "plot</w>": 3453,
    "erous</w>": 3454,
    "territory</w>": 3455,
    "removed</w>": 3456,
    "singles</w>": 3457,
    "occas": 3458,
    "ional</w>": 3459,
    "cros": 3460,
    "ume</w>": 3461,
    "attr": 3462,
    "interpre": 3463,
    "authorities</w>": 3464,
    "thomas</w>": 3465,
    "owle": 3466,
    "ishment</w>": 3467,
    "vely</w>": 3468,
    "ades</w>": 3469,
    "publication</w>": 3470,
    "ran</w>": 3471,
    "retired</w>": 3472,
    "teams</w>": 3473,
    "initial</w>": 3474,
    "active</w>": 3475,
    "dedic": 3476,
    "allow</w>": 3477,
    "complex</w>": 3478,
    "33</w>": 3479,
    "failed</w>": 3480,
    "saves</w>": 3481,
    "ille</w>": 3482,
    "tt</w>": 3483,
    "atic</w>": 3484,
    "phic</w>": 3485,
    "oms</w>": 3486,
    "ah</w>": 3487,
    "16": 3488,
    "bol": 3489,
    "ecting</w>": 3490,
    "escap": 3491,
    "earth</w>": 3492,
    "bing</w>": 3493,
    "contemporary</w>": 3494,
    "amb": 3495,
    "spo": 3496,
    "1991</w>": 3497,
    "42</w>": 3498,
    "dead</w>": 3499,
    "ith</w>": 3500,
    "coura": 3501,
    "classic</w>": 3502,
    "concluded</w>": 3503,
    "treaty</w>": 3504,
    "coin</w>": 3505,
    "replac": 3506,
    "techni": 3507,
    "premi": 3508,
    "minister</w>": 3509,
    "ican</w>": 3510,
    "pregn": 3511,
    "fame</w>": 3512,
    "devin</w>": 3513,
    "synag": 3514,
    "synagogue</w>": 3515,
    "wolf</w>": 3516,
    "holoc": 3517,
    "holoca": 3518,
    "holocaust</w>": 3519,
    "madison</w>": 3520,
    "olithic</w>": 3521,
    "megal": 3522,
    "stefan": 3523,
    "stefani</w>": 3524,
    "breeding</w>": 3525,
    "175": 3526,
    "hob": 3527,
    "hobbs</w>": 3528,
    "awa</w>": 3529,
    "individual</w>": 3530,
    "approach</w>": 3531,
    "higher</w>": 3532,
    "moves</w>": 3533,
    "nd</w>": 3534,
    "leader</w>": 3535,
    "ancient</w>": 3536,
    "peace</w>": 3537,
    "approxim": 3538,
    "plat": 3539,
    "piece</w>": 3540,
    "exclu": 3541,
    "ising</w>": 3542,
    "emed</w>": 3543,
    "starting</w>": 3544,
    "walls</w>": 3545,
    "smith</w>": 3546,
    "intended</w>": 3547,
    "quickly</w>": 3548,
    "assem": 3549,
    "guar": 3550,
    "situation</w>": 3551,
    "instruc": 3552,
    "dges</w>": 3553,
    "campaign</w>": 3554,
    "collection</w>": 3555,
    "chemical</w>": 3556,
    "75</w>": 3557,
    "attempted</w>": 3558,
    "kings</w>": 3559,
    "let</w>": 3560,
    "sixth</w>": 3561,
    "aughter</w>": 3562,
    "hired</w>": 3563,
    "competition</w>": 3564,
    "blackie</w>": 3565,
    "andre": 3566,
    "1940</w>": 3567,
    "stal": 3568,
    "influenced</w>": 3569,
    "1988</w>": 3570,
    "african</w>": 3571,
    "launched</w>": 3572,
    "latin</w>": 3573,
    "prominent</w>": 3574,
    "reports</w>": 3575,
    "39</w>": 3576,
    "rate</w>": 3577,
    "personnel</w>": 3578,
    "tionally</w>": 3579,
    "tied</w>": 3580,
    "percent</w>": 3581,
    "alty</w>": 3582,
    "juli": 3583,
    "committee</w>": 3584,
    "famous</w>": 3585,
    "defense</w>": 3586,
    "inner</w>": 3587,
    "demon": 3588,
    "admir": 3589,
    "hard</w>": 3590,
    "olly": 3591,
    "ollywood</w>": 3592,
    "tual</w>": 3593,
    "temples</w>": 3594,
    "deity</w>": 3595,
    "un</w>": 3596,
    "say</w>": 3597,
    "extre": 3598,
    "festival</w>": 3599,
    "slayer</w>": 3600,
    "heavily</w>": 3601,
    "found": 3602,
    "2000</w>": 3603,
    "performances</w>": 3604,
    "micro": 3605,
    "standards</w>": 3606,
    "fields</w>": 3607,
    "consider": 3608,
    "slightly</w>": 3609,
    "discovered</w>": 3610,
    "fictional</w>": 3611,
    "hair": 3612,
    "strapping</w>": 3613,
    "ich</w>": 3614,
    "barrow</w>": 3615,
    "gabbar</w>": 3616,
    "sfield</w>": 3617,
    "tan</w>": 3618,
    "gé</w>": 3619,
    "gw": 3620,
    "hygrometr": 3621,
    "hygrometric": 3622,
    "hygrometricus</w>": 3623,
    "alger": 3624,
    "uy": 3625,
    "uygh": 3626,
    "commandments</w>": 3627,
    "romania</w>": 3628,
    "gangan": 3629,
    "ganganelli</w>": 3630,
    "brackn": 3631,
    "bracknell</w>": 3632,
    "stra</w>": 3633,
    "anese</w>": 3634,
    "multi": 3635,
    "enem": 3636,
    "essor</w>": 3637,
    "musical</w>": 3638,
    "reason</w>": 3639,
    "test</w>": 3640,
    "ry": 3641,
    "planned</w>": 3642,
    "appearances</w>": 3643,
    "1997</w>": 3644,
    "newly</w>": 3645,
    "confl": 3646,
    "after": 3647,
    "inside</w>": 3648,
    "1st</w>": 3649,
    "oil</w>": 3650,
    "amed</w>": 3651,
    "families</w>": 3652,
    "surrounding</w>": 3653,
    "administ": 3654,
    "taught</w>": 3655,
    "corn": 3656,
    "planning</w>": 3657,
    "restor": 3658,
    "hospital</w>": 3659,
    "esting</w>": 3660,
    "1941</w>": 3661,
    "matches</w>": 3662,
    "lea": 3663,
    "alter": 3664,
    "mainly</w>": 3665,
    "incid": 3666,
    "search": 3667,
    "basis</w>": 3668,
    "ysis</w>": 3669,
    "changes</w>": 3670,
    "1990</w>": 3671,
    "fired</w>": 3672,
    "consecutive</w>": 3673,
    "will": 3674,
    "immediately</w>": 3675,
    "italian</w>": 3676,
    "300</w>": 3677,
    "oes</w>": 3678,
    "vocals</w>": 3679,
    "semble</w>": 3680,
    "expressed</w>": 3681,
    "identified</w>": 3682,
    "speed</w>": 3683,
    "ull</w>": 3684,
    "arrived</w>": 3685,
    "carolina</w>": 3686,
    "pilots</w>": 3687,
    "accepted</w>": 3688,
    "cinem": 3689,
    "mun": 3690,
    "agnos": 3691,
    "alex": 3692,
    "1999</w>": 3693,
    "hungar": 3694,
    "thesis</w>": 3695,
    "beha": 3696,
    "behavi": 3697,
    "imp": 3698,
    "wides": 3699,
    "reign</w>": 3700,
    "architecture</w>": 3701,
    "heaven</w>": 3702,
    "enting</w>": 3703,
    "duction</w>": 3704,
    "oxford</w>": 3705,
    "guides</w>": 3706,
    "dollars</w>": 3707,
    "historian</w>": 3708,
    "journal</w>": 3709,
    "pon": 3710,
    "vargas</w>": 3711,
    "llos": 3712,
    "llosa</w>": 3713,
    "snl</w>": 3714,
    "couple</w>": 3715,
    "cell</w>": 3716,
    "parva": 3717,
    "parvati</w>": 3718,
    "mv": 3719,
    "95</w>": 3720,
    "megali": 3721,
    "adul": 3722,
    "compounds</w>": 3723,
    "palestine</w>": 3724,
    "algernon</w>": 3725,
    "serving</w>": 3726,
    "edition</w>": 3727,
    "adapted</w>": 3728,
    "revolution</w>": 3729,
    "meaning</w>": 3730,
    "becomes</w>": 3731,
    "itor</w>": 3732,
    "approximately</w>": 3733,
    "incorpor": 3734,
    "ease</w>": 3735,
    "create</w>": 3736,
    "gs</w>": 3737,
    "extra</w>": 3738,
    "repe": 3739,
    "tations</w>": 3740,
    "purch": 3741,
    "mac": 3742,
    "necessary</w>": 3743,
    "your</w>": 3744,
    "4th</w>": 3745,
    "officials</w>": 3746,
    "manu": 3747,
    "47</w>": 3748,
    "brooks</w>": 3749,
    "occupi": 3750,
    "occupied</w>": 3751,
    "regist": 3752,
    "parents</w>": 3753,
    "sex</w>": 3754,
    "coast</w>": 3755,
    "visited</w>": 3756,
    "servation</w>": 3757,
    "participated</w>": 3758,
    "championship</w>": 3759,
    "industri": 3760,
    "analysis</w>": 3761,
    "forward</w>": 3762,
    "moving</w>": 3763,
    "philad": 3764,
    "philadelphia</w>": 3765,
    "management</w>": 3766,
    "bruins</w>": 3767,
    "pho": 3768,
    "inves": 3769,
    "investig": 3770,
    "low": 3771,
    "nin": 3772,
    "decision</w>": 3773,
    "72</w>": 3774,
    "stren": 3775,
    "streng": 3776,
    "ath": 3777,
    "write</w>": 3778,
    "captured</w>": 3779,
    "bank</w>": 3780,
    "mph</w>": 3781,
    "torpe": 3782,
    "miss</w>": 3783,
    "dom": 3784,
    "voice</w>": 3785,
    "entertainment</w>": 3786,
    "seventh</w>": 3787,
    "cancer</w>": 3788,
    "max</w>": 3789,
    "rar": 3790,
    "egyptians</w>": 3791,
    "images</w>": 3792,
    "represent</w>": 3793,
    "physical</w>": 3794,
    "beyond</w>": 3795,
    "practice</w>": 3796,
    "meant</w>": 3797,
    "ize</w>": 3798,
    "effects</w>": 3799,
    "think</w>": 3800,
    "sound": 3801,
    "survey</w>": 3802,
    "ger</w>": 3803,
    "ire": 3804,
    "assass": 3805,
    "refused</w>": 3806,
    "deriv": 3807,
    "brick</w>": 3808,
    "tree</w>": 3809,
    "coup</w>": 3810,
    "herd</w>": 3811,
    "explained</w>": 3812,
    "manual</w>": 3813,
    "tar</w>": 3814,
    "lad</w>": 3815,
    "anda</w>": 3816,
    "rating</w>": 3817,
    "compu": 3818,
    "myel": 3819,
    "hergé</w>": 3820,
    "imper": 3821,
    "imperial</w>": 3822,
    "transl": 3823,
    "along": 3824,
    "alongside</w>": 3825,
    "directly</w>": 3826,
    "something</w>": 3827,
    "effort</w>": 3828,
    "losses</w>": 3829,
    "maxim": 3830,
    "enjo": 3831,
    "richard</w>": 3832,
    "purpose</w>": 3833,
    "arkans": 3834,
    "arkansas</w>": 3835,
    "1942</w>": 3836,
    "perman": 3837,
    "visions</w>": 3838,
    "aving</w>": 3839,
    "54</w>": 3840,
    "oted</w>": 3841,
    "invited</w>": 3842,
    "plant</w>": 3843,
    "dh": 3844,
    "dated</w>": 3845,
    "cec": 3846,
    "countries</w>": 3847,
    "access</w>": 3848,
    "value</w>": 3849,
    "tom</w>": 3850,
    "ribution</w>": 3851,
    "uc": 3852,
    "shore</w>": 3853,
    "resulted</w>": 3854,
    "fans</w>": 3855,
    "conc": 3856,
    "johnson</w>": 3857,
    "effect</w>": 3858,
    "impl": 3859,
    "1986</w>": 3860,
    "appar": 3861,
    "gives</w>": 3862,
    "drawn</w>": 3863,
    "fits</w>": 3864,
    "cerem": 3865,
    "diagnos": 3866,
    "ership</w>": 3867,
    "ontar": 3868,
    "ontario</w>": 3869,
    "declined</w>": 3870,
    "1993</w>": 3871,
    "base": 3872,
    "baseball</w>": 3873,
    "hungarian</w>": 3874,
    "cen": 3875,
    "milli": 3876,
    "adopted</w>": 3877,
    "earth": 3878,
    "widespre": 3879,
    "widespread</w>": 3880,
    "believe</w>": 3881,
    "fis": 3882,
    "presented</w>": 3883,
    "meanwhile</w>": 3884,
    "transport</w>": 3885,
    "categ": 3886,
    "respect</w>": 3887,
    "hot</w>": 3888,
    "lew": 3889,
    "produce</w>": 3890,
    "dí": 3891,
    "día": 3892,
    "díaz</w>": 3893,
    "dominican</w>": 3894,
    "solo</w>": 3895,
    "wasp</w>": 3896,
    "maria</w>": 3897,
    "propag": 3898,
    "olen</w>": 3899,
    "germans</w>": 3900,
    "debu": 3901,
    "wander": 3902,
    "perform</w>": 3903,
    "secret</w>": 3904,
    "oz": 3905,
    "skill": 3906,
    "remain</w>": 3907,
    "alist</w>": 3908,
    "nations</w>": 3909,
    "lives</w>": 3910,
    "quality</w>": 3911,
    "scenes</w>": 3912,
    "refer": 3913,
    "determin": 3914,
    "subject</w>": 3915,
    "leaving</w>": 3916,
    "note</w>": 3917,
    "titu": 3918,
    "func": 3919,
    "door</w>": 3920,
    "north": 3921,
    "floor</w>": 3922,
    "financ": 3923,
    "ping</w>": 3924,
    "shire</w>": 3925,
    "ext": 3926,
    "eye</w>": 3927,
    "fon": 3928,
    "rhy": 3929,
    "wales</w>": 3930,
    "photogra": 3931,
    "disci": 3932,
    "habit": 3933,
    "threat": 3934,
    "ap</w>": 3935,
    "islands</w>": 3936,
    "managed</w>": 3937,
    "organization</w>": 3938,
    "fall": 3939,
    "begins</w>": 3940,
    "bered</w>": 3941,
    "passed</w>": 3942,
    "ri</w>": 3943,
    "roles</w>": 3944,
    "spanish</w>": 3945,
    "come": 3946,
    "1992</w>": 3947,
    "twins</w>": 3948,
    "ament</w>": 3949,
    "covered</w>": 3950,
    "tradition</w>": 3951,
    "wher": 3952,
    "distingu": 3953,
    "food</w>": 3954,
    "lot</w>": 3955,
    "cross</w>": 3956,
    "selling</w>": 3957,
    "recent</w>": 3958,
    "medical</w>": 3959,
    "concent": 3960,
    "dish</w>": 3961,
    "lin</w>": 3962,
    "commission</w>": 3963,
    "corps</w>": 3964,
    "intel": 3965,
    "intellig": 3966,
    "loan</w>": 3967,
    "nbc</w>": 3968,
    "job</w>": 3969,
    "beach</w>": 3970,
    "boys</w>": 3971,
    "flooding</w>": 3972,
    "yeov": 3973,
    "yeovil</w>": 3974,
    "thai</w>": 3975,
    "acute</w>": 3976,
    "fox</w>": 3977,
    "uan</w>": 3978,
    "peters</w>": 3979,
    "neutrino</w>": 3980,
    "crusad": 3981,
    "fastra</w>": 3982,
    "done</w>": 3983,
    "episod": 3984,
    "movement</w>": 3985,
    "dang": 3986,
    "fal": 3987,
    "weapons</w>": 3988,
    "majority</w>": 3989,
    "expected</w>": 3990,
    "jected</w>": 3991,
    "guitar</w>": 3992,
    "lyric": 3993,
    "journ": 3994,
    "featuring</w>": 3995,
    "extended</w>": 3996,
    "headquar": 3997,
    "lee</w>": 3998,
    "tile</w>": 3999,
    "widely</w>": 4000,
    "conflict</w>": 4001,
    "morning</w>": 4002,
    "except</w>": 4003,
    "manufac": 4004,
    "rd</w>": 4005,
    "dor": 4006,
    "11": 4007,
    "library</w>": 4008,
    "itable</w>": 4009,
    "activity</w>": 4010,
    "boat</w>": 4011,
    "pain": 4012,
    "deplo": 4013,
    "bill</w>": 4014,
    "discovery</w>": 4015,
    "ile</w>": 4016,
    "influences</w>": 4017,
    "post": 4018,
    "sevent": 4019,
    "1918</w>": 4020,
    "doing</w>": 4021,
    "lord</w>": 4022,
    "treas": 4023,
    "wild</w>": 4024,
    "stance</w>": 4025,
    "genus</w>": 4026,
    "archip": 4027,
    "archipel": 4028,
    "archipelago</w>": 4029,
    "gul": 4030,
    "gulf</w>": 4031,
    "surface</w>": 4032,
    "rays</w>": 4033,
    "missed</w>": 4034,
    "lot": 4035,
    "boston</w>": 4036,
    "numerous</w>": 4037,
    "consist": 4038,
    "strat": 4039,
    "cases</w>": 4040,
    "ak</w>": 4041,
    "legal</w>": 4042,
    "atlanta</w>": 4043,
    "suppl": 4044,
    "reduced</w>": 4045,
    "actually</w>": 4046,
    "degre": 4047,
    "mass</w>": 4048,
    "break": 4049,
    "oppos": 4050,
    "shooting</w>": 4051,
    "cat</w>": 4052,
    "din": 4053,
    "1914</w>": 4054,
    "sisters</w>": 4055,
    "relig": 4056,
    "religion</w>": 4057,
    "argued</w>": 4058,
    "texts</w>": 4059,
    "worship</w>": 4060,
    "creator</w>": 4061,
    "hair</w>": 4062,
    "dress</w>": 4063,
    "encoura": 4064,
    "ections</w>": 4065,
    "ids</w>": 4066,
    "ao</w>": 4067,
    "conditions</w>": 4068,
    "saint</w>": 4069,
    "gus</w>": 4070,
    "nearby</w>": 4071,
    "aging</w>": 4072,
    "vessels</w>": 4073,
    "glo": 4074,
    "ancy</w>": 4075,
    "producers</w>": 4076,
    "excavations</w>": 4077,
    "band": 4078,
    "learned</w>": 4079,
    "advent": 4080,
    "zagre": 4081,
    "zagreb</w>": 4082,
    "south": 4083,
    "mvp</w>": 4084,
    "speaker</w>": 4085,
    "neolithic</w>": 4086,
    "debuted</w>": 4087,
    "stansfield</w>": 4088,
    "rangers</w>": 4089,
    "wanderers</w>": 4090,
    "wel": 4091,
    "israel": 4092,
    "spaces</w>": 4093,
    "hemmem": 4094,
    "ernest</w>": 4095,
    "gwend": 4096,
    "gwendolen</w>": 4097,
    "kaiman": 4098,
    "kaimanawa</w>": 4099,
    "japanese</w>": 4100,
    "rying</w>": 4101,
    "inn": 4102,
    "ca</w>": 4103,
    "concept</w>": 4104,
    "ept</w>": 4105,
    "amount</w>": 4106,
    "lyrics</w>": 4107,
    "charts</w>": 4108,
    "aspects</w>": 4109,
    "probl": 4110,
    "length</w>": 4111,
    "flower</w>": 4112,
    "passing</w>": 4113,
    "amm": 4114,
    "security</w>": 4115,
    "therefore</w>": 4116,
    "ham</w>": 4117,
    "rat": 4118,
    "forts</w>": 4119,
    "confeder": 4120,
    "exc": 4121,
    "employed</w>": 4122,
    "fit": 4123,
    "bul": 4124,
    "guard</w>": 4125,
    "wash": 4126,
    "sively</w>": 4127,
    "raised</w>": 4128,
    "attended</w>": 4129,
    "1936</w>": 4130,
    "herself</w>": 4131,
    "literature</w>": 4132,
    "sacred</w>": 4133,
    "43</w>": 4134,
    "dedicated</w>": 4135,
    "rows</w>": 4136,
    "economic</w>": 4137,
    "isation</w>": 4138,
    "outer</w>": 4139,
    "pap": 4140,
    "assistant</w>": 4141,
    "strugg": 4142,
    "sign</w>": 4143,
    "onto</w>": 4144,
    "sam": 4145,
    "elim": 4146,
    "caa</w>": 4147,
    "entation</w>": 4148,
    "strateg": 4149,
    "program": 4150,
    "dan": 4151,
    "occupation</w>": 4152,
    "commented</w>": 4153,
    "com</w>": 4154,
    "here</w>": 4155,
    "dial": 4156,
    "appear</w>": 4157,
    "treatment</w>": 4158,
    "zo": 4159,
    "celebr": 4160,
    "cos": 4161,
    "1984</w>": 4162,
    "alexan": 4163,
    "alexander</w>": 4164,
    "initiative</w>": 4165,
    "austro</w>": 4166,
    "600</w>": 4167,
    "birth</w>": 4168,
    "neigh": 4169,
    "trou": 4170,
    "everything</w>": 4171,
    "alone</w>": 4172,
    "practic": 4173,
    "engaged</w>": 4174,
    "grand</w>": 4175,
    "guide</w>": 4176,
    "1913</w>": 4177,
    "struction</w>": 4178,
    "fungus</w>": 4179,
    "ald</w>": 4180,
    "fruit</w>": 4181,
    "francis": 4182,
    "yli": 4183,
    "visit</w>": 4184,
    "mitch": 4185,
    "portu": 4186,
    "actors</w>": 4187,
    "onic</w>": 4188,
    "metall": 4189,
    "valley</w>": 4190,
    "chamber</w>": 4191,
    "carved</w>": 4192,
    "vers</w>": 4193,
    "propaganda</w>": 4194,
    "inian</w>": 4195,
    "exit</w>": 4196,
    "audience</w>": 4197,
    "foundation</w>": 4198,
    "veer": 4199,
    "veeru</w>": 4200,
    "sultan</w>": 4201,
    "maril": 4202,
    "marilyn</w>": 4203,
    "crab</w>": 4204,
    "cust": 4205,
    "potential</w>": 4206,
    "wise</w>": 4207,
    "tas": 4208,
    "look</w>": 4209,
    "mechan": 4210,
    "faced</w>": 4211,
    "singer</w>": 4212,
    "popularity</w>": 4213,
    "issues</w>": 4214,
    "strated</w>": 4215,
    "distinct</w>": 4216,
    "permanent</w>": 4217,
    "artill": 4218,
    "artillery</w>": 4219,
    "mine</w>": 4220,
    "authority</w>": 4221,
    "bled</w>": 4222,
    "sumed</w>": 4223,
    "charge</w>": 4224,
    "7th</w>": 4225,
    "icient</w>": 4226,
    "loy": 4227,
    "meet</w>": 4228,
    "financial</w>": 4229,
    "design": 4230,
    "cards</w>": 4231,
    "stained</w>": 4232,
    "1985</w>": 4233,
    "accompan": 4234,
    "recomm": 4235,
    "homes</w>": 4236,
    "agency</w>": 4237,
    "guardian</w>": 4238,
    "represents</w>": 4239,
    "tournam": 4240,
    "organized</w>": 4241,
    "bot": 4242,
    "description</w>": 4243,
    "etic</w>": 4244,
    "antly</w>": 4245,
    "controver": 4246,
    "owner</w>": 4247,
    "net</w>": 4248,
    "interview": 4249,
    "propos": 4250,
    "ib": 4251,
    "elimin": 4252,
    "commod": 4253,
    "greg": 4254,
    "gift</w>": 4255,
    "dres": 4256,
    "ff</w>": 4257,
    "vocal</w>": 4258,
    "88</w>": 4259,
    "northeast</w>": 4260,
    "creek</w>": 4261,
    "economy</w>": 4262,
    "attempts</w>": 4263,
    "sides</w>": 4264,
    "torpedo</w>": 4265,
    "pressure</w>": 4266,
    "eth": 4267,
    "box</w>": 4268,
    "screen</w>": 4269,
    "movie</w>": 4270,
    "kar": 4271,
    "emo": 4272,
    "dating</w>": 4273,
    "teenth</w>": 4274,
    "fighting</w>": 4275,
    "advanced</w>": 4276,
    "boats</w>": 4277,
    "istics</w>": 4278,
    "relationships</w>": 4279,
    "humans</w>": 4280,
    "depicts</w>": 4281,
    "mentioned</w>": 4282,
    "regarded</w>": 4283,
    "ordin": 4284,
    "vince</w>": 4285,
    "dynam": 4286,
    "rare</w>": 4287,
    "shrine</w>": 4288,
    "hann": 4289,
    "really</w>": 4290,
    "avoid</w>": 4291,
    "chas": 4292,
    "cruiser</w>": 4293,
    "aria</w>": 4294,
    "temper": 4295,
    "bad</w>": 4296,
    "edly</w>": 4297,
    "weekly</w>": 4298,
    "wit": 4299,
    "academic</w>": 4300,
    "pak": 4301,
    "pakist": 4302,
    "m2</w>": 4303,
    "eway</w>": 4304,
    "leon": 4305,
    "constitu": 4306,
    "teach": 4307,
    "dock</w>": 4308,
    "sb": 4309,
    "israeli</w>": 4310,
    "pani</w>": 4311,
    "e4</w>": 4312,
    "colonna</w>": 4313,
    "nf": 4314,
    "multiple</w>": 4315,
    "tially</w>": 4316,
    "episodes</w>": 4317,
    "victory</w>": 4318,
    "continues</w>": 4319,
    "escor": 4320,
    "needed</w>": 4321,
    "bass</w>": 4322,
    "divor": 4323,
    "details</w>": 4324,
    "poor</w>": 4325,
    "top": 4326,
    "moral</w>": 4327,
    "improved</w>": 4328,
    "network</w>": 4329,
    "seri": 4330,
    "arth": 4331,
    "arthur</w>": 4332,
    "thick</w>": 4333,
    "fell</w>": 4334,
    "jack": 4335,
    "successfully</w>": 4336,
    "owledge</w>": 4337,
    "marks</w>": 4338,
    "big</w>": 4339,
    "exhib": 4340,
    "paid</w>": 4341,
    "fairies</w>": 4342,
    "daughter</w>": 4343,
    "peter</w>": 4344,
    "£</w>": 4345,
    "favorite</w>": 4346,
    "regional</w>": 4347,
    "plain</w>": 4348,
    "esses</w>": 4349,
    "eds</w>": 4350,
    "less": 4351,
    "victoria</w>": 4352,
    "mouth</w>": 4353,
    "ens": 4354,
    "worst</w>": 4355,
    "playoffs</w>": 4356,
    "strea": 4357,
    "mom": 4358,
    "sports</w>": 4359,
    "nes": 4360,
    "ix</w>": 4361,
    "stating</w>": 4362,
    "missing</w>": 4363,
    "camer": 4364,
    "appears</w>": 4365,
    "san</w>": 4366,
    "au</w>": 4367,
    "wooden</w>": 4368,
    "ori": 4369,
    "pus": 4370,
    "ication</w>": 4371,
    "drama</w>": 4372,
    "thr": 4373,
    "1980s</w>": 4374,
    "student</w>": 4375,
    "roy</w>": 4376,
    "film": 4377,
    "protection</w>": 4378,
    "allied</w>": 4379,
    "characteristics</w>": 4380,
    "scholars</w>": 4381,
    "ideas</w>": 4382,
    "flood</w>": 4383,
    "agu": 4384,
    "similarly</w>": 4385,
    "styles</w>": 4386,
    "question</w>": 4387,
    "onally</w>": 4388,
    "observed</w>": 4389,
    "label</w>": 4390,
    "follow</w>": 4391,
    "aerodromes</w>": 4392,
    "primar": 4393,
    "prohib": 4394,
    "policy</w>": 4395,
    "opinion</w>": 4396,
    "zr": 4397,
    "zrí": 4398,
    "zrínyi</w>": 4399,
    "tap": 4400,
    "lewis</w>": 4401,
    "pieces</w>": 4402,
    "notable</w>": 4403,
    "declared</w>": 4404,
    "actor</w>": 4405,
    "ratings</w>": 4406,
    "34</w>": 4407,
    "eton</w>": 4408,
    "structures</w>": 4409,
    "nazi</w>": 4410,
    "bald</w>": 4411,
    "stop</w>": 4412,
    "bound</w>": 4413,
    "patrick</w>": 4414,
    "achieved</w>": 4415,
    "urs</w>": 4416,
    "norman</w>": 4417,
    "missil": 4418,
    "reactor</w>": 4419,
    "aden</w>": 4420,
    "archaeologists</w>": 4421,
    "medway</w>": 4422,
    "stable</w>": 4423,
    "pus</w>": 4424,
    "birds</w>": 4425,
    "cardin": 4426,
    "cardinals</w>": 4427,
    "beyonc": 4428,
    "beyoncé</w>": 4429,
    "tong</w>": 4430,
    "stoppani</w>": 4431,
    "pozz": 4432,
    "pozzob": 4433,
    "pozzobon": 4434,
    "pozzobonelli</w>": 4435,
    "fantu": 4436,
    "fantuzz": 4437,
    "fantuzzi</w>": 4438,
    "fan</w>": 4439,
    "franch": 4440,
    "ulty</w>": 4441,
    "skills</w>": 4442,
    "unique</w>": 4443,
    "experience</w>": 4444,
    "foreign</w>": 4445,
    "fellow</w>": 4446,
    "fight</w>": 4447,
    "2nd</w>": 4448,
    "empire</w>": 4449,
    "lived</w>": 4450,
    "defeat</w>": 4451,
    "separate</w>": 4452,
    "tionary</w>": 4453,
    "syst": 4454,
    "uals</w>": 4455,
    "cles</w>": 4456,
    "legis": 4457,
    "deemed</w>": 4458,
    "perha": 4459,
    "perhaps</w>": 4460,
    "saf": 4461,
    "nor</w>": 4462,
    "3rd</w>": 4463,
    "dun": 4464,
    "build</w>": 4465,
    "road": 4466,
    "abandoned</w>": 4467,
    "gress</w>": 4468,
    "designated</w>": 4469,
    "biography</w>": 4470,
    "belong": 4471,
    "house": 4472,
    "heart</w>": 4473,
    "comes</w>": 4474,
    "anch": 4475,
    "boy</w>": 4476,
    "ny</w>": 4477,
    "1946</w>": 4478,
    "1937</w>": 4479,
    "trees</w>": 4480,
    "cecily</w>": 4481,
    "quali": 4482,
    "world": 4483,
    "jan</w>": 4484,
    "founded</w>": 4485,
    "ili": 4486,
    "marg": 4487,
    "ditionally</w>": 4488,
    "fr": 4489,
    "approa": 4490,
    "dig": 4491,
    "deal": 4492,
    "proce": 4493,
    "76</w>": 4494,
    "ninth</w>": 4495,
    "restric": 4496,
    "commissioned</w>": 4497,
    "centre</w>": 4498,
    "orated</w>": 4499,
    "contrast</w>": 4500,
    "carey</w>": 4501,
    "step": 4502,
    "71</w>": 4503,
    "ible</w>": 4504,
    "railroad</w>": 4505,
    "supporting</w>": 4506,
    "mond</w>": 4507,
    "steph": 4508,
    "brothers</w>": 4509,
    "armor</w>": 4510,
    "admiral</w>": 4511,
    "currently</w>": 4512,
    "magic</w>": 4513,
    "sat": 4514,
    "hart": 4515,
    "offensive</w>": 4516,
    "share</w>": 4517,
    "chemo": 4518,
    "chemotherapy</w>": 4519,
    "croa": 4520,
    "combat</w>": 4521,
    "applied</w>": 4522,
    "focus</w>": 4523,
    "ception</w>": 4524,
    "debate</w>": 4525,
    "describes</w>": 4526,
    "examples</w>": 4527,
    "guid": 4528,
    "benef": 4529,
    "musli": 4530,
    "ker": 4531,
    "ricul": 4532,
    "mini": 4533,
    "ires</w>": 4534,
    "xis</w>": 4535,
    "180": 4536,
    "attacked</w>": 4537,
    "claims</w>": 4538,
    "violence</w>": 4539,
    "generation</w>": 4540,
    "wards</w>": 4541,
    "holds</w>": 4542,
    "ze": 4543,
    "prison": 4544,
    "defence</w>": 4545,
    "prime</w>": 4546,
    "broadcast</w>": 4547,
    "budd": 4548,
    "frank</w>": 4549,
    "lasted</w>": 4550,
    "1990s</w>": 4551,
    "defensive</w>": 4552,
    "russia</w>": 4553,
    "evans</w>": 4554,
    "andy</w>": 4555,
    "pical</w>": 4556,
    "jai</w>": 4557,
    "jim</w>": 4558,
    "commonly</w>": 4559,
    "alized</w>": 4560,
    "franchise</w>": 4561,
    "dict": 4562,
    "grown</w>": 4563,
    "classes</w>": 4564,
    "composed</w>": 4565,
    "orders</w>": 4566,
    "presence</w>": 4567,
    "keep</w>": 4568,
    "entry</w>": 4569,
    "website</w>": 4570,
    "alists</w>": 4571,
    "versions</w>": 4572,
    "unlike</w>": 4573,
    "watch</w>": 4574,
    "noting</w>": 4575,
    "problems</w>": 4576,
    "expedition</w>": 4577,
    "request</w>": 4578,
    "determined</w>": 4579,
    "forc": 4580,
    "simp": 4581,
    "repair": 4582,
    "converted</w>": 4583,
    "sipp": 4584,
    "infan": 4585,
    "infantry</w>": 4586,
    "jackson</w>": 4587,
    "knowledge</w>": 4588,
    "rapid": 4589,
    "rapidly</w>": 4590,
    "prepared</w>": 4591,
    "looking</w>": 4592,
    "yment</w>": 4593,
    "green</w>": 4594,
    "decades</w>": 4595,
    "rey</w>": 4596,
    "elected</w>": 4597,
    "free": 4598,
    "unable</w>": 4599,
    "1929</w>": 4600,
    "challeng": 4601,
    "diam": 4602,
    "disc</w>": 4603,
    "tail</w>": 4604,
    "pattern</w>": 4605,
    "threatened</w>": 4606,
    "tax": 4607,
    "cr": 4608,
    "contains</w>": 4609,
    "seas</w>": 4610,
    "62</w>": 4611,
    "angeles</w>": 4612,
    "rain</w>": 4613,
    "otes</w>": 4614,
    "aren": 4615,
    "representative</w>": 4616,
    "involving</w>": 4617,
    "sets</w>": 4618,
    "divisions</w>": 4619,
    "credited</w>": 4620,
    "56</w>": 4621,
    "layer</w>": 4622,
    "800</w>": 4623,
    "pass</w>": 4624,
    "haw": 4625,
    "150</w>": 4626,
    "je": 4627,
    "ev</w>": 4628,
    "romantic</w>": 4629,
    "bie</w>": 4630,
    "car</w>": 4631,
    "ken": 4632,
    "battleships</w>": 4633,
    "fs</w>": 4634,
    "goddess</w>": 4635,
    "reasons</w>": 4636,
    "whereas</w>": 4637,
    "depicted</w>": 4638,
    "greek</w>": 4639,
    "powers</w>": 4640,
    "55</w>": 4641,
    "power": 4642,
    "powerful</w>": 4643,
    "know</w>": 4644,
    "province</w>": 4645,
    "ging</w>": 4646,
    "asser": 4647,
    "usual</w>": 4648,
    "opportunities</w>": 4649,
    "practices</w>": 4650,
    "accompl": 4651,
    "peak</w>": 4652,
    "emper": 4653,
    "bit</w>": 4654,
    "experim": 4655,
    "recre": 4656,
    "airports</w>": 4657,
    "licen": 4658,
    "facilities</w>": 4659,
    "compla": 4660,
    "titude</w>": 4661,
    "bon</w>": 4662,
    "transportation</w>": 4663,
    "spores</w>": 4664,
    "longacre</w>": 4665,
    "publications</w>": 4666,
    "ulated</w>": 4667,
    "intelligence</w>": 4668,
    "tenn": 4669,
    "believes</w>": 4670,
    "jus": 4671,
    "gates</w>": 4672,
    "territories</w>": 4673,
    "publishing</w>": 4674,
    "genre</w>": 4675,
    "tropical</w>": 4676,
    "homos": 4677,
    "cinema</w>": 4678,
    "maya</w>": 4679,
    "computer</w>": 4680,
    "exeter</w>": 4681,
    "aot</w>": 4682,
    "oreg": 4683,
    "oregon</w>": 4684,
    "aws</w>": 4685,
    "cric": 4686,
    "cricket</w>": 4687,
    "rowson</w>": 4688,
    "sales</w>": 4689,
    "missions</w>": 4690,
    "enemy</w>": 4691,
    "progres": 4692,
    "armor": 4693,
    "shared</w>": 4694,
    "expos": 4695,
    "goes</w>": 4696,
    "ror</w>": 4697,
    "grade</w>": 4698,
    "eful</w>": 4699,
    "hin": 4700,
    "artic": 4701,
    "citing</w>": 4702,
    "volume</w>": 4703,
    "perc": 4704,
    "thirty</w>": 4705,
    "surren": 4706,
    "prevent</w>": 4707,
    "rifle</w>": 4708,
    "5th</w>": 4709,
    "6th</w>": 4710,
    "complet": 4711,
    "completely</w>": 4712,
    "valu": 4713,
    "else</w>": 4714,
    "nothing</w>": 4715,
    "ases</w>": 4716,
    "bel</w>": 4717,
    "market</w>": 4718,
    "depicting</w>": 4719,
    "earliest</w>": 4720,
    "adver": 4721,
    "sir</w>": 4722,
    "publish": 4723,
    "1989</w>": 4724,
    "cov": 4725,
    "leave</w>": 4726,
    "astic</w>": 4727,
    "ales</w>": 4728,
    "stand</w>": 4729,
    "eller</w>": 4730,
    "relatively</w>": 4731,
    "reach</w>": 4732,
    "essed</w>": 4733,
    "fare</w>": 4734,
    "wis": 4735,
    "injury</w>": 4736,
    "playoff</w>": 4737,
    "iter": 4738,
    "correc": 4739,
    "48</w>": 4740,
    "statis": 4741,
    "palace</w>": 4742,
    "esco</w>": 4743,
    "fications</w>": 4744,
    "urb": 4745,
    "fix": 4746,
    "wind</w>": 4747,
    "titled</w>": 4748,
    "studios</w>": 4749,
    "rhyth": 4750,
    "performing</w>": 4751,
    "rical</w>": 4752,
    "fun</w>": 4753,
    "52</w>": 4754,
    "farm": 4755,
    "sav": 4756,
    "stephen</w>": 4757,
    "41</w>": 4758,
    "bow</w>": 4759,
    "connected</w>": 4760,
    "ization</w>": 4761,
    "yer</w>": 4762,
    "possib": 4763,
    "murder</w>": 4764,
    "khan</w>": 4765,
    "domes": 4766,
    "disease</w>": 4767,
    "satis": 4768,
    "erz": 4769,
    "erzher": 4770,
    "erzherzo": 4771,
    "erzherzog</w>": 4772,
    "tia</w>": 4773,
    "nes</w>": 4774,
    "symbol": 4775,
    "amun</w>": 4776,
    "unknown</w>": 4777,
    "instance</w>": 4778,
    "cannot</w>": 4779,
    "treated</w>": 4780,
    "tles</w>": 4781,
    "fit</w>": 4782,
    "recognized</w>": 4783,
    "buried</w>": 4784,
    "rules</w>": 4785,
    "po</w>": 4786,
    "califor": 4787,
    "california</w>": 4788,
    "soundtrack</w>": 4789,
    "kind</w>": 4790,
    "pro</w>": 4791,
    "fly</w>": 4792,
    "agricul": 4793,
    "che": 4794,
    "impact</w>": 4795,
    "opposed</w>": 4796,
    "destruction</w>": 4797,
    "train</w>": 4798,
    "tane": 4799,
    "von</w>": 4800,
    "democ": 4801,
    "francisco</w>": 4802,
    "replacement</w>": 4803,
    "bling</w>": 4804,
    "eting</w>": 4805,
    "dates</w>": 4806,
    "reagents</w>": 4807,
    "election</w>": 4808,
    "goat</w>": 4809,
    "rative</w>": 4810,
    "leads</w>": 4811,
    "promotion</w>": 4812,
    "scholar</w>": 4813,
    "bern": 4814,
    "dutch</w>": 4815,
    "astal</w>": 4816,
    "invas": 4817,
    "clinton</w>": 4818,
    "edge</w>": 4819,
    "someone</w>": 4820,
    "sculptures</w>": 4821,
    "herit": 4822,
    "settlement</w>": 4823,
    "tall</w>": 4824,
    "musicians</w>": 4825,
    "machine</w>": 4826,
    "metrical</w>": 4827,
    "1900</w>": 4828,
    "1982</w>": 4829,
    "poles</w>": 4830,
    "teachers</w>": 4831,
    "megaliths</w>": 4832,
    "variation</w>": 4833,
    "tombs</w>": 4834,
    "timbal": 4835,
    "timbaland</w>": 4836,
    "−</w>": 4837,
    "fragil": 4838,
    "fragilis</w>": 4839,
    "mill</w>": 4840,
    "zombie</w>": 4841,
    "zomb": 4842,
    "zombies</w>": 4843,
    "haddock</w>": 4844,
    "predec": 4845,
    "script</w>": 4846,
    "expanded</w>": 4847,
    "speaking</w>": 4848,
    "target</w>": 4849,
    "greatly</w>": 4850,
    "sen</w>": 4851,
    "chance</w>": 4852,
    "memory</w>": 4853,
    "color</w>": 4854,
    "ranged</w>": 4855,
    "returning</w>": 4856,
    "criticized</w>": 4857,
    "ko": 4858,
    "museum": 4859,
    "museums</w>": 4860,
    "headquarters</w>": 4861,
    "proved</w>": 4862,
    "spl": 4863,
    "permitted</w>": 4864,
    "session</w>": 4865,
    "spread</w>": 4866,
    "stores</w>": 4867,
    "denied</w>": 4868,
    "citi": 4869,
    "citiz": 4870,
    "executive</w>": 4871,
    "establishment</w>": 4872,
    "scale</w>": 4873,
    "josep": 4874,
    "joseph</w>": 4875,
    "washington</w>": 4876,
    "purposes</w>": 4877,
    "shell</w>": 4878,
    "queen</w>": 4879,
    "green": 4880,
    "wings</w>": 4881,
    "semi</w>": 4882,
    "andrew</w>": 4883,
    "1954</w>": 4884,
    "edi": 4885,
    "technology</w>": 4886,
    "technical</w>": 4887,
    "choice</w>": 4888,
    "matter</w>": 4889,
    "aside</w>": 4890,
    "1938</w>": 4891,
    "groun": 4892,
    "suggests</w>": 4893,
    "1926</w>": 4894,
    "panel</w>": 4895,
    "beat</w>": 4896,
    "targe": 4897,
    "1952</w>": 4898,
    "levels</w>": 4899,
    "distribution</w>": 4900,
    "conservation</w>": 4901,
    "shape</w>": 4902,
    "seconds</w>": 4903,
    "score</w>": 4904,
    "ition</w>": 4905,
    "goal": 4906,
    "steve</w>": 4907,
    "38</w>": 4908,
    "trying</w>": 4909,
    "letter</w>": 4910,
    "bell</w>": 4911,
    "mike</w>": 4912,
    "dep": 4913,
    "offers</w>": 4914,
    "twice</w>": 4915,
    "towers</w>": 4916,
    "ophi": 4917,
    "ensemble</w>": 4918,
    "toward</w>": 4919,
    "chann": 4920,
    "trials</w>": 4921,
    "ounding</w>": 4922,
    "kan</w>": 4923,
    "gros": 4924,
    "hollywood</w>": 4925,
    "singh</w>": 4926,
    "projects</w>": 4927,
    "holy</w>": 4928,
    "mum": 4929,
    "thakur</w>": 4930,
    "chose</w>": 4931,
    "ih": 4932,
    "ky</w>": 4933,
    "chec": 4934,
    "rement</w>": 4935,
    "ferdin": 4936,
    "ferdinand</w>": 4937,
    "turre": 4938,
    "37</w>": 4939,
    "rarely</w>": 4940,
    "core</w>": 4941,
    "aten</w>": 4942,
    "phs</w>": 4943,
    "cult</w>": 4944,
    "feel</w>": 4945,
    "cities</w>": 4946,
    "stances</w>": 4947,
    "increasingly</w>": 4948,
    "basic</w>": 4949,
    "adult</w>": 4950,
    "wr": 4951,
    "didn</w>": 4952,
    "certified</w>": 4953,
    "theory</w>": 4954,
    "resulting</w>": 4955,
    "stay</w>": 4956,
    "cost</w>": 4957,
    "experienced</w>": 4958,
    "effective</w>": 4959,
    "primarily</w>": 4960,
    "weather</w>": 4961,
    "assassination</w>": 4962,
    "tice</w>": 4963,
    "bun": 4964,
    "quarter</w>": 4965,
    "sculpture</w>": 4966,
    "meeting</w>": 4967,
    "kov": 4968,
    "sulfi": 4969,
    "zap": 4970,
    "zapata</w>": 4971,
    "leaders</w>": 4972,
    "1930</w>": 4973,
    "iel</w>": 4974,
    "sle": 4975,
    "chel": 4976,
    "rested</w>": 4977,
    "portugu": 4978,
    "portuguese</w>": 4979,
    "ocean</w>": 4980,
    "broadway</w>": 4981,
    "ementary</w>": 4982,
    "adam</w>": 4983,
    "pregnancy</w>": 4984,
    "brig": 4985,
    "seems</w>": 4986,
    "buddhi": 4987,
    "heritage</w>": 4988,
    "aw</w>": 4989,
    "dwi": 4990,
    "symmetrical</w>": 4991,
    "rain": 4992,
    "alised</w>": 4993,
    "why</w>": 4994,
    "tenure</w>": 4995,
    "warsaw</w>": 4996,
    "atom": 4997,
    "adults</w>": 4998,
    "lo</w>": 4999,
    "gust": 5000,
    "freeway</w>": 5001,
    "hip</w>": 5002,
    "tot</w>": 5003,
    "ore": 5004,
    "uyghurs</w>": 5005,
    "wang</w>": 5006,
    "claws</w>": 5007,
    "d4</w>": 5008,
    "monica</w>": 5009,
    "fusion</w>": 5010,
    "runs</w>": 5011,
    "tos": 5012,
    "comic</w>": 5013,
    "line": 5014,
    "camp</w>": 5015,
    "attacks</w>": 5016,
    "engineers</w>": 5017,
    "accused</w>": 5018,
    "exist</w>": 5019,
    "orchest": 5020,
    "seg": 5021,
    "thetic</w>": 5022,
    "paci": 5023,
    "budget</w>": 5024,
    "91</w>": 5025,
    "rein": 5026,
    "recently</w>": 5027,
    "confir": 5028,
    "winter</w>": 5029,
    "sus</w>": 5030,
    "prising</w>": 5031,
    "gen</w>": 5032,
    "pay</w>": 5033,
    "station": 5034,
    "1911</w>": 5035,
    "administration</w>": 5036,
    "ipal</w>": 5037,
    "tum": 5038,
    "amat": 5039,
    "amate": 5040,
    "1919</w>": 5041,
    "victorian</w>": 5042,
    "1961</w>": 5043,
    "institutions</w>": 5044,
    "jen": 5045,
    "resc": 5046,
    "hibi": 5047,
    "louis</w>": 5048,
    "gambia</w>": 5049,
    "funding</w>": 5050,
    "enge</w>": 5051,
    "1987</w>": 5052,
    "developing</w>": 5053,
    "eff</w>": 5054,
    "montre": 5055,
    "montreal</w>": 5056,
    "additionally</w>": 5057,
    "losing</w>": 5058,
    "streak</w>": 5059,
    "sell</w>": 5060,
    "percent": 5061,
    "gall": 5062,
    "uries</w>": 5063,
    "sit</w>": 5064,
    "revival</w>": 5065,
    "1889</w>": 5066,
    "fted</w>": 5067,
    "mile</w>": 5068,
    "connec": 5069,
    "deliv": 5070,
    "channel</w>": 5071,
    "aggres": 5072,
    "broke</w>": 5073,
    "laws</w>": 5074,
    "degree</w>": 5075,
    "grand": 5076,
    "pleas": 5077,
    "domestic</w>": 5078,
    "guest</w>": 5079,
    "bin</w>": 5080,
    "itan</w>": 5081,
    "light": 5082,
    "lightning</w>": 5083,
    "athle": 5084,
    "89</w>": 5085,
    "worth</w>": 5086,
    "retirement</w>": 5087,
    "sms</w>": 5088,
    "aim": 5089,
    "count</w>": 5090,
    "signs</w>": 5091,
    "animal</w>": 5092,
    "tili": 5093,
    "constan": 5094,
    "argues</w>": 5095,
    "causing</w>": 5096,
    "differenti": 5097,
    "express</w>": 5098,
    "shou": 5099,
    "rise</w>": 5100,
    "laid</w>": 5101,
    "guil": 5102,
    "faith</w>": 5103,
    "benefit</w>": 5104,
    "teacher</w>": 5105,
    "persi": 5106,
    "muslim</w>": 5107,
    "peaked</w>": 5108,
    "dry</w>": 5109,
    "safe": 5110,
    "safety</w>": 5111,
    "increasing</w>": 5112,
    "1972</w>": 5113,
    "1970s</w>": 5114,
    "ireland</w>": 5115,
    "grass</w>": 5116,
    "ghly</w>": 5117,
    "submarine</w>": 5118,
    "submarines</w>": 5119,
    "spore</w>": 5120,
    "enz": 5121,
    "liber": 5122,
    "chair": 5123,
    "successor</w>": 5124,
    "perfect</w>": 5125,
    "flow</w>": 5126,
    "eleg": 5127,
    "anything</w>": 5128,
    "61</w>": 5129,
    "ee</w>": 5130,
    "writes</w>": 5131,
    "gue</w>": 5132,
    "jum": 5133,
    "tou": 5134,
    "120</w>": 5135,
    "rons</w>": 5136,
    "coastal</w>": 5137,
    "ceremony</w>": 5138,
    "virg": 5139,
    "viewers</w>": 5140,
    "walk</w>": 5141,
    "buddhist</w>": 5142,
    "architectural</w>": 5143,
    "holding</w>": 5144,
    "ador": 5145,
    "altar</w>": 5146,
    "ques</w>": 5147,
    "invasion</w>": 5148,
    "sail": 5149,
    "dream</w>": 5150,
    "sy</w>": 5151,
    "politics</w>": 5152,
    "lane</w>": 5153,
    "watson</w>": 5154,
    "alities</w>": 5155,
    "chair</w>": 5156,
    "giants</w>": 5157,
    "swedish</w>": 5158,
    "leonard</w>": 5159,
    "eus</w>": 5160,
    "gea": 5161,
    "geastru": 5162,
    "geastrum</w>": 5163,
    "kni": 5164,
    "inich</w>": 5165,
    "leukemic</w>": 5166,
    "progn": 5167,
    "prognos": 5168,
    "huron</w>": 5169,
    "palestinian</w>": 5170,
    "homosex": 5171,
    "gag": 5172,
    "kim": 5173,
    "simul": 5174,
    "getting</w>": 5175,
    "gri": 5176,
    "armored</w>": 5177,
    "kept</w>": 5178,
    "som": 5179,
    "phic": 5180,
    "lay": 5181,
    "incorporated</w>": 5182,
    "essential</w>": 5183,
    "systems</w>": 5184,
    "reality</w>": 5185,
    "article</w>": 5186,
    "criticism</w>": 5187,
    "affected</w>": 5188,
    "extensive</w>": 5189,
    "owers</w>": 5190,
    "dest</w>": 5191,
    "pacific</w>": 5192,
    "vised</w>": 5193,
    "specimen</w>": 5194,
    "1861</w>": 5195,
    "direction</w>": 5196,
    "ayed</w>": 5197,
    "efforts</w>": 5198,
    "53</w>": 5199,
    "57</w>": 5200,
    "operated</w>": 5201,
    "valuable</w>": 5202,
    "account</w>": 5203,
    "nei": 5204,
    "purchased</w>": 5205,
    "spirit</w>": 5206,
    "gun": 5207,
    "ck</w>": 5208,
    "travel": 5209,
    "ounder</w>": 5210,
    "renamed</w>": 5211,
    "stationed</w>": 5212,
    "condition</w>": 5213,
    "organizations</w>": 5214,
    "electric</w>": 5215,
    "honor</w>": 5216,
    "collaboration</w>": 5217,
    "gest</w>": 5218,
    "amateur</w>": 5219,
    "sons</w>": 5220,
    "prize</w>": 5221,
    "ida</w>": 5222,
    "rose</w>": 5223,
    "specimens</w>": 5224,
    "stration</w>": 5225,
    "studied</w>": 5226,
    "tells</w>": 5227,
    "picture</w>": 5228,
    "mount</w>": 5229,
    "recogn": 5230,
    "worldwide</w>": 5231,
    "tournament</w>": 5232,
    "maskra": 5233,
    "dark</w>": 5234,
    "females</w>": 5235,
    "industrial</w>": 5236,
    "tis</w>": 5237,
    "elev": 5238,
    "mol": 5239,
    "strate</w>": 5240,
    "consists</w>": 5241,
    "sustained</w>": 5242,
    "maximum</w>": 5243,
    "straight</w>": 5244,
    "pick</w>": 5245,
    "finish</w>": 5246,
    "ski</w>": 5247,
    "51</w>": 5248,
    "trophy</w>": 5249,
    "coa": 5250,
    "starts</w>": 5251,
    "willing</w>": 5252,
    "happy</w>": 5253,
    "penalty</w>": 5254,
    "kill</w>": 5255,
    "sche": 5256,
    "observatory</w>": 5257,
    "physics</w>": 5258,
    "seat</w>": 5259,
    "strength</w>": 5260,
    "composition</w>": 5261,
    "poor": 5262,
    "85</w>": 5263,
    "calcul": 5264,
    "traff": 5265,
    "traffic</w>": 5266,
    "86</w>": 5267,
    "owners</w>": 5268,
    "pul": 5269,
    "push": 5270,
    "abled</w>": 5271,
    "dney</w>": 5272,
    "model</w>": 5273,
    "princess</w>": 5274,
    "starred</w>": 5275,
    "ras": 5276,
    "2016</w>": 5277,
    "clim": 5278,
    "1964</w>": 5279,
    "sab": 5280,
    "sought</w>": 5281,
    "84</w>": 5282,
    "gary</w>": 5283,
    "concerned</w>": 5284,
    "ac</w>": 5285,
    "ranean</w>": 5286,
    "italy</w>": 5287,
    "stations</w>": 5288,
    "iser</w>": 5289,
    "assa": 5290,
    "rituals</w>": 5291,
    "objects</w>": 5292,
    "strongly</w>": 5293,
    "step</w>": 5294,
    "absor": 5295,
    "knew</w>": 5296,
    "evol": 5297,
    "rule</w>": 5298,
    "dynamic</w>": 5299,
    "arg": 5300,
    "tend</w>": 5301,
    "bring</w>": 5302,
    "recordings</w>": 5303,
    "describing</w>": 5304,
    "gliders</w>": 5305,
    "landing</w>": 5306,
    "airspace</w>": 5307,
    "environmental</w>": 5308,
    "uled</w>": 5309,
    "severe</w>": 5310,
    "requires</w>": 5311,
    "abs": 5312,
    "absence</w>": 5313,
    "sie": 5314,
    "siege</w>": 5315,
    "destroyer</w>": 5316,
    "houses</w>": 5317,
    "entirely</w>": 5318,
    "carbon": 5319,
    "carbonaria</w>": 5320,
    "chairman</w>": 5321,
    "q</w>": 5322,
    "display</w>": 5323,
    "ylide</w>": 5324,
    "cycl": 5325,
    "typical</w>": 5326,
    "possibility</w>": 5327,
    "execu": 5328,
    "documentary</w>": 5329,
    "daniel</w>": 5330,
    "anton": 5331,
    "reference</w>": 5332,
    "spain</w>": 5333,
    "darwin</w>": 5334,
    "tennant</w>": 5335,
    "deser": 5336,
    "mean</w>": 5337,
    "nominated</w>": 5338,
    "pakistan</w>": 5339,
    "defended</w>": 5340,
    "harb": 5341,
    "arm</w>": 5342,
    "km2</w>": 5343,
    "explains</w>": 5344,
    "considers</w>": 5345,
    "zy</w>": 5346,
    "ications</w>": 5347,
    "berg</w>": 5348,
    "bob": 5349,
    "63</w>": 5350,
    "bird</w>": 5351,
    "1975</w>": 5352,
    "divorce</w>": 5353,
    "usz</w>": 5354,
    "relative</w>": 5355,
    "hanna</w>": 5356,
    "august": 5357,
    "shop</w>": 5358,
    "hop</w>": 5359,
    "digital</w>": 5360,
    "corporation</w>": 5361,
    "rad": 5362,
    "gian</w>": 5363,
    "thail": 5364,
    "thailand</w>": 5365,
    "ites</w>": 5366,
    "adams</w>": 5367,
    "husband": 5368,
    "husbandman</w>": 5369,
    "aha</w>": 5370,
    "kre": 5371,
    "adventures</w>": 5372,
    "wu</w>": 5373,
    "soir</w>": 5374,
    "knights</w>": 5375,
    "crusader</w>": 5376,
    "castles</w>": 5377,
    "follows</w>": 5378,
    "squad</w>": 5379,
    "expen": 5380,
    "enders</w>": 5381,
    "wear": 5382,
    "lem</w>": 5383,
    "heard</w>": 5384,
    "rejected</w>": 5385,
    "instruments</w>": 5386,
    "transfer</w>": 5387,
    "data</w>": 5388,
    "load</w>": 5389,
    "enjoyed</w>": 5390,
    "nega": 5391,
    "representing</w>": 5392,
    "adaptation</w>": 5393,
    "bes": 5394,
    "tot": 5395,
    "deter": 5396,
    "dering</w>": 5397,
    "pted</w>": 5398,
    "agreement</w>": 5399,
    "caliber</w>": 5400,
    "battal": 5401,
    "battalion</w>": 5402,
    "neither</w>": 5403,
    "inity</w>": 5404,
    "suitable</w>": 5405,
    "chapter</w>": 5406,
    "scope</w>": 5407,
    "duties</w>": 5408,
    "freder": 5409,
    "frederick</w>": 5410,
    "mountain</w>": 5411,
    "register</w>": 5412,
    "1970</w>": 5413,
    "correspon": 5414,
    "1920": 5415,
    "1920s</w>": 5416,
    "doub": 5417,
    "77</w>": 5418,
    "tried</w>": 5419,
    "flat</w>": 5420,
    "edward</w>": 5421,
    "1915</w>": 5422,
    "sand</w>": 5423,
    "treasury</w>": 5424,
    "challenge</w>": 5425,
    "ray</w>": 5426,
    "shaped</w>": 5427,
    "toral</w>": 5428,
    "thor": 5429,
    "skin</w>": 5430,
    "ooth</w>": 5431,
    "research": 5432,
    "broad</w>": 5433,
    "capture</w>": 5434,
    "factors</w>": 5435,
    "blues</w>": 5436,
    "arily</w>": 5437,
    "phoen": 5438,
    "phoenix</w>": 5439,
    "stanley</w>": 5440,
    "nation": 5441,
    "dged</w>": 5442,
    "dying</w>": 5443,
    "combination</w>": 5444,
    "posted</w>": 5445,
    "pa</w>": 5446,
    "statistics</w>": 5447,
    "worn</w>": 5448,
    "flan": 5449,
    "itated</w>": 5450,
    "preserved</w>": 5451,
    "height</w>": 5452,
    "joe</w>": 5453,
    "aware</w>": 5454,
    "melod": 5455,
    "block": 5456,
    "py": 5457,
    "kno": 5458,
    "austri": 5459,
    "embar": 5460,
    "contribu": 5461,
    "protected</w>": 5462,
    "equiv": 5463,
    "significantly</w>": 5464,
    "acking</w>": 5465,
    "possibly</w>": 5466,
    "recru": 5467,
    "hosted</w>": 5468,
    "duo</w>": 5469,
    "esh</w>": 5470,
    "conf": 5471,
    "emerged</w>": 5472,
    "fear</w>": 5473,
    "veg": 5474,
    "attracted</w>": 5475,
    "income</w>": 5476,
    "outstanding</w>": 5477,
    "marrow</w>": 5478,
    "tests</w>": 5479,
    "floti": 5480,
    "flotill": 5481,
    "mutin": 5482,
    "turrets</w>": 5483,
    "repl": 5484,
    "outbreak</w>": 5485,
    "mobil": 5486,
    "destroy</w>": 5487,
    "distinguished</w>": 5488,
    "horus</w>": 5489,
    "reading</w>": 5490,
    "belief</w>": 5491,
    "setting</w>": 5492,
    "dit</w>": 5493,
    "passes</w>": 5494,
    "allows</w>": 5495,
    "extreme</w>": 5496,
    "decis": 5497,
    "guidance</w>": 5498,
    "evil</w>": 5499,
    "lling</w>": 5500,
    "collected</w>": 5501,
    "decade</w>": 5502,
    "wants</w>": 5503,
    "sector</w>": 5504,
    "flights</w>": 5505,
    "aerodrome</w>": 5506,
    "noise</w>": 5507,
    "plane</w>": 5508,
    "1950s</w>": 5509,
    "1960s</w>": 5510,
    "circu": 5511,
    "powered</w>": 5512,
    "joint</w>": 5513,
    "prised</w>": 5514,
    "roughly</w>": 5515,
    "ero": 5516,
    "brist": 5517,
    "bristol</w>": 5518,
    "collap": 5519,
    "alleg": 5520,
    "facing</w>": 5521,
    "technique</w>": 5522,
    "len": 5523,
    "oxide</w>": 5524,
    "eric</w>": 5525,
    "derived</w>": 5526,
    "elections</w>": 5527,
    "oppon": 5528,
    "feast</w>": 5529,
    "uality</w>": 5530,
    "finds</w>": 5531,
    "uma</w>": 5532,
    "bour": 5533,
    "filmed</w>": 5534,
    "1945</w>": 5535,
    "immig": 5536,
    "ored</w>": 5537,
    "does": 5538,
    "doesn</w>": 5539,
    "rainfall</w>": 5540,
    "sr</w>": 5541,
    "flor": 5542,
    "ock": 5543,
    "morrison</w>": 5544,
    "forty</w>": 5545,
    "authors</w>": 5546,
    "directors</w>": 5547,
    "meters</w>": 5548,
    "kit</w>": 5549,
    "timber</w>": 5550,
    "rh": 5551,
    "sippy</w>": 5552,
    "cambridge</w>": 5553,
    "spou": 5554,
    "dr</w>": 5555,
    "vin</w>": 5556,
    "campus</w>": 5557,
    "tripol": 5558,
    "tripoli</w>": 5559,
    "nol": 5560,
    "bridges</w>": 5561,
    "isb": 5562,
    "isbn</w>": 5563,
    "dwight</w>": 5564,
    "rail</w>": 5565,
    "quite</w>": 5566,
    "palen": 5567,
    "palenque</w>": 5568,
    "professor</w>": 5569,
    "lamb": 5570,
    "lambton</w>": 5571,
    "prism</w>": 5572,
    "boreas</w>": 5573,
    "portion</w>": 5574,
    "compos": 5575,
    "hi</w>": 5576,
    "content</w>": 5577,
    "gradually</w>": 5578,
    "granted</w>": 5579,
    "distance</w>": 5580,
    "grant</w>": 5581,
    "method</w>": 5582,
    "never": 5583,
    "neverth": 5584,
    "nevertheless</w>": 5585,
    "formal</w>": 5586,
    "creating</w>": 5587,
    "legi": 5588,
    "designs</w>": 5589,
    "problem</w>": 5590,
    "tone</w>": 5591,
    "arranged</w>": 5592,
    "fought</w>": 5593,
    "develop</w>": 5594,
    "page</w>": 5595,
    "dv": 5596,
    "consequ": 5597,
    "supre": 5598,
    "acres</w>": 5599,
    "appropri": 5600,
    "henry</w>": 5601,
    "recalled</w>": 5602,
    "rich": 5603,
    "prom": 5604,
    "safe</w>": 5605,
    "battery</w>": 5606,
    "64</w>": 5607,
    "supp": 5608,
    "supply</w>": 5609,
    "turing</w>": 5610,
    "remain": 5611,
    "remainder</w>": 5612,
    "obtained</w>": 5613,
    "enter</w>": 5614,
    "acu": 5615,
    "member": 5616,
    "1917</w>": 5617,
    "eth</w>": 5618,
    "1925</w>": 5619,
    "receiving</w>": 5620,
    "1960</w>": 5621,
    "acquired</w>": 5622,
    "indicated</w>": 5623,
    "analy": 5624,
    "1920</w>": 5625,
    "kl": 5626,
    "46</w>": 5627,
    "1927</w>": 5628,
    "roll</w>": 5629,
    "sport</w>": 5630,
    "reaching</w>": 5631,
    "poly": 5632,
    "bottom</w>": 5633,
    "scientific</w>": 5634,
    "diver": 5635,
    "suggesting</w>": 5636,
    "sal</w>": 5637,
    "exchange</w>": 5638,
    "tender</w>": 5639,
    "entering</w>": 5640,
    "slow</w>": 5641,
    "permission</w>": 5642,
    "percentage</w>": 5643,
    "attributed</w>": 5644,
    "fortun": 5645,
    "insur": 5646,
    "senior</w>": 5647,
    "toronto</w>": 5648,
    "inging</w>": 5649,
    "0th</w>": 5650,
    "xiii</w>": 5651,
    "centuries</w>": 5652,
    "18th</w>": 5653,
    "gil": 5654,
    "border</w>": 5655,
    "diameter</w>": 5656,
    "carry</w>": 5657,
    "engineering</w>": 5658,
    "rich</w>": 5659,
    "orus</w>": 5660,
    "everyone</w>": 5661,
    "aska</w>": 5662,
    "travel</w>": 5663,
    "stea": 5664,
    "steam</w>": 5665,
    "aded</w>": 5666,
    "passeng": 5667,
    "sli": 5668,
    "coal</w>": 5669,
    "tang": 5670,
    "equival": 5671,
    "tie</w>": 5672,
    "atlantic</w>": 5673,
    "enc": 5674,
    "dialogue</w>": 5675,
    "starring</w>": 5676,
    "conv": 5677,
    "seeing</w>": 5678,
    "wed": 5679,
    "mumba": 5680,
    "mumbai</w>": 5681,
    "commission": 5682,
    "may": 5683,
    "concert</w>": 5684,
    "brief</w>": 5685,
    "scholar": 5686,
    "scholarship</w>": 5687,
    "94</w>": 5688,
    "jr</w>": 5689,
    "ben</w>": 5690,
    "mediter": 5691,
    "mediterranean</w>": 5692,
    "bombar": 5693,
    "batter": 5694,
    "batteries</w>": 5695,
    "maat</w>": 5696,
    "oh</w>": 5697,
    "isis</w>": 5698,
    "hier": 5699,
    "demons</w>": 5700,
    "mann</w>": 5701,
    "maintained</w>": 5702,
    "communities</w>": 5703,
    "truth</w>": 5704,
    "scap": 5705,
    "iris</w>": 5706,
    "drawing</w>": 5707,
    "keeping</w>": 5708,
    "false</w>": 5709,
    "titles</w>": 5710,
    "circ": 5711,
    "periods</w>": 5712,
    "vessel</w>": 5713,
    "ung</w>": 5714,
    "agree</w>": 5715,
    "status</w>": 5716,
    "banks</w>": 5717,
    "relief</w>": 5718,
    "ionally</w>": 5719,
    "dred</w>": 5720,
    "ble": 5721,
    "bal</w>": 5722,
    "operating</w>": 5723,
    "accounts</w>": 5724,
    "regar": 5725,
    "airfields</w>": 5726,
    "piper</w>": 5727,
    "cran": 5728,
    "liner</w>": 5729,
    "discipl": 5730,
    "operate</w>": 5731,
    "fuel</w>": 5732,
    "acceptable</w>": 5733,
    "sever": 5734,
    "fically</w>": 5735,
    "ro</w>": 5736,
    "husband</w>": 5737,
    "simultane": 5738,
    "lov": 5739,
    "stalk</w>": 5740,
    "reduc": 5741,
    "difference</w>": 5742,
    "candi": 5743,
    "candidate</w>": 5744,
    "survived</w>": 5745,
    "chi": 5746,
    "methods</w>": 5747,
    "oroz": 5748,
    "orozco</w>": 5749,
    "narrative</w>": 5750,
    "danc": 5751,
    "lie</w>": 5752,
    "pet</w>": 5753,
    "behaviour</w>": 5754,
    "tim</w>": 5755,
    "1979</w>": 5756,
    "nickn": 5757,
    "arrested</w>": 5758,
    "marsh": 5759,
    "oured</w>": 5760,
    "elementary</w>": 5761,
    "elep": 5762,
    "elephan": 5763,
    "elephanta</w>": 5764,
    "riding</w>": 5765,
    "bow": 5766,
    "sla": 5767,
    "opera</w>": 5768,
    "grey</w>": 5769,
    "containing</w>": 5770,
    "finishing</w>": 5771,
    "techniques</w>": 5772,
    "archbishop</w>": 5773,
    "rier</w>": 5774,
    "surviv": 5775,
    "moo": 5776,
    "wiz": 5777,
    "wizards</w>": 5778,
    "kins</w>": 5779,
    "sor</w>": 5780,
    "ław</w>": 5781,
    "pig": 5782,
    "13th</w>": 5783,
    "bious</w>": 5784,
    "aa</w>": 5785,
    "belgi": 5786,
    "intensi": 5787,
    "thaksin</w>": 5788,
    "inf": 5789,
    "teaches</w>": 5790,
    "archery</w>": 5791,
    "sitcom</w>": 5792,
    "gaga</w>": 5793,
    "carrying</w>": 5794,
    "pati": 5795,
    "stories</w>": 5796,
    "turns</w>": 5797,
    "crimin": 5798,
    "consisting</w>": 5799,
    "protect</w>": 5800,
    "revolu": 5801,
    "model": 5802,
    "zone</w>": 5803,
    "princi": 5804,
    "tank</w>": 5805,
    "vehi": 5806,
    "dougl": 5807,
    "douglas</w>": 5808,
    "supreme</w>": 5809,
    "store</w>": 5810,
    "garrison</w>": 5811,
    "simply</w>": 5812,
    "interpreted</w>": 5813,
    "citizens</w>": 5814,
    "assumed</w>": 5815,
    "ordn": 5816,
    "ordnance</w>": 5817,
    "69</w>": 5818,
    "somewhat</w>": 5819,
    "8th</w>": 5820,
    "sort</w>": 5821,
    "rowed</w>": 5822,
    "tenant</w>": 5823,
    "iv</w>": 5824,
    "enlisted</w>": 5825,
    "box": 5826,
    "painted</w>": 5827,
    "brief": 5828,
    "briefly</w>": 5829,
    "rear</w>": 5830,
    "interior</w>": 5831,
    "roads</w>": 5832,
    "oration</w>": 5833,
    "gone</w>": 5834,
    "cock</w>": 5835,
    "croy": 5836,
    "croydon</w>": 5837,
    "66</w>": 5838,
    "dol": 5839,
    "remarked</w>": 5840,
    "ousness</w>": 5841,
    "1948</w>": 5842,
    "opportunity</w>": 5843,
    "organisation</w>": 5844,
    "refers</w>": 5845,
    "closely</w>": 5846,
    "shel": 5847,
    "males</w>": 5848,
    "threat</w>": 5849,
    "operates</w>": 5850,
    "1959</w>": 5851,
    "eive</w>": 5852,
    "eighth</w>": 5853,
    "nego": 5854,
    "negoti": 5855,
    "goaltender</w>": 5856,
    "injured</w>": 5857,
    "warm</w>": 5858,
    "suffering</w>": 5859,
    "ive</w>": 5860,
    "dead": 5861,
    "pas": 5862,
    "adding</w>": 5863,
    "defeated</w>": 5864,
    "expansion</w>": 5865,
    "astr": 5866,
    "depth</w>": 5867,
    "architect</w>": 5868,
    "julian</w>": 5869,
    "christop": 5870,
    "jesu": 5871,
    "subsequent</w>": 5872,
    "autom": 5873,
    "paris</w>": 5874,
    "orial</w>": 5875,
    "camera</w>": 5876,
    "decorated</w>": 5877,
    "stic": 5878,
    "fixed</w>": 5879,
    "running</w>": 5880,
    "differences</w>": 5881,
    "bility</w>": 5882,
    "water": 5883,
    "kg</w>": 5884,
    "equivalent</w>": 5885,
    "waters</w>": 5886,
    "non": 5887,
    "atives</w>": 5888,
    "advance</w>": 5889,
    "human": 5890,
    "gets</w>": 5891,
    "contained</w>": 5892,
    "chan</w>": 5893,
    "satur": 5894,
    "saturday</w>": 5895,
    "horse</w>": 5896,
    "twel": 5897,
    "appearing</w>": 5898,
    "phil</w>": 5899,
    "looked</w>": 5900,
    "eland</w>": 5901,
    "stood</w>": 5902,
    "recover": 5903,
    "ake</w>": 5904,
    "án</w>": 5905,
    "vel": 5906,
    "1910</w>": 5907,
    "succe": 5908,
    "element</w>": 5909,
    "ara": 5910,
    "writings</w>": 5911,
    "capable</w>": 5912,
    "frank": 5913,
    "environment</w>": 5914,
    "life": 5915,
    "suggest</w>": 5916,
    "marsh</w>": 5917,
    "die</w>": 5918,
    "produces</w>": 5919,
    "circum": 5920,
    "frequently</w>": 5921,
    "mani": 5922,
    "soul</w>": 5923,
    "existing</w>": 5924,
    "icated</w>": 5925,
    "deep": 5926,
    "argum": 5927,
    "bones</w>": 5928,
    "heads</w>": 5929,
    "unusual</w>": 5930,
    "occasionally</w>": 5931,
    "mes": 5932,
    "hundred</w>": 5933,
    "desire</w>": 5934,
    "fts</w>": 5935,
    "crown</w>": 5936,
    "lies</w>": 5937,
    "nish</w>": 5938,
    "sched": 5939,
    "trained</w>": 5940,
    "touring</w>": 5941,
    "normally</w>": 5942,
    "circuit</w>": 5943,
    "hamp": 5944,
    "reviewed</w>": 5945,
    "lists</w>": 5946,
    "severely</w>": 5947,
    "decline</w>": 5948,
    "growing</w>": 5949,
    "charges</w>": 5950,
    "approved</w>": 5951,
    "forest</w>": 5952,
    "1849</w>": 5953,
    "denomin": 5954,
    "patterson</w>": 5955,
    "circle</w>": 5956,
    "pot": 5957,
    "charlot": 5958,
    "charlotte</w>": 5959,
    "indicate</w>": 5960,
    "resem": 5961,
    "folk</w>": 5962,
    "tages</w>": 5963,
    "voted</w>": 5964,
    "format</w>": 5965,
    "sulfide</w>": 5966,
    "dad</w>": 5967,
    "rival</w>": 5968,
    "storylines</w>": 5969,
    "cabral</w>": 5970,
    "cold</w>": 5971,
    "literary</w>": 5972,
    "fighters</w>": 5973,
    "kil": 5974,
    "burial</w>": 5975,
    "accommod": 5976,
    "ark</w>": 5977,
    "mitchells</w>": 5978,
    "1947</w>": 5979,
    "screen": 5980,
    "emmy</w>": 5981,
    "globe</w>": 5982,
    "grammy</w>": 5983,
    "aired</w>": 5984,
    "nominations</w>": 5985,
    "martin</w>": 5986,
    "giant</w>": 5987,
    "lowe</w>": 5988,
    "theater</w>": 5989,
    "decre": 5990,
    "inde": 5991,
    "oods</w>": 5992,
    "emperor</w>": 5993,
    "chambers</w>": 5994,
    "ises</w>": 5995,
    "jews</w>": 5996,
    "marke": 5997,
    "proper</w>": 5998,
    "sevente": 5999,
    "seventeenth</w>": 6000,
    "kev": 6001,
    "kevin</w>": 6002,
    "orland": 6003,
    "orlando</w>": 6004,
    "salary</w>": 6005,
    "03</w>": 6006,
    "ois</w>": 6007,
    "battlec": 6008,
    "battlecru": 6009,
    "bee</w>": 6010,
    "stuart</w>": 6011,
    "1935</w>": 6012,
    "rhode</w>": 6013,
    "wic": 6014,
    "kursti": 6015,
    "kurstin</w>": 6016,
    "underne": 6017,
    "underneath</w>": 6018,
    "southeast</w>": 6019,
    "audiences</w>": 6020,
    "urg": 6021,
    "videos</w>": 6022,
    "armies</w>": 6023,
    "uble</w>": 6024,
    "tess": 6025,
    "tessa</w>": 6026,
    "typo": 6027,
    "typogra": 6028,
    "astra": 6029,
    "astraeus</w>": 6030,
    "tissue</w>": 6031,
    "gie</w>": 6032,
    "parish</w>": 6033,
    "labour</w>": 6034,
    "moody</w>": 6035,
    "chicks</w>": 6036,
    "elegans</w>": 6037,
    "cytog": 6038,
    "cytogen": 6039,
    "princeton</w>": 6040,
    "pp</w>": 6041,
    "emma</w>": 6042,
    "hemmema</w>": 6043,
    "alam": 6044,
    "alamos</w>": 6045,
    "toso</w>": 6046,
    "types": 6047,
    "susque": 6048,
    "susquehanna</w>": 6049,
    "hairstyle</w>": 6050,
    "spee": 6051,
    "option</w>": 6052,
    "custom": 6053,
    "unless</w>": 6054,
    "other": 6055,
    "otherwise</w>": 6056,
    "masters</w>": 6057,
    "activ": 6058,
    "changing</w>": 6059,
    "ified</w>": 6060,
    "reven": 6061,
    "desc": 6062,
    "independence</w>": 6063,
    "commanding</w>": 6064,
    "partly</w>": 6065,
    "predecessor</w>": 6066,
    "orchestra</w>": 6067,
    "responsibility</w>": 6068,
    "reveal</w>": 6069,
    "visual</w>": 6070,
    "copy</w>": 6071,
    "dman</w>": 6072,
    "dvd</w>": 6073,
    "umes</w>": 6074,
    "ok": 6075,
    "downtown</w>": 6076,
    "eived</w>": 6077,
    "connection</w>": 6078,
    "mess": 6079,
    "passage</w>": 6080,
    "fab": 6081,
    "ussion</w>": 6082,
    "900</w>": 6083,
    "rifl": 6084,
    "rifles</w>": 6085,
    "mounted</w>": 6086,
    "aid</w>": 6087,
    "sufficient</w>": 6088,
    "confederate</w>": 6089,
    "lieu": 6090,
    "iron": 6091,
    "persons</w>": 6092,
    "employment</w>": 6093,
    "130</w>": 6094,
    "evacu": 6095,
    "favor</w>": 6096,
    "traded</w>": 6097,
    "roots</w>": 6098,
    "facts</w>": 6099,
    "visitors</w>": 6100,
    "1923</w>": 6101,
    "window</w>": 6102,
    "part": 6103,
    "promise</w>": 6104,
    "releases</w>": 6105,
    "alties</w>": 6106,
    "canon</w>": 6107,
    "recommended</w>": 6108,
    "pursue</w>": 6109,
    "worthing</w>": 6110,
    "childh": 6111,
    "childhood</w>": 6112,
    "clothing</w>": 6113,
    "admitted</w>": 6114,
    "1916</w>": 6115,
    "1930s</w>": 6116,
    "1957</w>": 6117,
    "fying</w>": 6118,
    "maskray</w>": 6119,
    "producing</w>": 6120,
    "tip</w>": 6121,
    "survive</w>": 6122,
    "encoun": 6123,
    "nash</w>": 6124,
    "agent</w>": 6125,
    "winner</w>": 6126,
    "ts": 6127,
    "deman": 6128,
    "ota</w>": 6129,
    "di</w>": 6130,
    "correct</w>": 6131,
    "stopped</w>": 6132,
    "phase</w>": 6133,
    "regulation</w>": 6134,
    "weigh": 6135,
    "joining</w>": 6136,
    "manus": 6137,
    "manuscri": 6138,
    "roof</w>": 6139,
    "existence</w>": 6140,
    "bob</w>": 6141,
    "tol": 6142,
    "accept</w>": 6143,
    "steps</w>": 6144,
    "nebr": 6145,
    "nebraska</w>": 6146,
    "rural</w>": 6147,
    "savan": 6148,
    "savanna": 6149,
    "savannah</w>": 6150,
    "engines</w>": 6151,
    "knots</w>": 6152,
    "cargo</w>": 6153,
    "deck</w>": 6154,
    "180</w>": 6155,
    "circulation</w>": 6156,
    "manner</w>": 6157,
    "aling</w>": 6158,
    "infl": 6159,
    "require</w>": 6160,
    "awn</w>": 6161,
    "sydney</w>": 6162,
    "hat": 6163,
    "sri</w>": 6164,
    "graduated</w>": 6165,
    "bah": 6166,
    "nic</w>": 6167,
    "musician</w>": 6168,
    "escape</w>": 6169,
    "pursu": 6170,
    "languages</w>": 6171,
    "arabic</w>": 6172,
    "billion</w>": 6173,
    "pleasure</w>": 6174,
    "sati": 6175,
    "repu": 6176,
    "reputation</w>": 6177,
    "crime</w>": 6178,
    "funds</w>": 6179,
    "asian</w>": 6180,
    "cosm": 6181,
    "neck</w>": 6182,
    "universi": 6183,
    "universities</w>": 6184,
    "minim": 6185,
    "needs</w>": 6186,
    "concerns</w>": 6187,
    "diagnosis</w>": 6188,
    "contact</w>": 6189,
    "croatia</w>": 6190,
    "flotilla</w>": 6191,
    "sole</w>": 6192,
    "cruisers</w>": 6193,
    "tonnes</w>": 6194,
    "armament</w>": 6195,
    "surrounded</w>": 6196,
    "raid</w>": 6197,
    "iefs</w>": 6198,
    "phen": 6199,
    "beings</w>": 6200,
    "remin": 6201,
    "sud": 6202,
    "ruption</w>": 6203,
    "bound": 6204,
    "drin": 6205,
    "maintain</w>": 6206,
    "renew": 6207,
    "ficial</w>": 6208,
    "datory</w>": 6209,
    "til": 6210,
    "circumstances</w>": 6211,
    "cloth": 6212,
    "credit</w>": 6213,
    "views</w>": 6214,
    "moment</w>": 6215,
    "materials</w>": 6216,
    "fischer</w>": 6217,
    "anth": 6218,
    "yellow</w>": 6219,
    "isol": 6220,
    "ners</w>": 6221,
    "rebel": 6222,
    "fruit": 6223,
    "matt": 6224,
    "matters</w>": 6225,
    "what": 6226,
    "singing</w>": 6227,
    "cool</w>": 6228,
    "grave</w>": 6229,
    "icks</w>": 6230,
    "nether": 6231,
    "netherlands</w>": 6232,
    "shoot</w>": 6233,
    "licence</w>": 6234,
    "mit</w>": 6235,
    "scheduled</w>": 6236,
    "ministry</w>": 6237,
    "170</w>": 6238,
    "hang</w>": 6239,
    "scar": 6240,
    "context</w>": 6241,
    "appropriate</w>": 6242,
    "erly</w>": 6243,
    "valid</w>": 6244,
    "collections</w>": 6245,
    "aring</w>": 6246,
    "congress</w>": 6247,
    "motion</w>": 6248,
    "preparation</w>": 6249,
    "ara</w>": 6250,
    "closer</w>": 6251,
    "secured</w>": 6252,
    "doors</w>": 6253,
    "pay": 6254,
    "synthesis</w>": 6255,
    "substitu": 6256,
    "provides</w>": 6257,
    "iel": 6258,
    "prison</w>": 6259,
    "hua</w>": 6260,
    "killing</w>": 6261,
    "resig": 6262,
    "absol": 6263,
    "sexuality</w>": 6264,
    "onist</w>": 6265,
    "anger</w>": 6266,
    "grace</w>": 6267,
    "vement</w>": 6268,
    "lets</w>": 6269,
    "1931</w>": 6270,
    "exposure</w>": 6271,
    "medal</w>": 6272,
    "squadrons</w>": 6273,
    "aster</w>": 6274,
    "republic": 6275,
    "week": 6276,
    "weekend</w>": 6277,
    "eh": 6278,
    "exposed</w>": 6279,
    "watching</w>": 6280,
    "movies</w>": 6281,
    "illi": 6282,
    "cool": 6283,
    "temperature</w>": 6284,
    "uri</w>": 6285,
    "hindu": 6286,
    "hindu</w>": 6287,
    "unesco</w>": 6288,
    "jar": 6289,
    "columns</w>": 6290,
    "portic": 6291,
    "portico</w>": 6292,
    "attend": 6293,
    "mys": 6294,
    "address</w>": 6295,
    "jo</w>": 6296,
    "begun</w>": 6297,
    "stream</w>": 6298,
    "contributed</w>": 6299,
    "reconstruction</w>": 6300,
    "1977</w>": 6301,
    "sailors</w>": 6302,
    "protests</w>": 6303,
    "protest": 6304,
    "incident</w>": 6305,
    "bbc</w>": 6306,
    "amend": 6307,
    "candid": 6308,
    "oral</w>": 6309,
    "younger</w>": 6310,
    "ppg</w>": 6311,
    "idi": 6312,
    "florida</w>": 6313,
    "clearly</w>": 6314,
    "tade": 6315,
    "tadeusz</w>": 6316,
    "patri": 6317,
    "missile</w>": 6318,
    "hits</w>": 6319,
    "convo": 6320,
    "slop": 6321,
    "antiquar": 6322,
    "crane</w>": 6323,
    "grass": 6324,
    "belgium</w>": 6325,
    "inum</w>": 6326,
    "vis</w>": 6327,
    "pah</w>": 6328,
    "viewed</w>": 6329,
    "1976</w>": 6330,
    "telec": 6331,
    "asia</w>": 6332,
    "liqu": 6333,
    "ias</w>": 6334,
    "she": 6335,
    "bury</w>": 6336,
    "acid</w>": 6337,
    "rapid</w>": 6338,
    "leban": 6339,
    "magnol": 6340,
    "magnolia</w>": 6341,
    "phr": 6342,
    "78</w>": 6343,
    "eighteen</w>": 6344,
    "windows</w>": 6345,
    "opined</w>": 6346,
    "kree": 6347,
    "kreeft</w>": 6348,
    "leys</w>": 6349,
    "lu</w>": 6350,
    "prefect</w>": 6351,
    "type": 6352,
    "nf6</w>": 6353,
    "kau": 6354,
    "canal</w>": 6355,
    "essors</w>": 6356,
    "galli": 6357,
    "partially</w>": 6358,
    "spective</w>": 6359,
    "swit": 6360,
    "gained</w>": 6361,
    "ishes</w>": 6362,
    "ideal</w>": 6363,
    "interests</w>": 6364,
    "allies</w>": 6365,
    "prove</w>": 6366,
    "certain": 6367,
    "decides</w>": 6368,
    "rant</w>": 6369,
    "appeal</w>": 6370,
    "compon": 6371,
    "duty</w>": 6372,
    "journalists</w>": 6373,
    "promote</w>": 6374,
    "acity</w>": 6375,
    "pressing</w>": 6376,
    "ki</w>": 6377,
    "housed</w>": 6378,
    "receives</w>": 6379,
    "tag": 6380,
    "horiz": 6381,
    "responded</w>": 6382,
    "telling</w>": 6383,
    "assembled</w>": 6384,
    "demand</w>": 6385,
    "superi": 6386,
    "classified</w>": 6387,
    "ske": 6388,
    "9th</w>": 6389,
    "companies</w>": 6390,
    "van</w>": 6391,
    "12th</w>": 6392,
    "1862</w>": 6393,
    "labor</w>": 6394,
    "inspec": 6395,
    "lieutenant</w>": 6396,
    "predomin": 6397,
    "airs</w>": 6398,
    "quick</w>": 6399,
    "fine</w>": 6400,
    "1895</w>": 6401,
    "glass</w>": 6402,
    "wasn</w>": 6403,
    "bought</w>": 6404,
    "accompanying</w>": 6405,
    "garden</w>": 6406,
    "pengu": 6407,
    "wood": 6408,
    "covers</w>": 6409,
    "gos": 6410,
    "installed</w>": 6411,
    "1950</w>": 6412,
    "recognised</w>": 6413,
    "organised</w>": 6414,
    "pool</w>": 6415,
    "continent</w>": 6416,
    "caught</w>": 6417,
    "onomy</w>": 6418,
    "measuring</w>": 6419,
    "pin": 6420,
    "continental</w>": 6421,
    "queens": 6422,
    "scott</w>": 6423,
    "carter</w>": 6424,
    "controversi": 6425,
    "clock</w>": 6426,
    "wa</w>": 6427,
    "jason</w>": 6428,
    "detro": 6429,
    "detroit</w>": 6430,
    "assists</w>": 6431,
    "struggle</w>": 6432,
    "hit": 6433,
    "understanding</w>": 6434,
    "host</w>": 6435,
    "dean</w>": 6436,
    "camp": 6437,
    "campbell</w>": 6438,
    "eliminated</w>": 6439,
    "ectively</w>": 6440,
    "listing</w>": 6441,
    "pts</w>": 6442,
    "convers": 6443,
    "observations</w>": 6444,
    "merc": 6445,
    "erected</w>": 6446,
    "urban</w>": 6447,
    "tioning</w>": 6448,
    "inspiration</w>": 6449,
    "ric</w>": 6450,
    "ldn</w>": 6451,
    "wy": 6452,
    "92</w>": 6453,
    "railway</w>": 6454,
    "numbered</w>": 6455,
    "82</w>": 6456,
    "fing": 6457,
    "monitors</w>": 6458,
    "mall": 6459,
    "oriented</w>": 6460,
    "mounts</w>": 6461,
    "shells</w>": 6462,
    "solid</w>": 6463,
    "bars</w>": 6464,
    "demonstrated</w>": 6465,
    "dah": 6466,
    "wounded</w>": 6467,
    "crews</w>": 6468,
    "apparently</w>": 6469,
    "universe</w>": 6470,
    "fa</w>": 6471,
    "fourteen</w>": 6472,
    "barry</w>": 6473,
    "anup": 6474,
    "opposite</w>": 6475,
    "oon</w>": 6476,
    "negative</w>": 6477,
    "animals</w>": 6478,
    "eleph": 6479,
    "elephant</w>": 6480,
    "accord": 6481,
    "accordingly</w>": 6482,
    "prece": 6483,
    "98</w>": 6484,
    "interested</w>": 6485,
    "dread": 6486,
    "dreadn": 6487,
    "fitted</w>": 6488,
    "assault</w>": 6489,
    "scra": 6490,
    "beliefs</w>": 6491,
    "phenom": 6492,
    "phenomen": 6493,
    "thousan": 6494,
    "thousands</w>": 6495,
    "origin</w>": 6496,
    "perf": 6497,
    "artwork</w>": 6498,
    "counter": 6499,
    "consistent</w>": 6500,
    "tah</w>": 6501,
    "poorly</w>": 6502,
    "existed</w>": 6503,
    "statues</w>": 6504,
    "establish</w>": 6505,
    "describe</w>": 6506,
    "consul": 6507,
    "asserted</w>": 6508,
    "reader</w>": 6509,
    "ordinary</w>": 6510,
    "lying</w>": 6511,
    "oring</w>": 6512,
    "useful</w>": 6513,
    "interaction</w>": 6514,
    "filled</w>": 6515,
    "essions</w>": 6516,
    "ignor": 6517,
    "punishment</w>": 6518,
    "hoped</w>": 6519,
    "encouraged</w>": 6520,
    "tempo</w>": 6521,
    "suic": 6522,
    "suicide</w>": 6523,
    "discussed</w>": 6524,
    "promotional</w>": 6525,
    "tribu": 6526,
    "hard": 6527,
    "easa</w>": 6528,
    "worth": 6529,
    "gliding</w>": 6530,
    "recreational</w>": 6531,
    "althy</w>": 6532,
    "big": 6533,
    "wider</w>": 6534,
    "classification</w>": 6535,
    "notably</w>": 6536,
    "hundre": 6537,
    "criticised</w>": 6538,
    "alle": 6539,
    "ratic</w>": 6540,
    "cruise</w>": 6541,
    "gar</w>": 6542,
    "thea": 6543,
    "theastern</w>": 6544,
    "collapsed</w>": 6545,
    "simultaneously</w>": 6546,
    "donald</w>": 6547,
    "scopic</w>": 6548,
    "µm</w>": 6549,
    "stands</w>": 6550,
    "hyp": 6551,
    "agues</w>": 6552,
    "strike</w>": 6553,
    "institution</w>": 6554,
    "amounts</w>": 6555,
    "sach": 6556,
    "agricultural</w>": 6557,
    "items</w>": 6558,
    "file</w>": 6559,
    "onium</w>": 6560,
    "violation</w>": 6561,
    "dictator</w>": 6562,
    "theatrical</w>": 6563,
    "dancing</w>": 6564,
    "salv": 6565,
    "liked</w>": 6566,
    "prohibited</w>": 6567,
    "lam": 6568,
    "maur": 6569,
    "escort</w>": 6570,
    "regularly</w>": 6571,
    "shipping</w>": 6572,
    "marshal</w>": 6573,
    "cole</w>": 6574,
    "stock</w>": 6575,
    "palin</w>": 6576,
    "amy</w>": 6577,
    "jam": 6578,
    "premiere</w>": 6579,
    "category</w>": 6580,
    "brigade</w>": 6581,
    "opinions</w>": 6582,
    "conventional</w>": 6583,
    "considerable</w>": 6584,
    "axis</w>": 6585,
    "ava</w>": 6586,
    "shoul": 6587,
    "skull</w>": 6588,
    "nich": 6589,
    "path</w>": 6590,
    "bou": 6591,
    "avo": 6592,
    "physic": 6593,
    "credits</w>": 6594,
    "footage</w>": 6595,
    "jersey</w>": 6596,
    "arrival</w>": 6597,
    "climate</w>": 6598,
    "metro": 6599,
    "tine</w>": 6600,
    "iding</w>": 6601,
    "banned</w>": 6602,
    "cutting</w>": 6603,
    "prisoners</w>": 6604,
    "statute</w>": 6605,
    "induction</w>": 6606,
    "beaten</w>": 6607,
    "ów</w>": 6608,
    "emphasis</w>": 6609,
    "jerzy</w>": 6610,
    "trip</w>": 6611,
    "bce</w>": 6612,
    "piggo": 6613,
    "piggott</w>": 6614,
    "hartley</w>": 6615,
    "kras": 6616,
    "southwest</w>": 6617,
    "median</w>": 6618,
    "ote</w>": 6619,
    "beats</w>": 6620,
    "platinum</w>": 6621,
    "gery</w>": 6622,
    "somer": 6623,
    "somerset</w>": 6624,
    "detec": 6625,
    "sciences</w>": 6626,
    "frigates</w>": 6627,
    "hay</w>": 6628,
    "flet": 6629,
    "fletcher</w>": 6630,
    "lec": 6631,
    "mortim": 6632,
    "mortimer</w>": 6633,
    "graduate</w>": 6634,
    "jerus": 6635,
    "jerusal": 6636,
    "jerusalem</w>": 6637,
    "owan</w>": 6638,
    "earthstar</w>": 6639,
    "clair</w>": 6640,
    "phrase</w>": 6641,
    "catholics</w>": 6642,
    "openings</w>": 6643,
    "myeloid</w>": 6644,
    "etics</w>": 6645,
    "shaog": 6646,
    "shaoguan</w>": 6647,
    "chut": 6648,
    "chutz": 6649,
    "chutzpah</w>": 6650,
    "homosexual</w>": 6651,
    "deac": 6652,
    "clement</w>": 6653,
    "gm</w>": 6654,
    "joey</w>": 6655,
    "lefield</w>": 6656,
    "nameless</w>": 6657,
    "speech</w>": 6658,
    "bles</w>": 6659,
    "attribu": 6660,
    "atta": 6661,
    "wrec": 6662,
    "improve</w>": 6663,
    "achieve</w>": 6664,
    "identify</w>": 6665,
    "engine</w>": 6666,
    "capacity</w>": 6667,
    "ryan</w>": 6668,
    "tition</w>": 6669,
    "happened</w>": 6670,
    "eline</w>": 6671,
    "flowers</w>": 6672,
    "fate</w>": 6673,
    "sho": 6674,
    "missi": 6675,
    "ammuni": 6676,
    "ammunition</w>": 6677,
    "gaz": 6678,
    "convention</w>": 6679,
    "deleg": 6680,
    "confirmed</w>": 6681,
    "supposed</w>": 6682,
    "situations</w>": 6683,
    "gency</w>": 6684,
    "substan": 6685,
    "250</w>": 6686,
    "prise</w>": 6687,
    "repair</w>": 6688,
    "equal</w>": 6689,
    "ironcl": 6690,
    "rank</w>": 6691,
    "1890</w>": 6692,
    "olished</w>": 6693,
    "1973</w>": 6694,
    "themed</w>": 6695,
    "evening</w>": 6696,
    "seventeen</w>": 6697,
    "kinder": 6698,
    "kindergar": 6699,
    "kindergarten</w>": 6700,
    "paint": 6701,
    "paintings</w>": 6702,
    "1924</w>": 6703,
    "keeper</w>": 6704,
    "cost": 6705,
    "doubt</w>": 6706,
    "solely</w>": 6707,
    "yor": 6708,
    "extent</w>": 6709,
    "scat": 6710,
    "1983</w>": 6711,
    "friend": 6712,
    "1934</w>": 6713,
    "beauti": 6714,
    "beautiful</w>": 6715,
    "1955</w>": 6716,
    "youth</w>": 6717,
    "sanc": 6718,
    "tam": 6719,
    "altern": 6720,
    "bands</w>": 6721,
    "eyes</w>": 6722,
    "memo": 6723,
    "spaced</w>": 6724,
    "habitat</w>": 6725,
    "timor</w>": 6726,
    "receive</w>": 6727,
    "jeff</w>": 6728,
    "controversial</w>": 6729,
    "65</w>": 6730,
    "mason</w>": 6731,
    "culmin": 6732,
    "penguins</w>": 6733,
    "frame</w>": 6734,
    "tempor": 6735,
    "temporarily</w>": 6736,
    "minnes": 6737,
    "minnesota</w>": 6738,
    "ud</w>": 6739,
    "protest</w>": 6740,
    "gallery</w>": 6741,
    "emb": 6742,
    "vi</w>": 6743,
    "apart</w>": 6744,
    "forti": 6745,
    "sophi": 6746,
    "papal</w>": 6747,
    "talent</w>": 6748,
    "derly</w>": 6749,
    "grounds</w>": 6750,
    "alternative</w>": 6751,
    "blockade</w>": 6752,
    "georg": 6753,
    "700</w>": 6754,
    "hamas</w>": 6755,
    "richmond</w>": 6756,
    "59</w>": 6757,
    "rectang": 6758,
    "rectangular</w>": 6759,
    "narrow</w>": 6760,
    "banded</w>": 6761,
    "erable</w>": 6762,
    "lation</w>": 6763,
    "waiting</w>": 6764,
    "treat</w>": 6765,
    "resistance</w>": 6766,
    "tren": 6767,
    "bollywood</w>": 6768,
    "ethnic</w>": 6769,
    "medium</w>": 6770,
    "violent</w>": 6771,
    "bly</w>": 6772,
    "boring</w>": 6773,
    "definition</w>": 6774,
    "bach": 6775,
    "bachchan</w>": 6776,
    "wedding</w>": 6777,
    "celebrity</w>": 6778,
    "convin": 6779,
    "convinced</w>": 6780,
    "lem": 6781,
    "99</w>": 6782,
    "realized</w>": 6783,
    "recognition</w>": 6784,
    "battleship</w>": 6785,
    "karl</w>": 6786,
    "ancon": 6787,
    "ancona</w>": 6788,
    "prop": 6789,
    "twin</w>": 6790,
    "twelve</w>": 6791,
    "tubes</w>": 6792,
    "goddesses</w>": 6793,
    "shrines</w>": 6794,
    "fundam": 6795,
    "references</w>": 6796,
    "like": 6797,
    "regions</w>": 6798,
    "eration</w>": 6799,
    "universal</w>": 6800,
    "constantly</w>": 6801,
    "ci": 6802,
    "archy</w>": 6803,
    "behavior</w>": 6804,
    "imag": 6805,
    "period": 6806,
    "osiris</w>": 6807,
    "tho": 6808,
    "linked</w>": 6809,
    "refer</w>": 6810,
    "herent</w>": 6811,
    "uln": 6812,
    "insi": 6813,
    "apparent</w>": 6814,
    "wallis</w>": 6815,
    "flesh</w>": 6816,
    "ptions</w>": 6817,
    "symb": 6818,
    "identity</w>": 6819,
    "headed</w>": 6820,
    "mediate</w>": 6821,
    "ruled</w>": 6822,
    "innoc": 6823,
    "yers</w>": 6824,
    "mandatory</w>": 6825,
    "whatever</w>": 6826,
    "feels</w>": 6827,
    "finnish</w>": 6828,
    "thinking</w>": 6829,
    "seriously</w>": 6830,
    "aerial</w>": 6831,
    "annually</w>": 6832,
    "helic": 6833,
    "helicop": 6834,
    "farm</w>": 6835,
    "significance</w>": 6836,
    "regarding</w>": 6837,
    "bin": 6838,
    "hunter</w>": 6839,
    "categories</w>": 6840,
    "segment</w>": 6841,
    "specifically</w>": 6842,
    "formally</w>": 6843,
    "expensive</w>": 6844,
    "accid": 6845,
    "claiming</w>": 6846,
    "mixing</w>": 6847,
    "alleged</w>": 6848,
    "civilians</w>": 6849,
    "strategy</w>": 6850,
    "fruitbodies</w>": 6851,
    "burned</w>": 6852,
    "synon": 6853,
    "gal</w>": 6854,
    "coined</w>": 6855,
    "eliminate</w>": 6856,
    "surviving</w>": 6857,
    "borne</w>": 6858,
    "fill</w>": 6859,
    "ensure</w>": 6860,
    "detailed</w>": 6861,
    "facility</w>": 6862,
    "susp": 6863,
    "corey</w>": 6864,
    "chay": 6865,
    "chaykov": 6866,
    "chaykovsky</w>": 6867,
    "failing</w>": 6868,
    "executed</w>": 6869,
    "hero</w>": 6870,
    "resignation</w>": 6871,
    "cabin": 6872,
    "cabinet</w>": 6873,
    "carib": 6874,
    "caribbe": 6875,
    "caribbean</w>": 6876,
    "frequent</w>": 6877,
    "involvement</w>": 6878,
    "finding</w>": 6879,
    "speak</w>": 6880,
    "emotional</w>": 6881,
    "unsuccessful</w>": 6882,
    "historians</w>": 6883,
    "jon": 6884,
    "ridge</w>": 6885,
    "kilome": 6886,
    "wave</w>": 6887,
    "showed</w>": 6888,
    "campaig": 6889,
    "republican</w>": 6890,
    "impression</w>": 6891,
    "trust</w>": 6892,
    "biogra": 6893,
    "editor</w>": 6894,
    "longest</w>": 6895,
    "premiered</w>": 6896,
    "pregnant</w>": 6897,
    "quoted</w>": 6898,
    "massive</w>": 6899,
    "indeed</w>": 6900,
    "goods</w>": 6901,
    "mound</w>": 6902,
    "carving</w>": 6903,
    "dressed</w>": 6904,
    "gambling</w>": 6905,
    "spear</w>": 6906,
    "moon</w>": 6907,
    "idation</w>": 6908,
    "path": 6909,
    "programs</w>": 6910,
    "compil": 6911,
    "fresh</w>": 6912,
    "mates</w>": 6913,
    "therea": 6914,
    "thereaf": 6915,
    "thereafter</w>": 6916,
    "casu": 6917,
    "peaking</w>": 6918,
    "finland</w>": 6919,
    "remixed</w>": 6920,
    "slav": 6921,
    "bb": 6922,
    "cated</w>": 6923,
    "mayor</w>": 6924,
    "tab": 6925,
    "survivors</w>": 6926,
    "reed</w>": 6927,
    "wearing</w>": 6928,
    "emily</w>": 6929,
    "candidates</w>": 6930,
    "jeff": 6931,
    "junior</w>": 6932,
    "averaged</w>": 6933,
    "controversy</w>": 6934,
    "02</w>": 6935,
    "thomp": 6936,
    "thompson</w>": 6937,
    "ern": 6938,
    "sovie": 6939,
    "soviets</w>": 6940,
    "hans</w>": 6941,
    "ukra": 6942,
    "educational</w>": 6943,
    "convoy</w>": 6944,
    "kent</w>": 6945,
    "coty</w>": 6946,
    "demogra": 6947,
    "method": 6948,
    "partial</w>": 6949,
    "eleven</w>": 6950,
    "spar": 6951,
    "essive</w>": 6952,
    "listen": 6953,
    "marking</w>": 6954,
    "son": 6955,
    "extrem": 6956,
    "extremely</w>": 6957,
    "bang": 6958,
    "township</w>": 6959,
    "vas": 6960,
    "surgery</w>": 6961,
    "iss</w>": 6962,
    "arab</w>": 6963,
    "sailing</w>": 6964,
    "sunday</w>": 6965,
    "bened": 6966,
    "wrong</w>": 6967,
    "condem": 6968,
    "1877</w>": 6969,
    "zeal": 6970,
    "zealand</w>": 6971,
    "brook</w>": 6972,
    "dioc": 6973,
    "gama</w>": 6974,
    "spoiled</w>": 6975,
    "pam</w>": 6976,
    "chapat</w>": 6977,
    "crex</w>": 6978,
    "uyghur</w>": 6979,
    "faculty</w>": 6980,
    "boxing</w>": 6981,
    "depaul</w>": 6982,
    "virt": 6983,
    "virtue</w>": 6984,
    "dign": 6985,
    "dignity</w>": 6986,
    "mutinus</w>": 6987,
    "ctu": 6988,
    "galleys</w>": 6989,
    "hemmemas</w>": 6990,
    "wheelchair</w>": 6991,
    "funk</w>": 6992,
    "shaol": 6993,
    "shaolin</w>": 6994,
    "1759</w>": 6995,
    "deacon</w>": 6996,
    "typewriter</w>": 6997,
    "defences</w>": 6998,
    "kauff": 6999,
    "kauffman</w>": 7000,
    "hospitaller</w>": 7001,
    "hospitall": 7002,
    "hospitallers</w>": 7003,
    "homs</w>": 7004,
    "chasuble</w>": 7005,
    "game": 7006,
    "gameplay</w>": 7007,
    "translation</w>": 7008,
    "difficulty</w>": 7009,
    "altered</w>": 7010,
    "learn</w>": 7011,
    "skill</w>": 7012,
    "link</w>": 7013,
    "task</w>": 7014,
    "lose</w>": 7015,
    "shad": 7016,
    "detail</w>": 7017,
    "price</w>": 7018,
    "eased</w>": 7019,
    "putting</w>": 7020,
    "feeling</w>": 7021,
    "closure</w>": 7022,
    "abilities</w>": 7023,
    "remov": 7024,
    "removal</w>": 7025,
    "isms</w>": 7026,
    "legacy</w>": 7027,
    "focused</w>": 7028,
    "vehicles</w>": 7029,
    "illustrated</w>": 7030,
    "install": 7031,
    "informed</w>": 7032,
    "rumor": 7033,
    "rumors</w>": 7034,
    "teleg": 7035,
    "telegra": 7036,
    "span</w>": 7037,
    "believing</w>": 7038,
    "civilian</w>": 7039,
    "surrender</w>": 7040,
    "emergency</w>": 7041,
    "conqu": 7042,
    "cris": 7043,
    "crisis</w>": 7044,
    "repairs</w>": 7045,
    "percussion</w>": 7046,
    "thered</w>": 7047,
    "dunn": 7048,
    "vol</w>": 7049,
    "sanford</w>": 7050,
    "pounder</w>": 7051,
    "1874</w>": 7052,
    "closing</w>": 7053,
    "bian</w>": 7054,
    "conclusion</w>": 7055,
    "fifty</w>": 7056,
    "1912</w>": 7057,
    "exists</w>": 7058,
    "nie</w>": 7059,
    "bab": 7060,
    "merged</w>": 7061,
    "relocated</w>": 7062,
    "commem": 7063,
    "courses</w>": 7064,
    "principal</w>": 7065,
    "freedom</w>": 7066,
    "household</w>": 7067,
    "atmos": 7068,
    "atmosph": 7069,
    "whit": 7070,
    "collaborated</w>": 7071,
    "printing</w>": 7072,
    "jones</w>": 7073,
    "sored</w>": 7074,
    "kes": 7075,
    "1928</w>": 7076,
    "mr</w>": 7077,
    "1921</w>": 7078,
    "printed</w>": 7079,
    "cher": 7080,
    "cherry</w>": 7081,
    "faces</w>": 7082,
    "gon</w>": 7083,
    "lesser</w>": 7084,
    "acles</w>": 7085,
    "measure</w>": 7086,
    "requested</w>": 7087,
    "signing</w>": 7088,
    "senators</w>": 7089,
    "moore</w>": 7090,
    "hire</w>": 7091,
    "breaking</w>": 7092,
    "picked</w>": 7093,
    "sitting</w>": 7094,
    "arena</w>": 7095,
    "insurance</w>": 7096,
    "iring</w>": 7097,
    "amaz": 7098,
    "notic": 7099,
    "bringing</w>": 7100,
    "proceeded</w>": 7101,
    "shots</w>": 7102,
    "teamm": 7103,
    "restricted</w>": 7104,
    "connects</w>": 7105,
    "apo": 7106,
    "vatic": 7107,
    "vatican</w>": 7108,
    "reform</w>": 7109,
    "stages</w>": 7110,
    "equi": 7111,
    "circular</w>": 7112,
    "97</w>": 7113,
    "87</w>": 7114,
    "rooms</w>": 7115,
    "sweden</w>": 7116,
    "forth</w>": 7117,
    "columbia</w>": 7118,
    "nered</w>": 7119,
    "rhythm</w>": 7120,
    "highligh": 7121,
    "aim</w>": 7122,
    "cli": 7123,
    "gang</w>": 7124,
    "hang": 7125,
    "newspap": 7126,
    "newspapers</w>": 7127,
    "intersec": 7128,
    "visible</w>": 7129,
    "ign": 7130,
    "casem": 7131,
    "fingal</w>": 7132,
    "aground</w>": 7133,
    "deployed</w>": 7134,
    "beam</w>": 7135,
    "embarked</w>": 7136,
    "join</w>": 7137,
    "displaced</w>": 7138,
    "oak</w>": 7139,
    "pine</w>": 7140,
    "pounds</w>": 7141,
    "weight</w>": 7142,
    "heat</w>": 7143,
    "prevented</w>": 7144,
    "rising</w>": 7145,
    "pene": 7146,
    "fragments</w>": 7147,
    "disabled</w>": 7148,
    "bad": 7149,
    "easily</w>": 7150,
    "sign": 7151,
    "defend</w>": 7152,
    "delivered</w>": 7153,
    "cape</w>": 7154,
    "repor": 7155,
    "psy": 7156,
    "thrill": 7157,
    "nomination</w>": 7158,
    "sses</w>": 7159,
    "ama</w>": 7160,
    "fail": 7161,
    "fiction</w>": 7162,
    "ranging</w>": 7163,
    "turning</w>": 7164,
    "confused</w>": 7165,
    "₹</w>": 7166,
    "looks</w>": 7167,
    "tiger</w>": 7168,
    "amit": 7169,
    "fast</w>": 7170,
    "advoc": 7171,
    "wore</w>": 7172,
    "leadership</w>": 7173,
    "sympt": 7174,
    "symptoms</w>": 7175,
    "spot</w>": 7176,
    "clev": 7177,
    "cleveland</w>": 7178,
    "raise</w>": 7179,
    "bombard": 7180,
    "bombardment</w>": 7181,
    "succeeded</w>": 7182,
    "phara": 7183,
    "myths</w>": 7184,
    "fundamental</w>": 7185,
    "eled</w>": 7186,
    "ologies</w>": 7187,
    "seated</w>": 7188,
    "dyn": 7189,
    "dynastic</w>": 7190,
    "prehistoric</w>": 7191,
    "resemble</w>": 7192,
    "rulers</w>": 7193,
    "aths</w>": 7194,
    "erated</w>": 7195,
    "hostile</w>": 7196,
    "advis": 7197,
    "recur": 7198,
    "journey</w>": 7199,
    "cure</w>": 7200,
    "product</w>": 7201,
    "clothes</w>": 7202,
    "dg": 7203,
    "fund</w>": 7204,
    "scent</w>": 7205,
    "dog</w>": 7206,
    "horn</w>": 7207,
    "intermediate</w>": 7208,
    "presentation</w>": 7209,
    "isolated</w>": 7210,
    "pure</w>": 7211,
    "decisions</w>": 7212,
    "mention</w>": 7213,
    "answ": 7214,
    "sic": 7215,
    "christians</w>": 7216,
    "jam</w>": 7217,
    "zil": 7218,
    "sounding</w>": 7219,
    "tro</w>": 7220,
    "commenting</w>": 7221,
    "drums</w>": 7222,
    "registered</w>": 7223,
    "obj": 7224,
    "mail</w>": 7225,
    "mature</w>": 7226,
    "parties</w>": 7227,
    "employe": 7228,
    "exhibits</w>": 7229,
    "actual</w>": 7230,
    "eria</w>": 7231,
    "require": 7232,
    "legislation</w>": 7233,
    "bure": 7234,
    "operational</w>": 7235,
    "hundreds</w>": 7236,
    "concentration</w>": 7237,
    "famili": 7238,
    "abroad</w>": 7239,
    "firing</w>": 7240,
    "accompanied</w>": 7241,
    "destroyers</w>": 7242,
    "one": 7243,
    "moderate</w>": 7244,
    "erce</w>": 7245,
    "denomination</w>": 7246,
    "christopher</w>": 7247,
    "kay</w>": 7248,
    "calls</w>": 7249,
    "proposal</w>": 7250,
    "massach": 7251,
    "massachus": 7252,
    "massachuset": 7253,
    "massachusetts</w>": 7254,
    "dson</w>": 7255,
    "assist</w>": 7256,
    "warned</w>": 7257,
    "locally</w>": 7258,
    "trivi": 7259,
    "trouble</w>": 7260,
    "seeking</w>": 7261,
    "arsenic</w>": 7262,
    "efficient</w>": 7263,
    "application</w>": 7264,
    "products</w>": 7265,
    "variations</w>": 7266,
    "resigned</w>": 7267,
    "iliation</w>": 7268,
    "corruption</w>": 7269,
    "comments</w>": 7270,
    "explaining</w>": 7271,
    "sleep</w>": 7272,
    "politic": 7273,
    "personality</w>": 7274,
    "regard</w>": 7275,
    "holl": 7276,
    "chelor</w>": 7277,
    "bush</w>": 7278,
    "searching</w>": 7279,
    "companion</w>": 7280,
    "replacing</w>": 7281,
    "mitchell</w>": 7282,
    "wast": 7283,
    "1949</w>": 7284,
    "sarah</w>": 7285,
    "update</w>": 7286,
    "virgin": 7287,
    "virginia</w>": 7288,
    "talk</w>": 7289,
    "approached</w>": 7290,
    "jenni": 7291,
    "jennifer</w>": 7292,
    "jean</w>": 7293,
    "brilli": 7294,
    "deprec": 7295,
    "insul": 7296,
    "heroes</w>": 7297,
    "refu": 7298,
    "covering</w>": 7299,
    "skel": 7300,
    "rivers</w>": 7301,
    "alism</w>": 7302,
    "ling": 7303,
    "measures</w>": 7304,
    "atus</w>": 7305,
    "teen": 7306,
    "accomplished</w>": 7307,
    "proli": 7308,
    "drinking</w>": 7309,
    "casualties</w>": 7310,
    "mast": 7311,
    "rower</w>": 7312,
    "confis": 7313,
    "vac": 7314,
    "1980</w>": 7315,
    "industries</w>": 7316,
    "conduct</w>": 7317,
    "pher</w>": 7318,
    "opposing</w>": 7319,
    "journalist</w>": 7320,
    "propor": 7321,
    "trin": 7322,
    "nets</w>": 7323,
    "averaging</w>": 7324,
    "block</w>": 7325,
    "establishing</w>": 7326,
    "waves</w>": 7327,
    "dominated</w>": 7328,
    "defender</w>": 7329,
    "bobby</w>": 7330,
    "brand</w>": 7331,
    "survival</w>": 7332,
    "fü": 7333,
    "forb": 7334,
    "pupil": 7335,
    "pupils</w>": 7336,
    "portrayed</w>": 7337,
    "attitude</w>": 7338,
    "fred</w>": 7339,
    "kö": 7340,
    "baltic</w>": 7341,
    "scheer</w>": 7342,
    "outh</w>": 7343,
    "tte</w>": 7344,
    "chestnu": 7345,
    "beds</w>": 7346,
    "anglo</w>": 7347,
    "les": 7348,
    "krasnyi</w>": 7349,
    "1967</w>": 7350,
    "lots</w>": 7351,
    "mtv</w>": 7352,
    "charted</w>": 7353,
    "09</w>": 7354,
    "depu": 7355,
    "deputy</w>": 7356,
    "electronic</w>": 7357,
    "terminal</w>": 7358,
    "strach": 7359,
    "elly</w>": 7360,
    "ores</w>": 7361,
    "promiscu": 7362,
    "alan</w>": 7363,
    "gray</w>": 7364,
    "allo": 7365,
    "boom</w>": 7366,
    "welsh</w>": 7367,
    "settlements</w>": 7368,
    "mainland</w>": 7369,
    "oblig": 7370,
    "margin</w>": 7371,
    "researchers</w>": 7372,
    "gle": 7373,
    "gleba</w>": 7374,
    "timate</w>": 7375,
    "tigers</w>": 7376,
    "chances</w>": 7377,
    "nha</w>": 7378,
    "champ": 7379,
    "champion</w>": 7380,
    "wiscon": 7381,
    "wisconsin</w>": 7382,
    "apse</w>": 7383,
    "vasco</w>": 7384,
    "serial</w>": 7385,
    "hurt</w>": 7386,
    "glee</w>": 7387,
    "rian</w>": 7388,
    "winter": 7389,
    "wintering</w>": 7390,
    "yuan</w>": 7391,
    "census</w>": 7392,
    "ray": 7393,
    "raymond</w>": 7394,
    "slave</w>": 7395,
    "1766</w>": 7396,
    "typeset": 7397,
    "punctu": 7398,
    "punctuation</w>": 7399,
    "adorj": 7400,
    "adorján</w>": 7401,
    "nf3</w>": 7402,
    "pagodas</w>": 7403,
    "parall": 7404,
    "retained</w>": 7405,
    "underwent</w>": 7406,
    "sung</w>": 7407,
    "animated</w>": 7408,
    "depending</w>": 7409,
    "occurs</w>": 7410,
    "completion</w>": 7411,
    "ocked</w>": 7412,
    "weapon</w>": 7413,
    "distributed</w>": 7414,
    "attached</w>": 7415,
    "enemies</w>": 7416,
    "arrest</w>": 7417,
    "asking</w>": 7418,
    "confron": 7419,
    "begin</w>": 7420,
    "trial</w>": 7421,
    "platform</w>": 7422,
    "maintaining</w>": 7423,
    "chos": 7424,
    "chosen</w>": 7425,
    "topped</w>": 7426,
    "multi</w>": 7427,
    "itations</w>": 7428,
    "adaptations</w>": 7429,
    "1894</w>": 7430,
    "exter": 7431,
    "simple</w>": 7432,
    "determine</w>": 7433,
    "wait</w>": 7434,
    "dispat": 7435,
    "telegraph</w>": 7436,
    "deliver": 7437,
    "cal</w>": 7438,
    "caval": 7439,
    "cavalry</w>": 7440,
    "11th</w>": 7441,
    "1863</w>": 7442,
    "tools</w>": 7443,
    "engage</w>": 7444,
    "repaired</w>": 7445,
    "renov": 7446,
    "basement</w>": 7447,
    "northwest</w>": 7448,
    "fair</w>": 7449,
    "displayed</w>": 7450,
    "meet": 7451,
    "meetings</w>": 7452,
    "gather": 7453,
    "doro": 7454,
    "dorothy</w>": 7455,
    "edm": 7456,
    "edmund</w>": 7457,
    "artis": 7458,
    "autum": 7459,
    "autumn</w>": 7460,
    "youngest</w>": 7461,
    "1908</w>": 7462,
    "1940s</w>": 7463,
    "publishers</w>": 7464,
    "pill": 7465,
    "mod": 7466,
    "leaves</w>": 7467,
    "attend</w>": 7468,
    "margar": 7469,
    "margaret</w>": 7470,
    "yard</w>": 7471,
    "properties</w>": 7472,
    "natur": 7473,
    "wear</w>": 7474,
    "1953</w>": 7475,
    "hibition</w>": 7476,
    "1933</w>": 7477,
    "preservation</w>": 7478,
    "epi": 7479,
    "fifa</w>": 7480,
    "bai": 7481,
    "qualified</w>": 7482,
    "1968</w>": 7483,
    "shallow</w>": 7484,
    "soft</w>": 7485,
    "habitats</w>": 7486,
    "poss": 7487,
    "ancest": 7488,
    "bears</w>": 7489,
    "fold</w>": 7490,
    "consu": 7491,
    "icate</w>": 7492,
    "ilers</w>": 7493,
    "string</w>": 7494,
    "spr": 7495,
    "allen</w>": 7496,
    "vancou": 7497,
    "vancouver</w>": 7498,
    "ulation</w>": 7499,
    "than": 7500,
    "vote</w>": 7501,
    "investigation</w>": 7502,
    "talking</w>": 7503,
    "color": 7504,
    "fting</w>": 7505,
    "indicates</w>": 7506,
    "wick</w>": 7507,
    "drove</w>": 7508,
    "villa</w>": 7509,
    "thema": 7510,
    "courty": 7511,
    "approval</w>": 7512,
    "emented</w>": 7513,
    "cope</w>": 7514,
    "ez</w>": 7515,
    "ologist</w>": 7516,
    "1905</w>": 7517,
    "83</w>": 7518,
    "boards</w>": 7519,
    "cd</w>": 7520,
    "memorable</w>": 7521,
    "elderly</w>": 7522,
    "chorus</w>": 7523,
    "calculated</w>": 7524,
    "confederacy</w>": 7525,
    "georgia</w>": 7526,
    "reserve</w>": 7527,
    "glas": 7528,
    "glasg": 7529,
    "glasgow</w>": 7530,
    "generated</w>": 7531,
    "slow": 7532,
    "cot": 7533,
    "anced</w>": 7534,
    "layers</w>": 7535,
    "pound</w>": 7536,
    "conce": 7537,
    "aboard</w>": 7538,
    "badly</w>": 7539,
    "amid": 7540,
    "sam</w>": 7541,
    "sailed</w>": 7542,
    "psych": 7543,
    "kim</w>": 7544,
    "confi": 7545,
    "kum": 7546,
    "kumar</w>": 7547,
    "gross</w>": 7548,
    "ja</w>": 7549,
    "departure</w>": 7550,
    "bond</w>": 7551,
    "mutual</w>": 7552,
    "munic": 7553,
    "helps</w>": 7554,
    "victim": 7555,
    "victims</w>": 7556,
    "ceremon": 7557,
    "stead": 7558,
    "ranking</w>": 7559,
    "fourteenth</w>": 7560,
    "olitan</w>": 7561,
    "scorer</w>": 7562,
    "comeback</w>": 7563,
    "brian</w>": 7564,
    "appointment</w>": 7565,
    "93</w>": 7566,
    "dor</w>": 7567,
    "loud</w>": 7568,
    "“</w>": 7569,
    "kenne": 7570,
    "1902</w>": 7571,
    "engag": 7572,
    "triple</w>": 7573,
    "signal</w>": 7574,
    "74</w>": 7575,
    "aimed</w>": 7576,
    "restoration</w>": 7577,
    "shipped</w>": 7578,
    "allu": 7579,
    "advice</w>": 7580,
    "relations</w>": 7581,
    "estimates</w>": 7582,
    "hierog": 7583,
    "myth</w>": 7584,
    "itive</w>": 7585,
    "deaths</w>": 7586,
    "absorbed</w>": 7587,
    "elite</w>": 7588,
    "mista": 7589,
    "oversaw</w>": 7590,
    "chaos</w>": 7591,
    "patron</w>": 7592,
    "disru": 7593,
    "succession</w>": 7594,
    "contra": 7595,
    "aggressive</w>": 7596,
    "battles</w>": 7597,
    "grow</w>": 7598,
    "conve": 7599,
    "reveals</w>": 7600,
    "ector</w>": 7601,
    "manife": 7602,
    "kh": 7603,
    "dency</w>": 7604,
    "1971</w>": 7605,
    "dismissed</w>": 7606,
    "counter</w>": 7607,
    "soil</w>": 7608,
    "shir": 7609,
    "statue</w>": 7610,
    "rebellion</w>": 7611,
    "philos": 7612,
    "legen": 7613,
    "howard</w>": 7614,
    "allmusic</w>": 7615,
    "matt</w>": 7616,
    "rolling</w>": 7617,
    "tribute</w>": 7618,
    "orn</w>": 7619,
    "replied</w>": 7620,
    "defined</w>": 7621,
    "vintage</w>": 7622,
    "patro": 7623,
    "introduction</w>": 7624,
    "infra": 7625,
    "infrastructure</w>": 7626,
    "1956</w>": 7627,
    "providing</w>": 7628,
    "involves</w>": 7629,
    "busin": 7630,
    "races</w>": 7631,
    "crit": 7632,
    "licensed</w>": 7633,
    "excep": 7634,
    "corresponding</w>": 7635,
    "weak": 7636,
    "users</w>": 7637,
    "oura": 7638,
    "swi": 7639,
    "inhib": 7640,
    "wars</w>": 7641,
    "hms</w>": 7642,
    "geop": 7643,
    "geopy": 7644,
    "geopyxis</w>": 7645,
    "organic</w>": 7646,
    "bearing</w>": 7647,
    "distinctive</w>": 7648,
    "irregular</w>": 7649,
    "colleagues</w>": 7650,
    "ser</w>": 7651,
    "izing</w>": 7652,
    "mountains</w>": 7653,
    "persu": 7654,
    "mckay</w>": 7655,
    "renewed</w>": 7656,
    "discussion</w>": 7657,
    "senate</w>": 7658,
    "franklin</w>": 7659,
    "salt</w>": 7660,
    "ction</w>": 7661,
    "tti": 7662,
    "concerning</w>": 7663,
    "olition</w>": 7664,
    "tiny</w>": 7665,
    "reactions</w>": 7666,
    "stronger</w>": 7667,
    "depends</w>": 7668,
    "reagent</w>": 7669,
    "bases</w>": 7670,
    "preferred</w>": 7671,
    "classical</w>": 7672,
    "exo": 7673,
    "drug</w>": 7674,
    "catal": 7675,
    "essing</w>": 7676,
    "breaks</w>": 7677,
    "supporters</w>": 7678,
    "escaped</w>": 7679,
    "fled</w>": 7680,
    "blown</w>": 7681,
    "opponents</w>": 7682,
    "affairs</w>": 7683,
    "remove</w>": 7684,
    "ongoing</w>": 7685,
    "reconc": 7686,
    "math</w>": 7687,
    "sins</w>": 7688,
    "conspir": 7689,
    "novels</w>": 7690,
    "twenti": 7691,
    "ustin</w>": 7692,
    "pup": 7693,
    "rowing</w>": 7694,
    "innocent</w>": 7695,
    "lorenz": 7696,
    "lorenzo</w>": 7697,
    "tested</w>": 7698,
    "reflected</w>": 7699,
    "spirit": 7700,
    "spiritual</w>": 7701,
    "internal</w>": 7702,
    "pressive</w>": 7703,
    "agrees</w>": 7704,
    "miller</w>": 7705,
    "jona": 7706,
    "jonathan</w>": 7707,
    "expeditions</w>": 7708,
    "defending</w>": 7709,
    "bombers</w>": 7710,
    "nickname</w>": 7711,
    "crash</w>": 7712,
    "kilometres</w>": 7713,
    "knight</w>": 7714,
    "considering</w>": 7715,
    "disaster</w>": 7716,
    "therine</w>": 7717,
    "sv": 7718,
    "strained</w>": 7719,
    "1951</w>": 7720,
    "hot": 7721,
    "hotel</w>": 7722,
    "acclaim</w>": 7723,
    "ece</w>": 7724,
    "rants</w>": 7725,
    "enro": 7726,
    "sully</w>": 7727,
    "jim": 7728,
    "bright</w>": 7729,
    "jane</w>": 7730,
    "krak": 7731,
    "theaters</w>": 7732,
    "watched</w>": 7733,
    "brilliant</w>": 7734,
    "judge</w>": 7735,
    "forcing</w>": 7736,
    "ester</w>": 7737,
    "planet</w>": 7738,
    "orb": 7739,
    "detected</w>": 7740,
    "idity</w>": 7741,
    "nit": 7742,
    "harbour</w>": 7743,
    "trac": 7744,
    "sq</w>": 7745,
    "kon": 7746,
    "kal": 7747,
    "trimur": 7748,
    "trimurti</w>": 7749,
    "showing</w>": 7750,
    "capit": 7751,
    "ravan": 7752,
    "ravana</w>": 7753,
    "shoulder</w>": 7754,
    "igh</w>": 7755,
    "frie": 7756,
    "frieze</w>": 7757,
    "tourist</w>": 7758,
    "presents</w>": 7759,
    "vai</w>": 7760,
    "disbanded</w>": 7761,
    "spector</w>": 7762,
    "aming</w>": 7763,
    "tape</w>": 7764,
    "pushing</w>": 7765,
    "zilto": 7766,
    "ziltoid</w>": 7767,
    "asing</w>": 7768,
    "interviews</w>": 7769,
    "drugs</w>": 7770,
    "ari": 7771,
    "gan</w>": 7772,
    "corner</w>": 7773,
    "confiscated</w>": 7774,
    "camps</w>": 7775,
    "photograph": 7776,
    "photographs</w>": 7777,
    "ardo</w>": 7778,
    "rub": 7779,
    "tenth</w>": 7780,
    "communist</w>": 7781,
    "nova</w>": 7782,
    "barrier</w>": 7783,
    "surveill": 7784,
    "surveillance</w>": 7785,
    "justi": 7786,
    "metropol": 7787,
    "exac": 7788,
    "trinsey</w>": 7789,
    "constitutional</w>": 7790,
    "1963</w>": 7791,
    "olym": 7792,
    "cats</w>": 7793,
    "bounds</w>": 7794,
    "jump</w>": 7795,
    "brad": 7796,
    "cbs</w>": 7797,
    "niel": 7798,
    "nielsen</w>": 7799,
    "defenders</w>": 7800,
    "profit</w>": 7801,
    "studying</w>": 7802,
    "wealthy</w>": 7803,
    "nazis</w>": 7804,
    "intell": 7805,
    "intellec": 7806,
    "mass": 7807,
    "forbid": 7808,
    "forbidden</w>": 7809,
    "passages</w>": 7810,
    "pla": 7811,
    "boy": 7812,
    "reversed</w>": 7813,
    "print</w>": 7814,
    "missiles</w>": 7815,
    "1974</w>": 7816,
    "atomic</w>": 7817,
    "ship": 7818,
    "tland</w>": 7819,
    "belt</w>": 7820,
    "bay": 7821,
    "folkl": 7822,
    "folklore</w>": 7823,
    "thames</w>": 7824,
    "megalithic</w>": 7825,
    "belonging</w>": 7826,
    "values</w>": 7827,
    "pitt</w>": 7828,
    "ink": 7829,
    "crossing</w>": 7830,
    "listeners</w>": 7831,
    "rca</w>": 7832,
    "acle</w>": 7833,
    "bells</w>": 7834,
    "melody</w>": 7835,
    "convection</w>": 7836,
    "58</w>": 7837,
    "restore</w>": 7838,
    "hindi": 7839,
    "hindi</w>": 7840,
    "dharm": 7841,
    "dharmend": 7842,
    "dharmendra</w>": 7843,
    "aka</w>": 7844,
    "colour</w>": 7845,
    "logs</w>": 7846,
    "baht</w>": 7847,
    "cns</w>": 7848,
    "sonth": 7849,
    "sonthi</w>": 7850,
    "exerc": 7851,
    "teleph": 7852,
    "bangko": 7853,
    "bangkok</w>": 7854,
    "reagan</w>": 7855,
    "vau": 7856,
    "vaudev": 7857,
    "vaudeville</w>": 7858,
    "nichol": 7859,
    "flame</w>": 7860,
    "mysore</w>": 7861,
    "cornwallis</w>": 7862,
    "strachan</w>": 7863,
    "promiscuous</w>": 7864,
    "mane": 7865,
    "maneater</w>": 7866,
    "bds</w>": 7867,
    "jarvis</w>": 7868,
    "clean</w>": 7869,
    "consent</w>": 7870,
    "metallic</w>": 7871,
    "immemorial</w>": 7872,
    "blast</w>": 7873,
    "mechanical</w>": 7874,
    "volun": 7875,
    "subcontinent</w>": 7876,
    "criti": 7877,
    "dubious</w>": 7878,
    "lebanon</w>": 7879,
    "joan</w>": 7880,
    "crac": 7881,
    "worker</w>": 7882,
    "boogie</w>": 7883,
    "nights</w>": 7884,
    "comedies</w>": 7885,
    "pitched</w>": 7886,
    "rectory</w>": 7887,
    "soap</w>": 7888,
    "las": 7889,
    "angelo</w>": 7890,
    "abnorm": 7891,
    "abnormalities</w>": 7892,
    "subtypes</w>": 7893,
    "cytogenetics</w>": 7894,
    "prognostic</w>": 7895,
    "iang</w>": 7896,
    "vez</w>": 7897,
    "blacks</w>": 7898,
    "strand</w>": 7899,
    "grav": 7900,
    "justice</w>": 7901,
    "ov</w>": 7902,
    "matthe": 7903,
    "matthew</w>": 7904,
    "hale</w>": 7905,
    "ea</w>": 7906,
    "wig": 7907,
    "wigner</w>": 7908,
    "theore": 7909,
    "terri</w>": 7910,
    "div</w>": 7911,
    "audiob": 7912,
    "audiobook</w>": 7913,
    "advantages</w>": 7914,
    "d6</w>": 7915,
    "bg": 7916,
    "nc": 7917,
    "cox</w>": 7918,
    "crusaders</w>": 7919,
    "lit</w>": 7920,
    "battlefield</w>": 7921,
    "tactical</w>": 7922,
    "playstation</w>": 7923,
    "ou</w>": 7924,
    "composer</w>": 7925,
    "iced</w>": 7926,
    "shift</w>": 7927,
    "militi": 7928,
    "militia</w>": 7929,
    "ela</w>": 7930,
    "ranks</w>": 7931,
    "card</w>": 7932,
    "none</w>": 7933,
    "improv": 7934,
    "improvements</w>": 7935,
    "phics</w>": 7936,
    "models</w>": 7937,
    "essenti": 7938,
    "essentially</w>": 7939,
    "limitations</w>": 7940,
    "positively</w>": 7941,
    "balance</w>": 7942,
    "purchase</w>": 7943,
    "principle</w>": 7944,
    "macarthur</w>": 7945,
    "decom": 7946,
    "oldest</w>": 7947,
    "perceived</w>": 7948,
    "skir": 7949,
    "message</w>": 7950,
    "ultimate</w>": 7951,
    "sic</w>": 7952,
    "rum": 7953,
    "prompted</w>": 7954,
    "aspect</w>": 7955,
    "stayed</w>": 7956,
    "substantial</w>": 7957,
    "regiment</w>": 7958,
    "cured</w>": 7959,
    "impressed</w>": 7960,
    "tivated</w>": 7961,
    "borrowed</w>": 7962,
    "lt</w>": 7963,
    "ironclad</w>": 7964,
    "colonel</w>": 7965,
    "carp": 7966,
    "carri": 7967,
    "surrendered</w>": 7968,
    "forever</w>": 7969,
    "ieties</w>": 7970,
    "progress</w>": 7971,
    "hood</w>": 7972,
    "isers</w>": 7973,
    "hym": 7974,
    "chr": 7975,
    "christ</w>": 7976,
    "kate</w>": 7977,
    "artistic</w>": 7978,
    "elder</w>": 7979,
    "drawings</w>": 7980,
    "afterward</w>": 7981,
    "advertis": 7982,
    "submitted</w>": 7983,
    "1958</w>": 7984,
    "plants</w>": 7985,
    "york": 7986,
    "yorkshire</w>": 7987,
    "restored</w>": 7988,
    "ashes</w>": 7989,
    "disappeared</w>": 7990,
    "sacram": 7991,
    "disciples</w>": 7992,
    "1932</w>": 7993,
    "lan</w>": 7994,
    "withdrew</w>": 7995,
    "among": 7996,
    "amongst</w>": 7997,
    "smooth</w>": 7998,
    "taxonomy</w>": 7999,
    "common": 8000,
    "rounded</w>": 8001,
    "angle</w>": 8002,
    "ae</w>": 8003,
    "pairs</w>": 8004,
    "shorter</w>": 8005,
    "inhab": 8006,
    "apar": 8007,
    "substrate</w>": 8008,
    "bry": 8009,
    "eries</w>": 8010,
    "prospec": 8011,
    "burgh</w>": 8012,
    "russell</w>": 8013,
    "clubs</w>": 8014,
    "hitch": 8015,
    "hitchcock</w>": 8016,
    "coaching</w>": 8017,
    "intention</w>": 8018,
    "deadline</w>": 8019,
    "interim</w>": 8020,
    "consistently</w>": 8021,
    "rook": 8022,
    "rookie</w>": 8023,
    "deli": 8024,
    "deliber": 8025,
    "shut": 8026,
    "commodore</w>": 8027,
    "replace</w>": 8028,
    "departed</w>": 8029,
    "apost": 8030,
    "mathema": 8031,
    "flanked</w>": 8032,
    "falling</w>": 8033,
    "17th</w>": 8034,
    "inscri": 8035,
    "strategic</w>": 8036,
    "locations</w>": 8037,
    "respected</w>": 8038,
    "initiated</w>": 8039,
    "ocks</w>": 8040,
    "bear</w>": 8041,
    "ism": 8042,
    "sophistic": 8043,
    "sophisticated</w>": 8044,
    "mari": 8045,
    "dresses</w>": 8046,
    "garnered</w>": 8047,
    "mixes</w>": 8048,
    "couldn</w>": 8049,
    "streets</w>": 8050,
    "sixteen</w>": 8051,
    "crosses</w>": 8052,
    "1981</w>": 8053,
    "uss</w>": 8054,
    "scotland</w>": 8055,
    "vertical</w>": 8056,
    "passengers</w>": 8057,
    "slowly</w>": 8058,
    "anyone</w>": 8059,
    "hull</w>": 8060,
    "rails</w>": 8061,
    "08</w>": 8062,
    "110</w>": 8063,
    "pole</w>": 8064,
    "virtually</w>": 8065,
    "flag": 8066,
    "chester</w>": 8067,
    "thriller</w>": 8068,
    "kick</w>": 8069,
    "actresses</w>": 8070,
    "unrest</w>": 8071,
    "failure</w>": 8072,
    "whil": 8073,
    "whilst</w>": 8074,
    "mah": 8075,
    "av</w>": 8076,
    "ini</w>": 8077,
    "romance</w>": 8078,
    "filmma": 8079,
    "fear": 8080,
    "adm": 8081,
    "separated</w>": 8082,
    "filming</w>": 8083,
    "causes</w>": 8084,
    "sanctu": 8085,
    "mind</w>": 8086,
    "resta": 8087,
    "restaur": 8088,
    "preceding</w>": 8089,
    "diagnosed</w>": 8090,
    "sary</w>": 8091,
    "superior</w>": 8092,
    "illness</w>": 8093,
    "sized</w>": 8094,
    "austria</w>": 8095,
    "otion</w>": 8096,
    "spend</w>": 8097,
    "settled</w>": 8098,
    "harm": 8099,
    "sunk</w>": 8100,
    "meter</w>": 8101,
    "breakout</w>": 8102,
    "heavi": 8103,
    "offer": 8104,
    "offerings</w>": 8105,
    "function</w>": 8106,
    "inations</w>": 8107,
    "diverse</w>": 8108,
    "traits</w>": 8109,
    "perfec": 8110,
    "perfectly</w>": 8111,
    "supernatural</w>": 8112,
    "likewise</w>": 8113,
    "clear": 8114,
    "crossed</w>": 8115,
    "priests</w>": 8116,
    "coh": 8117,
    "perception</w>": 8118,
    "disorder</w>": 8119,
    "boundaries</w>": 8120,
    "divin": 8121,
    "draws</w>": 8122,
    "landscap": 8123,
    "predic": 8124,
    "contain</w>": 8125,
    "elabor": 8126,
    "recurring</w>": 8127,
    "dissol": 8128,
    "amid</w>": 8129,
    "epithe": 8130,
    "refuses</w>": 8131,
    "tility</w>": 8132,
    "vuln": 8133,
    "acknowle": 8134,
    "arguments</w>": 8135,
    "trend</w>": 8136,
    "dominant</w>": 8137,
    "likened</w>": 8138,
    "atures</w>": 8139,
    "object</w>": 8140,
    "interven": 8141,
    "commands</w>": 8142,
    "oked</w>": 8143,
    "reviewer</w>": 8144,
    "drum": 8145,
    "aya</w>": 8146,
    "distur": 8147,
    "thinks</w>": 8148,
    "silent</w>": 8149,
    "constant</w>": 8150,
    "ortho": 8151,
    "orthodo": 8152,
    "orthodox</w>": 8153,
    "doz": 8154,
    "listening</w>": 8155,
    "rendition</w>": 8156,
    "isn</w>": 8157,
    "glider</w>": 8158,
    "1909</w>": 8159,
    "championships</w>": 8160,
    "zes</w>": 8161,
    "accur": 8162,
    "criteria</w>": 8163,
    "vig": 8164,
    "obtain</w>": 8165,
    "err": 8166,
    "throw</w>": 8167,
    "familiar</w>": 8168,
    "ints</w>": 8169,
    "drop</w>": 8170,
    "concentrated</w>": 8171,
    "southeastern</w>": 8172,
    "red": 8173,
    "1879</w>": 8174,
    "elli": 8175,
    "vit": 8176,
    "oran": 8177,
    "orange</w>": 8178,
    "sulfur": 8179,
    "sulfur</w>": 8180,
    "strates</w>": 8181,
    "fires</w>": 8182,
    "bureau</w>": 8183,
    "engra": 8184,
    "liberty</w>": 8185,
    "annular</w>": 8186,
    "hudson</w>": 8187,
    "dub": 8188,
    "1854</w>": 8189,
    "reducing</w>": 8190,
    "1870</w>": 8191,
    "sumption</w>": 8192,
    "occur</w>": 8193,
    "1878</w>": 8194,
    "ornam": 8195,
    "rates</w>": 8196,
    "membered</w>": 8197,
    "variants</w>": 8198,
    "profile</w>": 8199,
    "carbon</w>": 8200,
    "yiel": 8201,
    "ytic</w>": 8202,
    "dential</w>": 8203,
    "bent</w>": 8204,
    "exile</w>": 8205,
    "occasions</w>": 8206,
    "mate</w>": 8207,
    "tful</w>": 8208,
    "encies</w>": 8209,
    "instrumental</w>": 8210,
    "aftermath</w>": 8211,
    "recall": 8212,
    "unt</w>": 8213,
    "assassins</w>": 8214,
    "ana</w>": 8215,
    "lyn": 8216,
    "twentieth</w>": 8217,
    "policies</w>": 8218,
    "returns</w>": 8219,
    "torture</w>": 8220,
    "aqu": 8221,
    "ín</w>": 8222,
    "chapters</w>": 8223,
    "ulted</w>": 8224,
    "junction</w>": 8225,
    "mere</w>": 8226,
    "hibitions</w>": 8227,
    "compre": 8228,
    "sees</w>": 8229,
    "sacri": 8230,
    "1978</w>": 8231,
    "plag": 8232,
    "plagi": 8233,
    "plagiar": 8234,
    "dipl": 8235,
    "indies</w>": 8236,
    "beth</w>": 8237,
    "keith</w>": 8238,
    "afterwards</w>": 8239,
    "coul": 8240,
    "poeh": 8241,
    "poehler</w>": 8242,
    "lix</w>": 8243,
    "michaels</w>": 8244,
    "denn": 8245,
    "dennis</w>": 8246,
    "pitch</w>": 8247,
    "lemon</w>": 8248,
    "times": 8249,
    "timeslot</w>": 8250,
    "shu": 8251,
    "strange</w>": 8252,
    "mediev": 8253,
    "medieval</w>": 8254,
    "tradem": 8255,
    "trademark</w>": 8256,
    "vious</w>": 8257,
    "tos</w>": 8258,
    "2000s</w>": 8259,
    "praise</w>": 8260,
    "barbar": 8261,
    "pian": 8262,
    "kail": 8263,
    "kailash</w>": 8264,
    "vish": 8265,
    "vishn": 8266,
    "vishnu</w>": 8267,
    "cite</w>": 8268,
    "subsi": 8269,
    "legend</w>": 8270,
    "tourism</w>": 8271,
    "yan": 8272,
    "intly</w>": 8273,
    "add": 8274,
    "entitled</w>": 8275,
    "mainst": 8276,
    "varied</w>": 8277,
    "arrang": 8278,
    "satisfied</w>": 8279,
    "driving</w>": 8280,
    "trick</w>": 8281,
    "smo": 8282,
    "ft": 8283,
    "genres</w>": 8284,
    "fies</w>": 8285,
    "williams</w>": 8286,
    "semi": 8287,
    "funded</w>": 8288,
    "invest": 8289,
    "lum": 8290,
    "gusts</w>": 8291,
    "targeted</w>": 8292,
    "web</w>": 8293,
    "statement</w>": 8294,
    "tube</w>": 8295,
    "amendment</w>": 8296,
    "torate</w>": 8297,
    "explic": 8298,
    "jeffrey</w>": 8299,
    "hornets</w>": 8300,
    "rebounds</w>": 8301,
    "rp": 8302,
    "blocks</w>": 8303,
    "knicks</w>": 8304,
    "signature</w>": 8305,
    "pics</w>": 8306,
    "pages</w>": 8307,
    "shoes</w>": 8308,
    "utah</w>": 8309,
    "internet</w>": 8310,
    "annex": 8311,
    "annexed</w>": 8312,
    "neutral</w>": 8313,
    "sia</w>": 8314,
    "bey</w>": 8315,
    "kraków</w>": 8316,
    "scholarly</w>": 8317,
    "stefan</w>": 8318,
    "congreg": 8319,
    "kaz": 8320,
    "imi": 8321,
    "imier": 8322,
    "imierz</w>": 8323,
    "owa</w>": 8324,
    "alfred</w>": 8325,
    "arih": 8326,
    "arihant</w>": 8327,
    "ani</w>": 8328,
    "dir": 8329,
    "construct</w>": 8330,
    "unclear</w>": 8331,
    "millimeters</w>": 8332,
    "wilhel": 8333,
    "warships</w>": 8334,
    "spite</w>": 8335,
    "05</w>": 8336,
    "speculated</w>": 8337,
    "ahead</w>": 8338,
    "barrows</w>": 8339,
    "ashbee</w>": 8340,
    "else": 8341,
    "elsewhere</w>": 8342,
    "scand": 8343,
    "rem": 8344,
    "remn": 8345,
    "work": 8346,
    "antiquaries</w>": 8347,
    "kav": 8348,
    "kavka": 8349,
    "kavkaz</w>": 8350,
    "sa</w>": 8351,
    "cau": 8352,
    "wilson</w>": 8353,
    "engineer</w>": 8354,
    "ulate</w>": 8355,
    "rudol": 8356,
    "oting</w>": 8357,
    "fai": 8358,
    "outages</w>": 8359,
    "atro": 8360,
    "meh": 8361,
    "mehboo": 8362,
    "mehbooba</w>": 8363,
    "lob": 8364,
    "ensuring</w>": 8365,
    "fifteen</w>": 8366,
    "outlaws</w>": 8367,
    "shen</w>": 8368,
    "telecom</w>": 8369,
    "anupong</w>": 8370,
    "telephone</w>": 8371,
    "ene</w>": 8372,
    "carn": 8373,
    "interviewed</w>": 8374,
    "telli": 8375,
    "tellicherry</w>": 8376,
    "tty</w>": 8377,
    "flee": 8378,
    "bowman</w>": 8379,
    "stib": 8380,
    "applications</w>": 8381,
    "trioxide</w>": 8382,
    "characterized</w>": 8383,
    "decay</w>": 8384,
    "iny</w>": 8385,
    "zel": 8386,
    "interpretation</w>": 8387,
    "cites</w>": 8388,
    "honor": 8389,
    "ucl</w>": 8390,
    "gramm": 8391,
    "grammar</w>": 8392,
    "examining</w>": 8393,
    "condemned</w>": 8394,
    "obligation</w>": 8395,
    "asi": 8396,
    "omal</w>": 8397,
    "kore": 8398,
    "sand": 8399,
    "asks</w>": 8400,
    "yam": 8401,
    "lb</w>": 8402,
    "innings</w>": 8403,
    "1901</w>": 8404,
    "nach": 8405,
    "nachtig": 8406,
    "nachtigall</w>": 8407,
    "hil": 8408,
    "livin</w>": 8409,
    "eggs</w>": 8410,
    "feral</w>": 8411,
    "veget": 8412,
    "ail</w>": 8413,
    "prognosis</w>": 8414,
    "remission</w>": 8415,
    "radiation</w>": 8416,
    "leukemias</w>": 8417,
    "clinical</w>": 8418,
    "parks</w>": 8419,
    "petro": 8420,
    "rug": 8421,
    "rugby</w>": 8422,
    "doctor</w>": 8423,
    "benedict</w>": 8424,
    "gravity</w>": 8425,
    "chasti": 8426,
    "chastity</w>": 8427,
    "speakers</w>": 8428,
    "chapman</w>": 8429,
    "1769</w>": 8430,
    "wn": 8431,
    "dand": 8432,
    "danden": 8433,
    "dandenong</w>": 8434,
    "tacuma</w>": 8435,
    "outlaw</w>": 8436,
    "yu</w>": 8437,
    "bot</w>": 8438,
    "buchar": 8439,
    "bucharest</w>": 8440,
    "ozplo": 8441,
    "ozploitation</w>": 8442,
    "concla": 8443,
    "conclave</w>": 8444,
    "bernis</w>": 8445,
    "belgian</w>": 8446,
    "c5</w>": 8447,
    "e5</w>": 8448,
    "cowan</w>": 8449,
    "neutrinos</w>": 8450,
    "algy</w>": 8451,
    "ying": 8452,
    "yingz": 8453,
    "yingzao</w>": 8454,
    "fashi</w>": 8455,
    "pan</w>": 8456,
    "adju": 8457,
    "compati": 8458,
    "linear</w>": 8459,
    "maps</w>": 8460,
    "knocked</w>": 8461,
    "temporary</w>": 8462,
    "kurt</w>": 8463,
    "scou": 8464,
    "gallian</w>": 8465,
    "revenge</w>": 8466,
    "escorted</w>": 8467,
    "ymous</w>": 8468,
    "ilian</w>": 8469,
    "factor</w>": 8470,
    "revolutionary</w>": 8471,
    "fantas": 8472,
    "demo</w>": 8473,
    "download</w>": 8474,
    "translated</w>": 8475,
    "102</w>": 8476,
    "anno": 8477,
    "seemed</w>": 8478,
    "vals</w>": 8479,
    "oning</w>": 8480,
    "æs": 8481,
    "æsthetic</w>": 8482,
    "ette</w>": 8483,
    "totten</w>": 8484,
    "possession</w>": 8485,
    "rel</w>": 8486,
    "dispatched</w>": 8487,
    "destination</w>": 8488,
    "authorized</w>": 8489,
    "abra": 8490,
    "inaug": 8491,
    "placing</w>": 8492,
    "bore</w>": 8493,
    "regiments</w>": 8494,
    "comprising</w>": 8495,
    "exha": 8496,
    "strating</w>": 8497,
    "documents</w>": 8498,
    "dunnington</w>": 8499,
    "functions</w>": 8500,
    "summary</w>": 8501,
    "flint</w>": 8502,
    "rounds</w>": 8503,
    "96</w>": 8504,
    "pist": 8505,
    "pace</w>": 8506,
    "cing</w>": 8507,
    "1880</w>": 8508,
    "1893</w>": 8509,
    "devoted</w>": 8510,
    "demolished</w>": 8511,
    "thro": 8512,
    "preserve</w>": 8513,
    "girl": 8514,
    "theories</w>": 8515,
    "fairy</w>": 8516,
    "thum": 8517,
    "belonged</w>": 8518,
    "nur": 8519,
    "supervis": 8520,
    "churches</w>": 8521,
    "ram</w>": 8522,
    "modelled</w>": 8523,
    "garden": 8524,
    "gardens</w>": 8525,
    "focusing</w>": 8526,
    "scattered</w>": 8527,
    "tches</w>": 8528,
    "dust</w>": 8529,
    "sel</w>": 8530,
    "pover": 8531,
    "poverty</w>": 8532,
    "simon</w>": 8533,
    "angel</w>": 8534,
    "pel</w>": 8535,
    "feeding</w>": 8536,
    "1962</w>": 8537,
    "bet</w>": 8538,
    "shiel": 8539,
    "impac": 8540,
    "charter</w>": 8541,
    "try": 8542,
    "lacks</w>": 8543,
    "wealth</w>": 8544,
    "elevated</w>": 8545,
    "enetic</w>": 8546,
    "dna</w>": 8547,
    "further": 8548,
    "furthermore</w>": 8549,
    "pointed</w>": 8550,
    "vent": 8551,
    "queensland</w>": 8552,
    "guine": 8553,
    "guinea</w>": 8554,
    "functional</w>": 8555,
    "maturity</w>": 8556,
    "gear</w>": 8557,
    "historically</w>": 8558,
    "selection</w>": 8559,
    "richards</w>": 8560,
    "oming</w>": 8561,
    "howson</w>": 8562,
    "otta": 8563,
    "ottawa</w>": 8564,
    "expec": 8565,
    "ank": 8566,
    "publicly</w>": 8567,
    "passion</w>": 8568,
    "lom": 8569,
    "delay</w>": 8570,
    "turer</w>": 8571,
    "options</w>": 8572,
    "dealt</w>": 8573,
    "flex": 8574,
    "victories</w>": 8575,
    "earn</w>": 8576,
    "dropped</w>": 8577,
    "mich": 8578,
    "teammates</w>": 8579,
    "agents</w>": 8580,
    "apostol": 8581,
    "astronom": 8582,
    "astronomical</w>": 8583,
    "reforms</w>": 8584,
    "240</w>": 8585,
    "instrum": 8586,
    "mete": 8587,
    "meteor": 8588,
    "continuous</w>": 8589,
    "programme</w>": 8590,
    "kness</w>": 8591,
    "gap</w>": 8592,
    "enclosed</w>": 8593,
    "hills</w>": 8594,
    "rafa": 8595,
    "rafael</w>": 8596,
    "key": 8597,
    "brid": 8598,
    "bridge": 8599,
    "farmland</w>": 8600,
    "connecting</w>": 8601,
    "1865</w>": 8602,
    "cly": 8603,
    "clyde</w>": 8604,
    "equipped</w>": 8605,
    "bullo": 8606,
    "bulloch</w>": 8607,
    "supplies</w>": 8608,
    "impossible</w>": 8609,
    "aided</w>": 8610,
    "financed</w>": 8611,
    "conversion</w>": 8612,
    "pyram": 8613,
    "tatt": 8614,
    "tide</w>": 8615,
    "easy</w>": 8616,
    "landed</w>": 8617,
    "81</w>": 8618,
    "penetr": 8619,
    "prince</w>": 8620,
    "jacqu": 8621,
    "lanka</w>": 8622,
    "communication</w>": 8623,
    "psychological</w>": 8624,
    "orous</w>": 8625,
    "grossing</w>": 8626,
    "jeev</w>": 8627,
    "malini</w>": 8628,
    "satire</w>": 8629,
    "horror</w>": 8630,
    "amitab": 8631,
    "amitabh</w>": 8632,
    "shares</w>": 8633,
    "myself</w>": 8634,
    "municipal</w>": 8635,
    "commissioner</w>": 8636,
    "housing</w>": 8637,
    "floods</w>": 8638,
    "ambass": 8639,
    "ambassad": 8640,
    "contrary</w>": 8641,
    "hartford</w>": 8642,
    "prefer": 8643,
    "choos": 8644,
    "anniver": 8645,
    "anniversary</w>": 8646,
    "immediate</w>": 8647,
    "uniform</w>": 8648,
    "corri": 8649,
    "corridor</w>": 8650,
    "examination</w>": 8651,
    "evident</w>": 8652,
    "spending</w>": 8653,
    "”</w>": 8654,
    "awaren": 8655,
    "awareness</w>": 8656,
    "engagement</w>": 8657,
    "burg</w>": 8658,
    "68</w>": 8659,
    "attempting</w>": 8660,
    "turkey</w>": 8661,
    "lighter</w>": 8662,
    "sometime</w>": 8663,
    "combinations</w>": 8664,
    "lay</w>": 8665,
    "aten": 8666,
    "atenism</w>": 8667,
    "sugges": 8668,
    "reflecting</w>": 8669,
    "myth": 8670,
    "origins</w>": 8671,
    "arrows</w>": 8672,
    "villages</w>": 8673,
    "subordin": 8674,
    "understood</w>": 8675,
    "traditions</w>": 8676,
    "nile</w>": 8677,
    "civilization</w>": 8678,
    "kinson</w>": 8679,
    "specialized</w>": 8680,
    "divinities</w>": 8681,
    "harv": 8682,
    "landscape</w>": 8683,
    "demon</w>": 8684,
    "funer": 8685,
    "funerary</w>": 8686,
    "icity</w>": 8687,
    "thoughts</w>": 8688,
    "differentiated</w>": 8689,
    "acces": 8690,
    "distant</w>": 8691,
    "centered</w>": 8692,
    "coff": 8693,
    "learning</w>": 8694,
    "protector</w>": 8695,
    "hath": 8696,
    "hathor</w>": 8697,
    "unity</w>": 8698,
    "adopt</w>": 8699,
    "conception</w>": 8700,
    "component</w>": 8701,
    "vulnerable</w>": 8702,
    "ruling</w>": 8703,
    "atically</w>": 8704,
    "integ": 8705,
    "excluded</w>": 8706,
    "specified</w>": 8707,
    "concludes</w>": 8708,
    "abun": 8709,
    "righ": 8710,
    "rescue</w>": 8711,
    "guilty</w>": 8712,
    "performer</w>": 8713,
    "swallowed</w>": 8714,
    "oph": 8715,
    "persisted</w>": 8716,
    "geff": 8717,
    "geffen</w>": 8718,
    "utili": 8719,
    "guitars</w>": 8720,
    "dave</w>": 8721,
    "odd</w>": 8722,
    "rible</w>": 8723,
    "ocal": 8724,
    "ocalyp": 8725,
    "larry</w>": 8726,
    "sacrif": 8727,
    "sacrifice</w>": 8728,
    "inherent</w>": 8729,
    "posing</w>": 8730,
    "blew</w>": 8731,
    "tman</w>": 8732,
    "hear</w>": 8733,
    "bath</w>": 8734,
    "originated</w>": 8735,
    "airworth": 8736,
    "airworthiness</w>": 8737,
    "licensing</w>": 8738,
    "agriculture</w>": 8739,
    "isle</w>": 8740,
    "characterised</w>": 8741,
    "businesses</w>": 8742,
    "dragon</w>": 8743,
    "competitive</w>": 8744,
    "restrictions</w>": 8745,
    "hampshire</w>": 8746,
    "comprised</w>": 8747,
    "certainty</w>": 8748,
    "enth": 8749,
    "implement</w>": 8750,
    "formerly</w>": 8751,
    "relev": 8752,
    "ier</w>": 8753,
    "desir": 8754,
    "desirable</w>": 8755,
    "thereby</w>": 8756,
    "croatian</w>": 8757,
    "hungary</w>": 8758,
    "supplement</w>": 8759,
    "demonstration</w>": 8760,
    "declaration</w>": 8761,
    "versa": 8762,
    "ym</w>": 8763,
    "1853</w>": 8764,
    "hed</w>": 8765,
    "pale</w>": 8766,
    "miner": 8767,
    "burn</w>": 8768,
    "mints</w>": 8769,
    "finance</w>": 8770,
    "repeat": 8771,
    "repeatedly</w>": 8772,
    "opposition</w>": 8773,
    "favorable</w>": 8774,
    "puck</w>": 8775,
    "probability</w>": 8776,
    "rie</w>": 8777,
    "ulties</w>": 8778,
    "trivial</w>": 8779,
    "striking</w>": 8780,
    "iden": 8781,
    "identical</w>": 8782,
    "postwar</w>": 8783,
    "oselec": 8784,
    "nucle": 8785,
    "adjac": 8786,
    "adjacent</w>": 8787,
    "ylides</w>": 8788,
    "react</w>": 8789,
    "extensively</w>": 8790,
    "excess</w>": 8791,
    "cement</w>": 8792,
    "ciu": 8793,
    "ciudad</w>": 8794,
    "rez</w>": 8795,
    "barra</w>": 8796,
    "luis</w>": 8797,
    "encountered</w>": 8798,
    "ignored</w>": 8799,
    "cuau": 8800,
    "cuautl": 8801,
    "cuautla</w>": 8802,
    "reconciliation</w>": 8803,
    "ashed</w>": 8804,
    "merely</w>": 8805,
    "suppress</w>": 8806,
    "lau": 8807,
    "machism": 8808,
    "machismo</w>": 8809,
    "absolute</w>": 8810,
    "comment</w>": 8811,
    "tant</w>": 8812,
    "antonio</w>": 8813,
    "creates</w>": 8814,
    "expression</w>": 8815,
    "abuse</w>": 8816,
    "moments</w>": 8817,
    "convic": 8818,
    "plagiarism</w>": 8819,
    "diplom": 8820,
    "consul</w>": 8821,
    "centen": 8822,
    "desert</w>": 8823,
    "rescu": 8824,
    "rescued</w>": 8825,
    "recon": 8826,
    "resources</w>": 8827,
    "subur": 8828,
    "suburb</w>": 8829,
    "parli": 8830,
    "comedian</w>": 8831,
    "sketch</w>": 8832,
    "improvis": 8833,
    "screenplay</w>": 8834,
    "experiences</w>": 8835,
    "guild</w>": 8836,
    "usa</w>": 8837,
    "cable</w>": 8838,
    "escapes</w>": 8839,
    "carol</w>": 8840,
    "funny</w>": 8841,
    "commercials</w>": 8842,
    "chen</w>": 8843,
    "wit</w>": 8844,
    "persona</w>": 8845,
    "bag</w>": 8846,
    "anx": 8847,
    "global</w>": 8848,
    "scientists</w>": 8849,
    "cuts</w>": 8850,
    "yas</w>": 8851,
    "akin</w>": 8852,
    "honour</w>": 8853,
    "creative</w>": 8854,
    "skeleton</w>": 8855,
    "fat</w>": 8856,
    "garu": 8857,
    "garuda</w>": 8858,
    "crescent</w>": 8859,
    "keepers</w>": 8860,
    "ruined</w>": 8861,
    "legs</w>": 8862,
    "lotus</w>": 8863,
    "linga</w>": 8864,
    "worse</w>": 8865,
    "itely</w>": 8866,
    "declaring</w>": 8867,
    "1966</w>": 8868,
    "undertaken</w>": 8869,
    "consol": 8870,
    "document</w>": 8871,
    "monit": 8872,
    "comprehen": 8873,
    "ambi": 8874,
    "exodu": 8875,
    "exodus</w>": 8876,
    "assembly</w>": 8877,
    "mainstream</w>": 8878,
    "confusion</w>": 8879,
    "carto": 8880,
    "recruited</w>": 8881,
    "morgan</w>": 8882,
    "adventure</w>": 8883,
    "otic</w>": 8884,
    "praš": 8885,
    "praška</w>": 8886,
    "moti": 8887,
    "nave</w>": 8888,
    "organ</w>": 8889,
    "estate</w>": 8890,
    "revised</w>": 8891,
    "gold": 8892,
    "disturb": 8893,
    "disturbance</w>": 8894,
    "dly</w>": 8895,
    "lumber</w>": 8896,
    "offshore</w>": 8897,
    "harbor</w>": 8898,
    "slaves</w>": 8899,
    "audio</w>": 8900,
    "metropolitan</w>": 8901,
    "exactly</w>": 8902,
    "tactics</w>": 8903,
    "criminal</w>": 8904,
    "violated</w>": 8905,
    "reas": 8906,
    "uncertain</w>": 8907,
    "appeals</w>": 8908,
    "challenged</w>": 8909,
    "steals</w>": 8910,
    "aire</w>": 8911,
    "tten</w>": 8912,
    "sentenced</w>": 8913,
    "nick</w>": 8914,
    "rodman</w>": 8915,
    "1969</w>": 8916,
    "openly</w>": 8917,
    "crowd</w>": 8918,
    "snow</w>": 8919,
    "inct</w>": 8920,
    "illin": 8921,
    "ike</w>": 8922,
    "occupying</w>": 8923,
    "theft</w>": 8924,
    "degrees</w>": 8925,
    "territorial</w>": 8926,
    "feats</w>": 8927,
    "manuscripts</w>": 8928,
    "intellectual</w>": 8929,
    "wartime</w>": 8930,
    "stanis": 8931,
    "stanisław</w>": 8932,
    "wł": 8933,
    "smu": 8934,
    "smugg": 8935,
    "ale": 8936,
    "doctoral</w>": 8937,
    "publisher</w>": 8938,
    "henry": 8939,
    "strength": 8940,
    "davies</w>": 8941,
    "uranium</w>": 8942,
    "reactors</w>": 8943,
    "köni": 8944,
    "könig</w>": 8945,
    "grosser</w>": 8946,
    "kurfü": 8947,
    "kurfür": 8948,
    "kurfürst</w>": 8949,
    "battlecruisers</w>": 8950,
    "faster</w>": 8951,
    "punch</w>": 8952,
    "peninsul": 8953,
    "peninsula</w>": 8954,
    "amphi": 8955,
    "itted</w>": 8956,
    "potentially</w>": 8957,
    "isles</w>": 8958,
    "settlers</w>": 8959,
    "well": 8960,
    "hut": 8961,
    "termed</w>": 8962,
    "markers</w>": 8963,
    "owns</w>": 8964,
    "slab": 8965,
    "fallen</w>": 8966,
    "remnants</w>": 8967,
    "tooth</w>": 8968,
    "140</w>": 8969,
    "wright</w>": 8970,
    "petri": 8971,
    "petrie</w>": 8972,
    "short": 8973,
    "sevast": 8974,
    "sevastop": 8975,
    "sevastopol</w>": 8976,
    "arter": 8977,
    "arterial</w>": 8978,
    "routes</w>": 8979,
    "1965</w>": 8980,
    "favour": 8981,
    "garage</w>": 8982,
    "stim": 8983,
    "weir": 8984,
    "weird</w>": 8985,
    "biggest</w>": 8986,
    "strongest</w>": 8987,
    "faith": 8988,
    "easter</w>": 8989,
    "ogen": 8990,
    "extr": 8991,
    "dac": 8992,
    "daco": 8993,
    "bhad": 8994,
    "bhaduri</w>": 8995,
    "agara</w>": 8996,
    "dialog": 8997,
    "dialogues</w>": 8998,
    "wart</w>": 8999,
    "basanti</w>": 9000,
    "friendship</w>": 9001,
    "iconic</w>": 9002,
    "here": 9003,
    "hereford</w>": 9004,
    "ester": 9005,
    "dium</w>": 9006,
    "wemb": 9007,
    "wembley</w>": 9008,
    "offering</w>": 9009,
    "junta</w>": 9010,
    "democrac": 9011,
    "democracy</w>": 9012,
    "unnamed</w>": 9013,
    "tium</w>": 9014,
    "lloy": 9015,
    "lloyd</w>": 9016,
    "guy</w>": 9017,
    "ji</w>": 9018,
    "swallowing</w>": 9019,
    "dramatic</w>": 9020,
    "liquid</w>": 9021,
    "frigate</w>": 9022,
    "pu</w>": 9023,
    "07</w>": 9024,
    "pretty</w>": 9025,
    "walking</w>": 9026,
    "rous</w>": 9027,
    "fleetw": 9028,
    "fleetwood</w>": 9029,
    "carson</w>": 9030,
    "coulson</w>": 9031,
    "neighb": 9032,
    "m3</w>": 9033,
    "sbf</w>": 9034,
    "neutron</w>": 9035,
    "honorary</w>": 9036,
    "discipline</w>": 9037,
    "1907</w>": 9038,
    "instructed</w>": 9039,
    "aly</w>": 9040,
    "hope</w>": 9041,
    "syria</w>": 9042,
    "chanc": 9043,
    "tribes</w>": 9044,
    "naples</w>": 9045,
    "osaur</w>": 9046,
    "verte": 9047,
    "maximus</w>": 9048,
    "sis</w>": 9049,
    "ax</w>": 9050,
    "ml</w>": 9051,
    "differentiation</w>": 9052,
    "labro": 9053,
    "labrosa": 9054,
    "labrosaurus</w>": 9055,
    "buc": 9056,
    "erman</w>": 9057,
    "baker</w>": 9058,
    "anne</w>": 9059,
    "oscar</w>": 9060,
    "plague</w>": 9061,
    "moral": 9062,
    "moralit": 9063,
    "moralitas</w>": 9064,
    "aes": 9065,
    "pitcher</w>": 9066,
    "stony</w>": 9067,
    "congregation</w>": 9068,
    "gers</w>": 9069,
    "omaha</w>": 9070,
    "×</w>": 9071,
    "virgin</w>": 9072,
    "kiss</w>": 9073,
    "freya</w>": 9074,
    "learns</w>": 9075,
    "grassland</w>": 9076,
    "crakes</w>": 9077,
    "migration</w>": 9078,
    "chro": 9079,
    "chromos": 9080,
    "chromosomal</w>": 9081,
    "fever</w>": 9082,
    "myelo": 9083,
    "genetic</w>": 9084,
    "fab</w>": 9085,
    "xinj": 9086,
    "xinjiang</w>": 9087,
    "slavery</w>": 9088,
    "refin": 9089,
    "log</w>": 9090,
    "steven</w>": 9091,
    "legitimate</w>": 9092,
    "stink": 9093,
    "stinkhorn</w>": 9094,
    "bishops</w>": 9095,
    "breed</w>": 9096,
    "oars</w>": 9097,
    "theoretical</w>": 9098,
    "mash</w>": 9099,
    "copper": 9100,
    "copperfield</w>": 9101,
    "compositions</w>": 9102,
    "danger": 9103,
    "dangerously</w>": 9104,
    "junyi</w>": 9105,
    "jin</w>": 9106,
    "abbot</w>": 9107,
    "tang</w>": 9108,
    "jing</w>": 9109,
    "mech</w>": 9110,
    "d5</w>": 9111,
    "jesuits</w>": 9112,
    "zelanti</w>": 9113,
    "typesetting</w>": 9114,
    "typography</w>": 9115,
    "fonts</w>": 9116,
    "pun</w>": 9117,
    "fragran": 9118,
    "fragrance</w>": 9119,
    "suba</w>": 9120,
    "pawn</w>": 9121,
    "e6</w>": 9122,
    "crac</w>": 9123,
    "baibars</w>": 9124,
    "herds</w>": 9125,
    "ducks</w>": 9126,
    "mother": 9127,
[...]
