{
  "vocab": {
    "×": 0,
    "ل": 1,
    "+": 2,
    "î": 3,
    "w": 4,
    "ć": 5,
    "α": 6,
    "ă": 7,
    "d": 8,
    "9": 9,
    "à": 10,
    "ử": 11,
    "μ": 12,
    "к": 13,
    "’": 14,
    "%": 15,
    "]": 16,
    "ê": 17,
    "ั": 18,
    "ị": 19,
    "=": 20,
    "^": 21,
    "5": 22,
    "攻": 23,
    "ł": 24,
    "g": 25,
    "่": 26,
    "‘": 27,
    "्": 28,
    "ả": 29,
    "b": 30,
    "⁄": 31,
    "火": 32,
    "ح": 33,
    "ç": 34,
    "ò": 35,
    "ơ": 36,
    "l": 37,
    "3": 38,
    "ュ": 39,
    "\"": 40,
    "ì": 41,
    "ი": 42,
    "プ": 43,
    "大": 44,
    "空": 45,
    "殻": 46,
    "კ": 47,
    "đ": 48,
    "þ": 49,
    "ớ": 50,
    "戦": 51,
    "ī": 52,
    "ấ": 53,
    "♯": 54,
    "რ": 55,
    "♭": 56,
    "ỳ": 57,
    "(": 58,
    "č": 59,
    "ร": 60,
    "ス": 61,
    "²": 62,
    "礮": 63,
    "⅓": 64,
    "°": 65,
    "я": 66,
    "უ": 67,
    "?": 68,
    "8": 69,
    "â": 70,
    "å": 71,
    "ṣ": 72,
    "£": 73,
    "ʻ": 74,
    "ė": 75,
    "т": 76,
    "x": 77,
    "დ": 78,
    "ṅ": 79,
    "ō": 80,
    "า": 81,
    "³": 82,
    "í": 83,
    "4": 84,
    "~": 85,
    "の": 86,
    "ḥ": 87,
    "₤": 88,
    "ü": 89,
    "·": 90,
    "₹": 91,
    "µ": 92,
    "ż": 93,
    "-": 94,
    "გ": 95,
    "е": 96,
    "а": 97,
    "〉": 98,
    "`": 99,
    "c": 100,
    "2": 101,
    "ه": 102,
    "﻿": 103,
    "$": 104,
    "u": 105,
    "t": 106,
    "ม": 107,
    "→": 108,
    "ṯ": 109,
    "キ": 110,
    "&": 111,
    "‑": 112,
    "в": 113,
    "n": 114,
    "</w>": 115,
    "ო": 116,
    "ძ": 117,
    "|": 118,
    "ッ": 119,
    "ʿ": 120,
    "ณ": 121,
    "ا": 122,
    "1": 123,
    "@": 124,
    "y": 125,
    "±": 126,
    "ų": 127,
    "″": 128,
    "β": 129,
    "−": 130,
    "о": 131,
    "ä": 132,
    "〈": 133,
    "ჯ": 134,
    "j": 135,
    "ก": 136,
    "ล": 137,
    "̃": 138,
    "ง": 139,
    "[": 140,
    "á": 141,
    "v": 142,
    "場": 143,
    ">": 144,
    "ž": 145,
    "☉": 146,
    "š": 147,
    "ắ": 148,
    "i": 149,
    "ā": 150,
    "～": 151,
    "ṃ": 152,
    "a": 153,
    "წ": 154,
    "隊": 155,
    ",": 156,
    "ú": 157,
    "⅔": 158,
    "≤": 159,
    "ū": 160,
    "ზ": 161,
    "\\": 162,
    "ს": 163,
    "z": 164,
    "o": 165,
    "動": 166,
    "#": 167,
    "ư": 168,
    "†": 169,
    "è": 170,
    "ë": 171,
    "s": 172,
    "6": 173,
    "¥": 174,
    "ص": 175,
    "ń": 176,
    "!": 177,
    "ầ": 178,
    "<": 179,
    "ิ": 180,
    "・": 181,
    "ś": 182,
    "/": 183,
    "機": 184,
    "½": 185,
    "”": 186,
    "„": 187,
    "k": 188,
    "–": 189,
    "¡": 190,
    "჻": 191,
    "κ": 192,
    "e": 193,
    "ş": 194,
    "ァ": 195,
    "ル": 196,
    "7": 197,
    "ö": 198,
    "h": 199,
    "ễ": 200,
    "f": 201,
    "ṭ": 202,
    "—": 203,
    "ô": 204,
    ":": 205,
    "ệ": 206,
    "m": 207,
    ".": 208,
    "p": 209,
    "с": 210,
    "ต": 211,
    "′": 212,
    "γ": 213,
    "ア": 214,
    "é": 215,
    "0": 216,
    "ვ": 217,
    ")": 218,
    "ย": 219,
    "'": 220,
    "r": 221,
    "ø": 222,
    "ხ": 223,
    "ã": 224,
    "ó": 225,
    ";": 226,
    "ト": 227,
    "“": 228,
    "ヴ": 229,
    "…": 230,
    "ñ": 231,
    "リ": 232,
    "์": 233,
    "ن": 234,
    "ც": 235,
    "æ": 236,
    "*": 237,
    "§": 238,
    "q": 239,
    "€": 240,
    "û": 241,
    "e</w>": 242,
    "th": 243,
    "s</w>": 244,
    "d</w>": 245,
    "n</w>": 246,
    "er": 247,
    "the</w>": 248,
    "t</w>": 249,
    "in": 250,
    "an": 251,
    ",</w>": 252,
    "y</w>": 253,
    "ed</w>": 254,
    ".</w>": 255,
    "un": 256,
    "or": 257,
    "ar": 258,
    "k</w>": 259,
    "al": 260,
    "o</w>": 261,
    "f</w>": 262,
    "re": 263,
    "ti": 264,
    "of</w>": 265,
    "a</w>": 266,
    "and</w>": 267,
    "on": 268,
    "en": 269,
    "unk</w>": 270,
    "<</w>": 271,
    "></w>": 272,
    "er</w>": 273,
    "on</w>": 274,
    "g</w>": 275,
    "in</w>": 276,
    "@</w>": 277,
    "ing</w>": 278,
    "ro": 279,
    "st": 280,
    "to</w>": 281,
    "as</w>": 282,
    "ch": 283,
    "es</w>": 284,
    "at": 285,
    "m</w>": 286,
    "hi": 287,
    "ou": 288,
    "=</w>": 289,
    "si": 290,
    "el": 291,
    "ri": 292,
    "\"</w>": 293,
    "at</w>": 294,
    "al</w>": 295,
    "an</w>": 296,
    "th</w>": 297,
    "li": 298,
    "for": 299,
    "co": 300,
    "st</w>": 301,
    "ac": 302,
    "am": 303,
    "ur": 304,
    "was</w>": 305,
    "di": 306,
    "l</w>": 307,
    "wi": 308,
    "de": 309,
    "ly</w>": 310,
    "en</w>": 311,
    "'</w>": 312,
    "se": 313,
    "sh": 314,
    "le": 315,
    "ir": 316,
    "tion</w>": 317,
    "it": 318,
    "be": 319,
    "ow": 320,
    "is</w>": 321,
    "-</w>": 322,
    "ic": 323,
    "as": 324,
    "le</w>": 325,
    "con": 326,
    "ch</w>": 327,
    "that</w>": 328,
    "ra": 329,
    "gh": 330,
    "for</w>": 331,
    "la": 332,
    "the": 333,
    "by</w>": 334,
    "ma": 335,
    "ve</w>": 336,
    "il": 337,
    "with</w>": 338,
    "ha": 339,
    "su": 340,
    "ent</w>": 341,
    "com": 342,
    "0</w>": 343,
    "vi": 344,
    "po": 345,
    "ent": 346,
    ")</w>": 347,
    "(</w>": 348,
    "ol": 349,
    "ere</w>": 350,
    "em": 351,
    "it</w>": 352,
    "ne": 353,
    "19": 354,
    "bu": 355,
    "ag": 356,
    "ce</w>": 357,
    "pro": 358,
    "se</w>": 359,
    "sp": 360,
    "ver": 361,
    "mo": 362,
    "or</w>": 363,
    "wh": 364,
    "ar</w>": 365,
    "ad": 366,
    "lo": 367,
    "p</w>": 368,
    "ers</w>": 369,
    "ted</w>": 370,
    "fro": 371,
    "from</w>": 372,
    "his</w>": 373,
    "ap": 374,
    "ci": 375,
    "whi": 376,
    "no": 377,
    "he</w>": 378,
    "tion": 379,
    "ab": 380,
    "is": 381,
    "ts</w>": 382,
    "om": 383,
    "ter</w>": 384,
    "ex": 385,
    "op": 386,
    "20": 387,
    "de</w>": 388,
    "ul": 389,
    "were</w>": 390,
    "ea": 391,
    "c</w>": 392,
    "par": 393,
    "ation</w>": 394,
    "ru": 395,
    "w</w>": 396,
    "pre": 397,
    "fe": 398,
    "ds</w>": 399,
    "au": 400,
    "ther</w>": 401,
    "du": 402,
    "i</w>": 403,
    "ter": 404,
    "cl": 405,
    "bo": 406,
    "tw": 407,
    "1</w>": 408,
    "ver</w>": 409,
    "qu": 410,
    "ated</w>": 411,
    "per": 412,
    "ate</w>": 413,
    "2</w>": 414,
    "5</w>": 415,
    "ame</w>": 416,
    "all</w>": 417,
    "man": 418,
    "ded</w>": 419,
    "ear": 420,
    "sc": 421,
    "one</w>": 422,
    "ta": 423,
    "are</w>": 424,
    "ding</w>": 425,
    "rec": 426,
    "ir</w>": 427,
    "our": 428,
    "had</w>": 429,
    "af": 430,
    "which</w>": 431,
    "ec": 432,
    "ld</w>": 433,
    "ing": 434,
    "me": 435,
    "3</w>": 436,
    "tr": 437,
    "be</w>": 438,
    "fir": 439,
    "ay</w>": 440,
    "ss</w>": 441,
    "fi": 442,
    "to": 443,
    "ong</w>": 444,
    "tim": 445,
    "4</w>": 446,
    "te</w>": 447,
    "so</w>": 448,
    "por": 449,
    "sed</w>": 450,
    "wor": 451,
    "out</w>": 452,
    "gu": 453,
    "gh</w>": 454,
    "ally</w>": 455,
    "6</w>": 456,
    "ber</w>": 457,
    "mar": 458,
    "ty</w>": 459,
    "im": 460,
    "tions</w>": 461,
    "ge</w>": 462,
    "ser": 463,
    "its</w>": 464,
    "8</w>": 465,
    "mi": 466,
    "this</w>": 467,
    "pl": 468,
    "low": 469,
    "ght</w>": 470,
    "sh</w>": 471,
    "tur": 472,
    "but</w>": 473,
    "um": 474,
    "rou": 475,
    "el</w>": 476,
    "ff": 477,
    "der": 478,
    "ved</w>": 479,
    "we": 480,
    "ine</w>": 481,
    "go": 482,
    "ce": 483,
    "their</w>": 484,
    "sion</w>": 485,
    "first</w>": 486,
    ";</w>": 487,
    "7</w>": 488,
    "oun": 489,
    "200": 490,
    "pla": 491,
    "not</w>": 492,
    "ity</w>": 493,
    "ke</w>": 494,
    "pu": 495,
    "clu": 496,
    "pe": 497,
    "own</w>": 498,
    "sa": 499,
    "ting</w>": 500,
    "–</w>": 501,
    "they</w>": 502,
    "att": 503,
    "ary</w>": 504,
    "also</w>": 505,
    "na": 506,
    "her</w>": 507,
    ":</w>": 508,
    "stor": 509,
    "te": 510,
    "ould</w>": 511,
    "after</w>": 512,
    "mu": 513,
    "gi": 514,
    "mor": 515,
    "9</w>": 516,
    "ran": 517,
    "other</w>": 518,
    "der</w>": 519,
    "oc": 520,
    "two</w>": 521,
    "et</w>": 522,
    "led</w>": 523,
    "cre": 524,
    "ment</w>": 525,
    "ev": 526,
    "shi": 527,
    "00</w>": 528,
    "have</w>": 529,
    "ard</w>": 530,
    "comm": 531,
    "ack</w>": 532,
    "ents</w>": 533,
    "ss": 534,
    "ali": 535,
    "us</w>": 536,
    "ni": 537,
    "has</w>": 538,
    "fin": 539,
    "car": 540,
    "min": 541,
    "been</w>": 542,
    "land</w>": 543,
    "cont": 544,
    "ies</w>": 545,
    "oo": 546,
    "age</w>": 547,
    "ence</w>": 548,
    "comp": 549,
    "duc": 550,
    "bri": 551,
    "king</w>": 552,
    "ks</w>": 553,
    "tic": 554,
    "ic</w>": 555,
    "ater</w>": 556,
    "who</w>": 557,
    "ely</w>": 558,
    "char": 559,
    "nor": 560,
    "ca": 561,
    "uring</w>": 562,
    "ge": 563,
    "som": 564,
    "201": 565,
    "so": 566,
    "she</w>": 567,
    "jo": 568,
    "sti": 569,
    "new</w>": 570,
    "ous</w>": 571,
    "time</w>": 572,
    "str": 573,
    "ph": 574,
    "tra": 575,
    "cent": 576,
    "ow</w>": 577,
    "ori": 578,
    "inclu": 579,
    "our</w>": 580,
    "during</w>": 581,
    "tive</w>": 582,
    "man</w>": 583,
    "ons</w>": 584,
    "sou": 585,
    "18": 586,
    "col": 587,
    "ned</w>": 588,
    "when</w>": 589,
    "tu": 590,
    "x</w>": 591,
    "ric": 592,
    "mon": 593,
    "bi": 594,
    "gre": 595,
    "ell</w>": 596,
    "sig": 597,
    "inter": 598,
    "play": 599,
    "ant</w>": 600,
    "ju": 601,
    "eng": 602,
    "do": 603,
    "lan": 604,
    "ad</w>": 605,
    "tional</w>": 606,
    "thou": 607,
    "more</w>": 608,
    "mil": 609,
    "ember</w>": 610,
    "son</w>": 611,
    "ei": 612,
    "ree</w>": 613,
    "gen": 614,
    "into</w>": 615,
    "most</w>": 616,
    "form": 617,
    "coun": 618,
    "up</w>": 619,
    "bec": 620,
    "ten": 621,
    "b</w>": 622,
    "ep": 623,
    "cor": 624,
    "ace</w>": 625,
    "way</w>": 626,
    "would</w>": 627,
    "ked</w>": 628,
    "gra": 629,
    "ound</w>": 630,
    "ure</w>": 631,
    "tt": 632,
    "pi": 633,
    "pa": 634,
    "fil": 635,
    "while</w>": 636,
    "pres": 637,
    "ased</w>": 638,
    "da": 639,
    "fa": 640,
    "spe": 641,
    "als</w>": 642,
    "over</w>": 643,
    "only</w>": 644,
    "res</w>": 645,
    "off": 646,
    "een</w>": 647,
    "re</w>": 648,
    "ern</w>": 649,
    "est": 650,
    "pri": 651,
    "able</w>": 652,
    "ving</w>": 653,
    "ga": 654,
    "ance</w>": 655,
    "ings</w>": 656,
    "id</w>": 657,
    "ined</w>": 658,
    "ft</w>": 659,
    "game</w>": 660,
    "ll</w>": 661,
    "fol": 662,
    "vel": 663,
    "ins</w>": 664,
    "ces</w>": 665,
    "seas": 666,
    "kn": 667,
    "stru": 668,
    "ke": 669,
    "loc": 670,
    "bli": 671,
    "wri": 672,
    "recor": 673,
    "fu": 674,
    "sy": 675,
    "ates</w>": 676,
    "ning</w>": 677,
    "ren": 678,
    "ber": 679,
    "vie": 680,
    "three</w>": 681,
    "tor": 682,
    "ties</w>": 683,
    "ited</w>": 684,
    "ste": 685,
    "about</w>": 686,
    "ical</w>": 687,
    "than</w>": 688,
    "speci": 689,
    "shed</w>": 690,
    "later</w>": 691,
    "old</w>": 692,
    "sel": 693,
    "lar": 694,
    "ps</w>": 695,
    "publi": 696,
    "ys</w>": 697,
    "throu": 698,
    "ye": 699,
    "may</w>": 700,
    "uni": 701,
    "aga": 702,
    "tic</w>": 703,
    "les</w>": 704,
    "end</w>": 705,
    "though</w>": 706,
    "betw": 707,
    "between</w>": 708,
    "him</w>": 709,
    "ever</w>": 710,
    "199": 711,
    "follow": 712,
    "tro": 713,
    "ase</w>": 714,
    "ue</w>": 715,
    "song</w>": 716,
    "ship</w>": 717,
    "some</w>": 718,
    "day</w>": 719,
    "scri": 720,
    "ble</w>": 721,
    "star": 722,
    "dy</w>": 723,
    "there</w>": 724,
    "ok</w>": 725,
    "ssi": 726,
    "ves</w>": 727,
    "rea": 728,
    "num": 729,
    "any</w>": 730,
    "rele": 731,
    "vic": 732,
    "no</w>": 733,
    "red</w>": 734,
    "hel": 735,
    "um</w>": 736,
    "ho": 737,
    "tri": 738,
    "ang": 739,
    "ari": 740,
    "est</w>": 741,
    "all": 742,
    "ears</w>": 743,
    "amer": 744,
    "produc": 745,
    "season</w>": 746,
    "fore</w>": 747,
    "war": 748,
    "secon": 749,
    "struc": 750,
    "gin": 751,
    "app": 752,
    "sing</w>": 753,
    "used</w>": 754,
    "pp": 755,
    "sur": 756,
    "ans</w>": 757,
    "emp": 758,
    "bro": 759,
    "year</w>": 760,
    "city</w>": 761,
    "sin": 762,
    "made</w>": 763,
    "where</w>": 764,
    "can": 765,
    "bl": 766,
    "with": 767,
    "of": 768,
    "many</w>": 769,
    "sch": 770,
    "ms</w>": 771,
    "cu": 772,
    "gro": 773,
    "americ": 774,
    "cri": 775,
    "are": 776,
    "such</w>": 777,
    "u</w>": 778,
    "musi": 779,
    "bel": 780,
    "albu": 781,
    "how": 782,
    "before</w>": 783,
    "ury</w>": 784,
    "dis": 785,
    "buil": 786,
    "000</w>": 787,
    "sts</w>": 788,
    "ames</w>": 789,
    "them</w>": 790,
    "stu": 791,
    "ve": 792,
    "sub": 793,
    "ating</w>": 794,
    "series</w>": 795,
    "ong": 796,
    "od</w>": 797,
    "ani": 798,
    "gener": 799,
    "ses</w>": 800,
    "enti": 801,
    "world</w>": 802,
    "can</w>": 803,
    "second</w>": 804,
    "ef": 805,
    "well</w>": 806,
    "cal": 807,
    "being</w>": 808,
    "years</w>": 809,
    "both</w>": 810,
    "ations</w>": 811,
    "these</w>": 812,
    "cap": 813,
    "he": 814,
    "gan</w>": 815,
    "national</w>": 816,
    "ters</w>": 817,
    "ture</w>": 818,
    "posi": 819,
    "side</w>": 820,
    "des</w>": 821,
    "histor": 822,
    "port</w>": 823,
    "film</w>": 824,
    "mis": 825,
    "indi": 826,
    "wa": 827,
    "fe</w>": 828,
    "olo": 829,
    "however</w>": 830,
    "poin": 831,
    "and": 832,
    "ill": 833,
    "my</w>": 834,
    "war</w>": 835,
    "und</w>": 836,
    "fer": 837,
    "album</w>": 838,
    "then</w>": 839,
    "through</w>": 840,
    "known</w>": 841,
    "bar": 842,
    "poli": 843,
    "south</w>": 844,
    "mat": 845,
    "her": 846,
    "fl": 847,
    "sing": 848,
    "cer": 849,
    "vision</w>": 850,
    "direc": 851,
    "sever": 852,
    "h</w>": 853,
    "north</w>": 854,
    "bor": 855,
    "sted</w>": 856,
    "part</w>": 857,
    "hou": 858,
    "iso": 859,
    "tran": 860,
    "fic": 861,
    "sup": 862,
    "hea": 863,
    "ced</w>": 864,
    "state</w>": 865,
    "peri": 866,
    "pen": 867,
    "very</w>": 868,
    "tre": 869,
    "fac": 870,
    "me</w>": 871,
    "early</w>": 872,
    "cro": 873,
    "vo": 874,
    "consi": 875,
    "tain</w>": 876,
    "line</w>": 877,
    "jec": 878,
    "ele": 879,
    "devel": 880,
    "ying</w>": 881,
    "ster</w>": 882,
    "batt": 883,
    "several</w>": 884,
    "ause</w>": 885,
    "offic": 886,
    "tea": 887,
    "ched</w>": 888,
    "tor</w>": 889,
    "cur": 890,
    "number</w>": 891,
    "high": 892,
    "charac": 893,
    "pr": 894,
    "including</w>": 895,
    "again": 896,
    "against</w>": 897,
    "descri": 898,
    "nam": 899,
    "ton</w>": 900,
    "oper": 901,
    "episo": 902,
    "ven</w>": 903,
    "/</w>": 904,
    "under</w>": 905,
    "yp": 906,
    "ry</w>": 907,
    "became</w>": 908,
    "tho": 909,
    "tly</w>": 910,
    "—</w>": 911,
    "ement</w>": 912,
    "four</w>": 913,
    "united</w>": 914,
    "win": 915,
    "tes</w>": 916,
    "gr": 917,
    "like</w>": 918,
    "joh": 919,
    "soci": 920,
    "sul": 921,
    "dre": 922,
    "198": 923,
    "fec": 924,
    "air": 925,
    "nov": 926,
    "reg": 927,
    "cam": 928,
    "ger": 929,
    "suc": 930,
    "ba": 931,
    "although</w>": 932,
    "develop": 933,
    "low</w>": 934,
    "ass</w>": 935,
    "ob": 936,
    "ale</w>": 937,
    "10</w>": 938,
    "music</w>": 939,
    "century</w>": 940,
    "origin": 941,
    "ed": 942,
    "contin": 943,
    "succe": 944,
    "ward</w>": 945,
    "ular</w>": 946,
    "comple": 947,
    "following</w>": 948,
    "work</w>": 949,
    "tish</w>": 950,
    "rema": 951,
    "lion</w>": 952,
    "sm": 953,
    "tow": 954,
    "ami": 955,
    "chur": 956,
    "ws</w>": 957,
    "gover": 958,
    "don</w>": 959,
    "hom": 960,
    "eu": 961,
    "z</w>": 962,
    "west</w>": 963,
    "began</w>": 964,
    "resp": 965,
    "stern</w>": 966,
    "diff": 967,
    "ered</w>": 968,
    "back</w>": 969,
    "do</w>": 970,
    "ann": 971,
    "because</w>": 972,
    "197": 973,
    "196": 974,
    "r</w>": 975,
    "dent</w>": 976,
    "shor": 977,
    "194": 978,
    "dist": 979,
    "gy</w>": 980,
    "ns</w>": 981,
    "called</w>": 982,
    "peop": 983,
    "episode</w>": 984,
    "bed</w>": 985,
    "0s</w>": 986,
    "vol": 987,
    "found</w>": 988,
    "ell": 989,
    "cle": 990,
    "self</w>": 991,
    "desig": 992,
    "ven": 993,
    "unti": 994,
    "you": 995,
    "said</w>": 996,
    "sta": 997,
    "ll": 998,
    "area</w>": 999,
    "medi": 1000,
    "each</w>": 1001,
    "set</w>": 1002,
    "try</w>": 1003,
    "recei": 1004,
    "until</w>": 1005,
    "feat": 1006,
    "ining</w>": 1007,
    "pt": 1008,
    "could</w>": 1009,
    "es": 1010,
    "ack": 1011,
    "une</w>": 1012,
    "ast</w>": 1013,
    "grou": 1014,
    "dra": 1015,
    "dec": 1016,
    "fiel": 1017,
    "states</w>": 1018,
    "american</w>": 1019,
    "br": 1020,
    "zed</w>": 1021,
    "people</w>": 1022,
    "down</w>": 1023,
    "cla": 1024,
    "govern": 1025,
    "life</w>": 1026,
    "since</w>": 1027,
    "released</w>": 1028,
    "retur": 1029,
    "lec": 1030,
    "off</w>": 1031,
    "british</w>": 1032,
    "arch": 1033,
    "trac": 1034,
    "ley</w>": 1035,
    "wee": 1036,
    "mem": 1037,
    "same</w>": 1038,
    "pow": 1039,
    "har": 1040,
    "ten</w>": 1041,
    "phi": 1042,
    "tical</w>": 1043,
    "times</w>": 1044,
    "team</w>": 1045,
    "clo": 1046,
    "maj": 1047,
    "cra": 1048,
    "ork</w>": 1049,
    "did</w>": 1050,
    "long</w>": 1051,
    "care": 1052,
    "church</w>": 1053,
    "around</w>": 1054,
    "appear": 1055,
    "ful</w>": 1056,
    "ie": 1057,
    "ii</w>": 1058,
    "foo": 1059,
    "ite</w>": 1060,
    "20</w>": 1061,
    "fre": 1062,
    "along</w>": 1063,
    "lation</w>": 1064,
    "thern</w>": 1065,
    "ors</w>": 1066,
    "ini": 1067,
    "30</w>": 1068,
    "ines</w>": 1069,
    "dered</w>": 1070,
    "stan": 1071,
    "ird</w>": 1072,
    "come</w>": 1073,
    "fami": 1074,
    "million</w>": 1075,
    "hu": 1076,
    "under": 1077,
    "company</w>": 1078,
    "ine": 1079,
    "five</w>": 1080,
    "formed</w>": 1081,
    "ball</w>": 1082,
    "jan": 1083,
    "augu": 1084,
    "play</w>": 1085,
    "chri": 1086,
    "use</w>": 1087,
    "del": 1088,
    "ial</w>": 1089,
    "river</w>": 1090,
    "wal": 1091,
    "scor": 1092,
    "ck</w>": 1093,
    "john</w>": 1094,
    "what</w>": 1095,
    "il</w>": 1096,
    "mp": 1097,
    "50</w>": 1098,
    "plac": 1099,
    "high</w>": 1100,
    "wil": 1101,
    "men</w>": 1102,
    "form</w>": 1103,
    "tiv": 1104,
    "continu": 1105,
    "another</w>": 1106,
    "if</w>": 1107,
    "dition</w>": 1108,
    "assi": 1109,
    "final</w>": 1110,
    "bur": 1111,
    "best</w>": 1112,
    "versi": 1113,
    "contro": 1114,
    "now</w>": 1115,
    "austr": 1116,
    "def": 1117,
    "fur": 1118,
    "%</w>": 1119,
    "you</w>": 1120,
    "sol": 1121,
    "v</w>": 1122,
    "chil": 1123,
    "cep": 1124,
    "fran": 1125,
    "sept": 1126,
    "tal</w>": 1127,
    "ner</w>": 1128,
    "september</w>": 1129,
    "am</w>": 1130,
    "august</w>": 1131,
    "sk": 1132,
    "sec": 1133,
    "road</w>": 1134,
    "ented</w>": 1135,
    "large</w>": 1136,
    "ful": 1137,
    "val": 1138,
    "out": 1139,
    "tics</w>": 1140,
    "australi": 1141,
    "ards</w>": 1142,
    "vari": 1143,
    "spor": 1144,
    "light</w>": 1145,
    "resul": 1146,
    "fr": 1147,
    "tit": 1148,
    "ches</w>": 1149,
    "yl": 1150,
    "hal": 1151,
    "fri": 1152,
    "roy": 1153,
    "leag": 1154,
    "ade</w>": 1155,
    "km</w>": 1156,
    "games</w>": 1157,
    "species</w>": 1158,
    "due</w>": 1159,
    "field</w>": 1160,
    "sen": 1161,
    "euro": 1162,
    "wn</w>": 1163,
    "port": 1164,
    "pas": 1165,
    "construc": 1166,
    "dom": 1167,
    "cul": 1168,
    "history</w>": 1169,
    "15</w>": 1170,
    "name</w>": 1171,
    "stem</w>": 1172,
    "will</w>": 1173,
    "june</w>": 1174,
    "even</w>": 1175,
    "va": 1176,
    "den": 1177,
    "white</w>": 1178,
    "public</w>": 1179,
    "tary</w>": 1180,
    "over": 1181,
    "adv": 1182,
    "vide": 1183,
    "visi": 1184,
    "12</w>": 1185,
    "exp": 1186,
    "revie": 1187,
    "ig": 1188,
    "dge</w>": 1189,
    "storm</w>": 1190,
    "elec": 1191,
    "med</w>": 1192,
    "195": 1193,
    "ath": 1194,
    "bers</w>": 1195,
    "inten": 1196,
    "incre": 1197,
    "arly</w>": 1198,
    "ple</w>": 1199,
    "ments</w>": 1200,
    "east</w>": 1201,
    "home</w>": 1202,
    "received</w>": 1203,
    "appro": 1204,
    "om</w>": 1205,
    "typ": 1206,
    "dam": 1207,
    "late</w>": 1208,
    "ane</w>": 1209,
    "ised</w>": 1210,
    "took</w>": 1211,
    "up": 1212,
    "described</w>": 1213,
    "accor": 1214,
    "sho": 1215,
    "ately</w>": 1216,
    "government</w>": 1217,
    "ently</w>": 1218,
    "family</w>": 1219,
    "six</w>": 1220,
    "reli": 1221,
    "within</w>": 1222,
    "place</w>": 1223,
    "much</w>": 1224,
    "hur": 1225,
    "chan": 1226,
    "deci": 1227,
    "ground</w>": 1228,
    "eg": 1229,
    "group</w>": 1230,
    "sive</w>": 1231,
    "val</w>": 1232,
    "cal</w>": 1233,
    "league</w>": 1234,
    "played</w>": 1235,
    "ral</w>": 1236,
    "fied</w>": 1237,
    "moun": 1238,
    "cham": 1239,
    "octo": 1240,
    "october</w>": 1241,
    "cour": 1242,
    "$</w>": 1243,
    "son": 1244,
    "sci": 1245,
    "moved</w>": 1246,
    "hor": 1247,
    "pop": 1248,
    "ta</w>": 1249,
    "provi": 1250,
    "ships</w>": 1251,
    "book</w>": 1252,
    "general</w>": 1253,
    "193": 1254,
    "pical</w>": 1255,
    "system</w>": 1256,
    "kes</w>": 1257,
    "loo": 1258,
    "rela": 1259,
    "ath</w>": 1260,
    "respon": 1261,
    "da</w>": 1262,
    "cover": 1263,
    "[</w>": 1264,
    "]</w>": 1265,
    "major</w>": 1266,
    "town</w>": 1267,
    "named</w>": 1268,
    "wro": 1269,
    "wrote</w>": 1270,
    "position</w>": 1271,
    "den</w>": 1272,
    "water</w>": 1273,
    "won</w>": 1274,
    "july</w>": 1275,
    "ported</w>": 1276,
    "single</w>": 1277,
    "ened</w>": 1278,
    "ice</w>": 1279,
    "cau": 1280,
    "ged</w>": 1281,
    "ia</w>": 1282,
    "lead": 1283,
    "inst": 1284,
    "cou": 1285,
    "video</w>": 1286,
    "arti": 1287,
    "sequ": 1288,
    "according</w>": 1289,
    "uary</w>": 1290,
    "mag": 1291,
    "song": 1292,
    "apri": 1293,
    "bru": 1294,
    "main</w>": 1295,
    "record</w>": 1296,
    "manag": 1297,
    "16": 1298,
    "third</w>": 1299,
    "we</w>": 1300,
    "kil": 1301,
    "regi": 1302,
    "ther": 1303,
    "based</w>": 1304,
    "ban": 1305,
    "ory</w>": 1306,
    "april</w>": 1307,
    "org": 1308,
    "just</w>": 1309,
    "17": 1310,
    "fun": 1311,
    "bra": 1312,
    "act</w>": 1313,
    "estab": 1314,
    "establi": 1315,
    "included</w>": 1316,
    "stre": 1317,
    "tici": 1318,
    "march</w>": 1319,
    "dom</w>": 1320,
    "lity</w>": 1321,
    "show</w>": 1322,
    "built</w>": 1323,
    "tory</w>": 1324,
    "posed</w>": 1325,
    "tropical</w>": 1326,
    "those</w>": 1327,
    "january</w>": 1328,
    "ool</w>": 1329,
    "16</w>": 1330,
    "25</w>": 1331,
    "ken</w>": 1332,
    "house</w>": 1333,
    "england</w>": 1334,
    "14</w>": 1335,
    "sis</w>": 1336,
    "attemp": 1337,
    "last</w>": 1338,
    "18</w>": 1339,
    "left</w>": 1340,
    "auth": 1341,
    "york</w>": 1342,
    "original</w>": 1343,
    "differ": 1344,
    "previ": 1345,
    "squ": 1346,
    "tru": 1347,
    "club</w>": 1348,
    "small</w>": 1349,
    "school</w>": 1350,
    "vil": 1351,
    "studi": 1352,
    "woo": 1353,
    "plan": 1354,
    "pit": 1355,
    "some": 1356,
    "servic": 1357,
    "ology</w>": 1358,
    "thing</w>": 1359,
    "ord": 1360,
    "division</w>": 1361,
    "ens</w>": 1362,
    "stri": 1363,
    "near</w>": 1364,
    "pic": 1365,
    "je": 1366,
    "ly": 1367,
    "lim": 1368,
    "ze</w>": 1369,
    "november</w>": 1370,
    "wat": 1371,
    "lic": 1372,
    "mili": 1373,
    "track</w>": 1374,
    "player</w>": 1375,
    "sting</w>": 1376,
    "tele": 1377,
    "death</w>": 1378,
    "less</w>": 1379,
    "desp": 1380,
    "vy</w>": 1381,
    "11</w>": 1382,
    "ements</w>": 1383,
    "december</w>": 1384,
    "comman": 1385,
    "top</w>": 1386,
    "simil": 1387,
    "prote": 1388,
    "ina</w>": 1389,
    "wom": 1390,
    "prin": 1391,
    "head</w>": 1392,
    "character</w>": 1393,
    "star</w>": 1394,
    "songs</w>": 1395,
    "defen": 1396,
    "fel": 1397,
    "hurric": 1398,
    "nex": 1399,
    "bir": 1400,
    "pe</w>": 1401,
    "universi": 1402,
    "gge": 1403,
    "site</w>": 1404,
    "ker</w>": 1405,
    "initi": 1406,
    "band</w>": 1407,
    "ject</w>": 1408,
    "nat": 1409,
    "ats</w>": 1410,
    "flu": 1411,
    "sco": 1412,
    "champi": 1413,
    "thers</w>": 1414,
    "ams</w>": 1415,
    "dic": 1416,
    "ger</w>": 1417,
    "black</w>": 1418,
    "ous": 1419,
    "yed</w>": 1420,
    "13</w>": 1421,
    "inf": 1422,
    "prob": 1423,
    "german</w>": 1424,
    "ross</w>": 1425,
    "island</w>": 1426,
    "dest": 1427,
    "ital</w>": 1428,
    "next</w>": 1429,
    "lea": 1430,
    "still</w>": 1431,
    "2009</w>": 1432,
    "scen": 1433,
    "requ": 1434,
    "cha": 1435,
    "tten</w>": 1436,
    "read": 1437,
    "make</w>": 1438,
    "fle": 1439,
    "2008</w>": 1440,
    "2010</w>": 1441,
    "ling</w>": 1442,
    "issu": 1443,
    "youn": 1444,
    "ti</w>": 1445,
    "leg": 1446,
    "stra": 1447,
    "run": 1448,
    "if": 1449,
    "bs</w>": 1450,
    "forman": 1451,
    "ribu": 1452,
    "wing</w>": 1453,
    "ening</w>": 1454,
    "dence</w>": 1455,
    "feder": 1456,
    "cy</w>": 1457,
    "ony</w>": 1458,
    "love</w>": 1459,
    "gar": 1460,
    "success": 1461,
    "ese</w>": 1462,
    "role</w>": 1463,
    "possi": 1464,
    "effec": 1465,
    "pat": 1466,
    "ph</w>": 1467,
    "17</w>": 1468,
    "performan": 1469,
    "force</w>": 1470,
    "again</w>": 1471,
    "lish</w>": 1472,
    "ham": 1473,
    "production</w>": 1474,
    "cho": 1475,
    "vel</w>": 1476,
    "trans": 1477,
    "power</w>": 1478,
    "ures</w>": 1479,
    "career</w>": 1480,
    "university</w>": 1481,
    "ected</w>": 1482,
    "without</w>": 1483,
    "fini": 1484,
    "pur": 1485,
    "recorded</w>": 1486,
    "served</w>": 1487,
    "stitu": 1488,
    "often</w>": 1489,
    "among</w>": 1490,
    "version</w>": 1491,
    "ery</w>": 1492,
    "hum": 1493,
    "further</w>": 1494,
    "hurricane</w>": 1495,
    "quar": 1496,
    "military</w>": 1497,
    "per</w>": 1498,
    "point</w>": 1499,
    "period</w>": 1500,
    "sem": 1501,
    "19</w>": 1502,
    "story</w>": 1503,
    "ired</w>": 1504,
    "continued</w>": 1505,
    "local</w>": 1506,
    "ages</w>": 1507,
    "100</w>": 1508,
    "new": 1509,
    "considered</w>": 1510,
    "els</w>": 1511,
    "battali": 1512,
    "hol": 1513,
    "us": 1514,
    "awar": 1515,
    "army</w>": 1516,
    "hin": 1517,
    "art</w>": 1518,
    "iled</w>": 1519,
    "release</w>": 1520,
    "published</w>": 1521,
    "sugge": 1522,
    "2007</w>": 1523,
    "sty": 1524,
    "mini": 1525,
    "sses</w>": 1526,
    "ried</w>": 1527,
    "great</w>": 1528,
    "half</w>": 1529,
    "ously</w>": 1530,
    "days</w>": 1531,
    "fren": 1532,
    "written</w>": 1533,
    "allow": 1534,
    "chang": 1535,
    "associ": 1536,
    "vir": 1537,
    "take</w>": 1538,
    "repres": 1539,
    "mer": 1540,
    "ching</w>": 1541,
    "held</w>": 1542,
    "came</w>": 1543,
    "mc": 1544,
    "order</w>": 1545,
    "mer</w>": 1546,
    "import": 1547,
    "former</w>": 1548,
    "run</w>": 1549,
    "wan": 1550,
    "ign</w>": 1551,
    "brig": 1552,
    "lon": 1553,
    "forces</w>": 1554,
    "action</w>": 1555,
    "head": 1556,
    "english</w>": 1557,
    "moder": 1558,
    "go</w>": 1559,
    "ality</w>": 1560,
    "eight</w>": 1561,
    "nu": 1562,
    "ttle</w>": 1563,
    "ended</w>": 1564,
    "tin</w>": 1565,
    "route</w>": 1566,
    "ligh": 1567,
    "french</w>": 1568,
    "tors</w>": 1569,
    "refer": 1570,
    "live</w>": 1571,
    "ler</w>": 1572,
    "ant": 1573,
    "support</w>": 1574,
    "id": 1575,
    "popu": 1576,
    "body</w>": 1577,
    "21</w>": 1578,
    "ales</w>": 1579,
    "signed</w>": 1580,
    "tively</w>": 1581,
    "foun": 1582,
    "pra": 1583,
    "dro": 1584,
    "exam": 1585,
    "few</w>": 1586,
    "compe": 1587,
    "ston</w>": 1588,
    "doc": 1589,
    "dri": 1590,
    "international</w>": 1591,
    "having</w>": 1592,
    "hy": 1593,
    "sum": 1594,
    "childre": 1595,
    "children</w>": 1596,
    "county</w>": 1597,
    "partic": 1598,
    "aged</w>": 1599,
    "through": 1600,
    "throughout</w>": 1601,
    "poe": 1602,
    "2011</w>": 1603,
    "depen": 1604,
    "han": 1605,
    "placed</w>": 1606,
    "become</w>": 1607,
    "ram": 1608,
    "ths</w>": 1609,
    "writing</w>": 1610,
    "2006</w>": 1611,
    "met": 1612,
    "ult</w>": 1613,
    "ring</w>": 1614,
    "development</w>": 1615,
    "ences</w>": 1616,
    "presi": 1617,
    "common</w>": 1618,
    "belie": 1619,
    "title</w>": 1620,
    "whe": 1621,
    "construction</w>": 1622,
    "cru": 1623,
    "members</w>": 1624,
    "get</w>": 1625,
    "show": 1626,
    "signi": 1627,
    "23</w>": 1628,
    "lost</w>": 1629,
    "ol</w>": 1630,
    "cess</w>": 1631,
    "different</w>": 1632,
    "hun": 1633,
    "foot": 1634,
    "western</w>": 1635,
    "fron": 1636,
    "iri": 1637,
    "&</w>": 1638,
    "similar</w>": 1639,
    "collec": 1640,
    "face</w>": 1641,
    "fort</w>": 1642,
    "ka": 1643,
    "28</w>": 1644,
    "cy": 1645,
    "gran": 1646,
    "despite</w>": 1647,
    "ess</w>": 1648,
    "ian</w>": 1649,
    "cial</w>": 1650,
    "san": 1651,
    "ja": 1652,
    "park</w>": 1653,
    "produced</w>": 1654,
    "febru": 1655,
    "february</w>": 1656,
    "exten": 1657,
    "brea": 1658,
    "fire</w>": 1659,
    "disp": 1660,
    "mid": 1661,
    "mation</w>": 1662,
    "ders</w>": 1663,
    "claim": 1664,
    "24</w>": 1665,
    "win</w>": 1666,
    "decl": 1667,
    "person": 1668,
    "gave</w>": 1669,
    "ach</w>": 1670,
    "comb": 1671,
    "short</w>": 1672,
    "board</w>": 1673,
    "southern</w>": 1674,
    "ire": 1675,
    "arch</w>": 1676,
    "dou": 1677,
    "ek</w>": 1678,
    "!</w>": 1679,
    "little</w>": 1680,
    "bert</w>": 1681,
    "tter</w>": 1682,
    "men": 1683,
    "dyl": 1684,
    "dylan</w>": 1685,
    "ise</w>": 1686,
    "using</w>": 1687,
    "22</w>": 1688,
    "ead</w>": 1689,
    "cas": 1690,
    "central</w>": 1691,
    "fem": 1692,
    "40</w>": 1693,
    "once</w>": 1694,
    "ep</w>": 1695,
    "2012</w>": 1696,
    "television</w>": 1697,
    "ually</w>": 1698,
    "mul": 1699,
    "onal</w>": 1700,
    "sor": 1701,
    "resi": 1702,
    "given</w>": 1703,
    "lin": 1704,
    "dar": 1705,
    "ems</w>": 1706,
    "away</w>": 1707,
    "influ": 1708,
    "bas": 1709,
    "oli": 1710,
    "defe": 1711,
    "gest</w>": 1712,
    "control</w>": 1713,
    "my": 1714,
    "total</w>": 1715,
    "pos": 1716,
    "arri": 1717,
    "country</w>": 1718,
    "ours</w>": 1719,
    "covered</w>": 1720,
    "signific": 1721,
    "geor": 1722,
    "bre": 1723,
    "prot": 1724,
    "commun": 1725,
    "service</w>": 1726,
    "na</w>": 1727,
    "pal": 1728,
    "lu": 1729,
    "stated</w>": 1730,
    "ured</w>": 1731,
    "main": 1732,
    "tation</w>": 1733,
    "northern</w>": 1734,
    "seen</w>": 1735,
    "air</w>": 1736,
    "radi": 1737,
    "how</w>": 1738,
    "building</w>": 1739,
    "ick</w>": 1740,
    "bal": 1741,
    "jap": 1742,
    "ety</w>": 1743,
    "attack</w>": 1744,
    "making</w>": 1745,
    "guit": 1746,
    "ford</w>": 1747,
    "ck": 1748,
    "concer": 1749,
    "ire</w>": 1750,
    "include</w>": 1751,
    "ges</w>": 1752,
    "young</w>": 1753,
    "invol": 1754,
    "lead</w>": 1755,
    "plo": 1756,
    "who": 1757,
    "agre": 1758,
    "open</w>": 1759,
    "non</w>": 1760,
    "king": 1761,
    "tour</w>": 1762,
    "spec": 1763,
    "anno": 1764,
    "battalion</w>": 1765,
    "father</w>": 1766,
    "stone</w>": 1767,
    "26</w>": 1768,
    "conta": 1769,
    "craft</w>": 1770,
    "style</w>": 1771,
    "never</w>": 1772,
    "range</w>": 1773,
    "tex": 1774,
    "ops</w>": 1775,
    "developed</w>": 1776,
    "seven</w>": 1777,
    "ness</w>": 1778,
    "dents</w>": 1779,
    "shing</w>": 1780,
    "lies</w>": 1781,
    "evi": 1782,
    "night</w>": 1783,
    "occur": 1784,
    "ditional</w>": 1785,
    "tan": 1786,
    "2013</w>": 1787,
    "reported</w>": 1788,
    "gun": 1789,
    "match</w>": 1790,
    "battle</w>": 1791,
    "highway</w>": 1792,
    "good</w>": 1793,
    "ney</w>": 1794,
    "sent</w>": 1795,
    "acti": 1796,
    "ones</w>": 1797,
    "eastern</w>": 1798,
    "organi": 1799,
    "ny</w>": 1800,
    "indu": 1801,
    "gical</w>": 1802,
    "ways</w>": 1803,
    "part": 1804,
    "bit": 1805,
    "coming</w>": 1806,
    "equ": 1807,
    "fif": 1808,
    "located</w>": 1809,
    "established</w>": 1810,
    "int": 1811,
    "god</w>": 1812,
    "wea": 1813,
    "went</w>": 1814,
    "tech": 1815,
    "ls</w>": 1816,
    "across</w>": 1817,
    "right</w>": 1818,
    "instead</w>": 1819,
    "willi": 1820,
    "returned</w>": 1821,
    "ped</w>": 1822,
    "intro": 1823,
    "event": 1824,
    "earli": 1825,
    "week</w>": 1826,
    "ham</w>": 1827,
    "sea</w>": 1828,
    "ual</w>": 1829,
    "mari": 1830,
    "full</w>": 1831,
    "champion": 1832,
    "stat": 1833,
    "dow": 1834,
    "population</w>": 1835,
    "modern</w>": 1836,
    "lat": 1837,
    "int</w>": 1838,
    "os</w>": 1839,
    "america</w>": 1840,
    "xim": 1841,
    "ore</w>": 1842,
    "exi": 1843,
    "noted</w>": 1844,
    "gl": 1845,
    "lands</w>": 1846,
    "duced</w>": 1847,
    "announ": 1848,
    "died</w>": 1849,
    "royal</w>": 1850,
    "view</w>": 1851,
    "ental</w>": 1852,
    "reached</w>": 1853,
    "scrip": 1854,
    "him": 1855,
    "ri</w>": 1856,
    "rock</w>": 1857,
    "co</w>": 1858,
    "players</w>": 1859,
    "cast</w>": 1860,
    "ireland</w>": 1861,
    "change</w>": 1862,
    "see</w>": 1863,
    "brigade</w>": 1864,
    "tem": 1865,
    "bat": 1866,
    "190": 1867,
    "reco": 1868,
    "tting</w>": 1869,
    "ach": 1870,
    "president</w>": 1871,
    "regim": 1872,
    "ide": 1873,
    "ur</w>": 1874,
    "result</w>": 1875,
    "hear": 1876,
    "thought</w>": 1877,
    "im</w>": 1878,
    "attac": 1879,
    "ko": 1880,
    "afric": 1881,
    "stry</w>": 1882,
    "ogra": 1883,
    "villa": 1884,
    "performance</w>": 1885,
    "ough</w>": 1886,
    "sour": 1887,
    "abi": 1888,
    "miles</w>": 1889,
    "london</w>": 1890,
    "station</w>": 1891,
    "wit": 1892,
    "himself</w>": 1893,
    "important</w>": 1894,
    "felt</w>": 1895,
    "ority</w>": 1896,
    "performed</w>": 1897,
    "ator</w>": 1898,
    "end": 1899,
    "que</w>": 1900,
    "appe": 1901,
    "op</w>": 1902,
    "minu": 1903,
    "date</w>": 1904,
    "10": 1905,
    "mary</w>": 1906,
    "pression</w>": 1907,
    "27</w>": 1908,
    "various</w>": 1909,
    "don": 1910,
    "row</w>": 1911,
    "australia</w>": 1912,
    "four": 1913,
    "works</w>": 1914,
    "29</w>": 1915,
    "et": 1916,
    "edi": 1917,
    "ably</w>": 1918,
    "feet</w>": 1919,
    "street</w>": 1920,
    "areas</w>": 1921,
    "previous</w>": 1922,
    "formation</w>": 1923,
    "events</w>": 1924,
    "ural</w>": 1925,
    "ends</w>": 1926,
    "disc": 1927,
    "pea": 1928,
    "cat": 1929,
    "pped</w>": 1930,
    "ering</w>": 1931,
    "experi": 1932,
    "suff": 1933,
    "mm</w>": 1934,
    "mix": 1935,
    "too</w>": 1936,
    "civi": 1937,
    "nec": 1938,
    "thre": 1939,
    "kingdom</w>": 1940,
    "guitar</w>": 1941,
    "human</w>": 1942,
    "hon": 1943,
    "serv": 1944,
    "football</w>": 1945,
    "ill</w>": 1946,
    "gaz": 1947,
    "others</w>": 1948,
    "originally</w>": 1949,
    "project</w>": 1950,
    "key</w>": 1951,
    "religi": 1952,
    "appeared</w>": 1953,
    "gun</w>": 1954,
    "born</w>": 1955,
    "sions</w>": 1956,
    "upon</w>": 1957,
    "level</w>": 1958,
    "campa": 1959,
    "scot": 1960,
    "anim": 1961,
    "simp": 1962,
    "terri": 1963,
    "promo": 1964,
    "alls</w>": 1965,
    "ben": 1966,
    "started</w>": 1967,
    "ever": 1968,
    "characters</w>": 1969,
    "james</w>": 1970,
    "survi": 1971,
    "political</w>": 1972,
    "toge": 1973,
    "together</w>": 1974,
    "stars</w>": 1975,
    "women</w>": 1976,
    "davi": 1977,
    "gal": 1978,
    "60</w>": 1979,
    "should</w>": 1980,
    "hen": 1981,
    "competi": 1982,
    "cup</w>": 1983,
    "back": 1984,
    "strong</w>": 1985,
    "ze": 1986,
    "popular</w>": 1987,
    "ularly</w>": 1988,
    "christi": 1989,
    "caused</w>": 1990,
    "tou": 1991,
    "eventually</w>": 1992,
    "dings</w>": 1993,
    "sla": 1994,
    "ants</w>": 1995,
    "ada</w>": 1996,
    "sett": 1997,
    "phy</w>": 1998,
    "clear</w>": 1999,
    "design</w>": 2000,
    "search</w>": 2001,
    "ared</w>": 2002,
    "ssion</w>": 2003,
    "connec": 2004,
    "court</w>": 2005,
    "critics</w>": 2006,
    "ster": 2007,
    "list</w>": 2008,
    "profe": 2009,
    "created</w>": 2010,
    "classi": 2011,
    "chart</w>": 2012,
    "compar": 2013,
    "usu": 2014,
    "nia</w>": 2015,
    "2004</w>": 2016,
    "gam": 2017,
    "class</w>": 2018,
    "does</w>": 2019,
    "2005</w>": 2020,
    "appoin": 2021,
    "asi": 2022,
    "taken</w>": 2023,
    "cir": 2024,
    "fav": 2025,
    "magaz": 2026,
    "189": 2027,
    "yard</w>": 2028,
    "curren": 2029,
    "award</w>": 2030,
    "era</w>": 2031,
    "dian</w>": 2032,
    "region</w>": 2033,
    "far": 2034,
    "cept</w>": 2035,
    "hero</w>": 2036,
    "inv": 2037,
    "oni": 2038,
    "boo": 2039,
    "ra</w>": 2040,
    "commis": 2041,
    "center</w>": 2042,
    "elli": 2043,
    "director</w>": 2044,
    "successful</w>": 2045,
    "them": 2046,
    "sion": 2047,
    "inc": 2048,
    "ey</w>": 2049,
    "fo": 2050,
    "put</w>": 2051,
    "tural</w>": 2052,
    "é</w>": 2053,
    "present</w>": 2054,
    "union</w>": 2055,
    "ament</w>": 2056,
    "indepen": 2057,
    "hind</w>": 2058,
    "abo": 2059,
    "’</w>": 2060,
    "every</w>": 2061,
    "mean": 2062,
    "guns</w>": 2063,
    "bly</w>": 2064,
    "tioned</w>": 2065,
    "return</w>": 2066,
    "completed</w>": 2067,
    "ket</w>": 2068,
    "langu": 2069,
    "ming</w>": 2070,
    "rest</w>": 2071,
    "move</w>": 2072,
    "remained</w>": 2073,
    "ological</w>": 2074,
    "tal": 2075,
    "atlan": 2076,
    "novel</w>": 2077,
    "ron</w>": 2078,
    "fall</w>": 2079,
    "diffic": 2080,
    "scored</w>": 2081,
    "spo": 2082,
    "roman": 2083,
    "broad": 2084,
    "grand</w>": 2085,
    "ici": 2086,
    "announced</w>": 2087,
    "australian</w>": 2088,
    "ect</w>": 2089,
    "tial</w>": 2090,
    "possible</w>": 2091,
    "almost</w>": 2092,
    "mur": 2093,
    "front</w>": 2094,
    "ghts</w>": 2095,
    "commer": 2096,
    "fourth</w>": 2097,
    "wood</w>": 2098,
    "ils</w>": 2099,
    "2n": 2100,
    "2nd</w>": 2101,
    "ssing</w>": 2102,
    "tures</w>": 2103,
    "behind</w>": 2104,
    "added</w>": 2105,
    "least</w>": 2106,
    "voc": 2107,
    "damage</w>": 2108,
    "rac": 2109,
    "chap": 2110,
    "ells</w>": 2111,
    "ref": 2112,
    "pho": 2113,
    "brown</w>": 2114,
    "party</w>": 2115,
    "heavy</w>": 2116,
    "ape</w>": 2117,
    "ism</w>": 2118,
    "jour": 2119,
    "itted</w>": 2120,
    "secu": 2121,
    "rought</w>": 2122,
    "ssed</w>": 2123,
    "relation": 2124,
    "months</w>": 2125,
    "wide</w>": 2126,
    "followed</w>": 2127,
    "sa</w>": 2128,
    "mark</w>": 2129,
    "wife</w>": 2130,
    "ae": 2131,
    "killed</w>": 2132,
    "lower</w>": 2133,
    "critici": 2134,
    "ington</w>": 2135,
    "nar": 2136,
    "type</w>": 2137,
    "playing</w>": 2138,
    "gin</w>": 2139,
    "addition</w>": 2140,
    "dem": 2141,
    "sli": 2142,
    "success</w>": 2143,
    "bon": 2144,
    "sar": 2145,
    "leading</w>": 2146,
    "pac": 2147,
    "roun": 2148,
    "ne</w>": 2149,
    "awards</w>": 2150,
    "bran": 2151,
    "gs</w>": 2152,
    "mach": 2153,
    "mother</w>": 2154,
    "13": 2155,
    "features</w>": 2156,
    "sters</w>": 2157,
    "tar": 2158,
    "bow": 2159,
    "ron": 2160,
    "indivi": 2161,
    "individu": 2162,
    "points</w>": 2163,
    "fla": 2164,
    "read</w>": 2165,
    "kly</w>": 2166,
    "case</w>": 2167,
    "opened</w>": 2168,
    "domin": 2169,
    "aircraft</w>": 2170,
    "destroy": 2171,
    "coast</w>": 2172,
    "2003</w>": 2173,
    "argu": 2174,
    "birds</w>": 2175,
    "section</w>": 2176,
    "stand": 2177,
    "ki": 2178,
    "ution</w>": 2179,
    "recog": 2180,
    "estim": 2181,
    "transpor": 2182,
    "cop": 2183,
    "termin": 2184,
    "sal": 2185,
    "david</w>": 2186,
    "2015</w>": 2187,
    "cil</w>": 2188,
    "forced</w>": 2189,
    "fleet</w>": 2190,
    "dy": 2191,
    "engine": 2192,
    "enced</w>": 2193,
    "championship</w>": 2194,
    "contrac": 2195,
    "vin": 2196,
    "audi": 2197,
    "tv</w>": 2198,
    "dru": 2199,
    "ga</w>": 2200,
    "tained</w>": 2201,
    "ics</w>": 2202,
    "ai</w>": 2203,
    "stage</w>": 2204,
    "rul": 2205,
    "france</w>": 2206,
    "mi</w>": 2207,
    "bb": 2208,
    "either</w>": 2209,
    "structure</w>": 2210,
    "north": 2211,
    "europe</w>": 2212,
    "aver": 2213,
    "recording</w>": 2214,
    "subsequ": 2215,
    "saw</w>": 2216,
    "europe": 2217,
    "ati": 2218,
    "towards</w>": 2219,
    "ative</w>": 2220,
    "decided</w>": 2221,
    "soon</w>": 2222,
    "operations</w>": 2223,
    "proble": 2224,
    "campaign</w>": 2225,
    "met</w>": 2226,
    "plat": 2227,
    "forms</w>": 2228,
    "native</w>": 2229,
    "gold</w>": 2230,
    "post</w>": 2231,
    "writer</w>": 2232,
    "ago</w>": 2233,
    "parli": 2234,
    "var": 2235,
    "elements</w>": 2236,
    "member</w>": 2237,
    "12": 2238,
    "significant</w>": 2239,
    "jer": 2240,
    "records</w>": 2241,
    "finished</w>": 2242,
    "prepar": 2243,
    "room</w>": 2244,
    "close</w>": 2245,
    "nal</w>": 2246,
    "law</w>": 2247,
    "dam</w>": 2248,
    "lated</w>": 2249,
    "generally</w>": 2250,
    "magazine</w>": 2251,
    "directed</w>": 2252,
    "infan": 2253,
    "ature</w>": 2254,
    "here</w>": 2255,
    "believed</w>": 2256,
    "carey</w>": 2257,
    "separ": 2258,
    "reas": 2259,
    "15": 2260,
    "archae": 2261,
    "old": 2262,
    "lock</w>": 2263,
    "going</w>": 2264,
    "female</w>": 2265,
    "operation</w>": 2266,
    "sold</w>": 2267,
    "dle</w>": 2268,
    "yards</w>": 2269,
    "poem</w>": 2270,
    "appearance</w>": 2271,
    "mac": 2272,
    "zation</w>": 2273,
    "sym": 2274,
    "vement</w>": 2275,
    "mater": 2276,
    "infantry</w>": 2277,
    "emplo": 2278,
    "christ": 2279,
    "meas": 2280,
    "va</w>": 2281,
    "bes</w>": 2282,
    "example</w>": 2283,
    "recep": 2284,
    "goal</w>": 2285,
    "weeks</w>": 2286,
    "ef</w>": 2287,
    "busin": 2288,
    "view": 2289,
    "rather</w>": 2290,
    "study</w>": 2291,
    "dies</w>": 2292,
    "yon": 2293,
    "ending</w>": 2294,
    "ols</w>": 2295,
    "claimed</w>": 2296,
    "cent</w>": 2297,
    "press</w>": 2298,
    "imp": 2299,
    "european</w>": 2300,
    "mex": 2301,
    "mexic": 2302,
    "outside</w>": 2303,
    "identi": 2304,
    "lines</w>": 2305,
    "188": 2306,
    "federer</w>": 2307,
    "robert</w>": 2308,
    "ically</w>": 2309,
    "vier</w>": 2310,
    "ability</w>": 2311,
    "aly": 2312,
    "laun": 2313,
    "lik": 2314,
    "help</w>": 2315,
    "ready</w>": 2316,
    "brought</w>": 2317,
    "dol": 2318,
    "lied</w>": 2319,
    "educ": 2320,
    "hoo": 2321,
    "secre": 2322,
    "parts</w>": 2323,
    "eded</w>": 2324,
    "super": 2325,
    "supp": 2326,
    "colon": 2327,
    "wales</w>": 2328,
    "william</w>": 2329,
    "earlier</w>": 2330,
    "ana</w>": 2331,
    "saur": 2332,
    "hop": 2333,
    "working</w>": 2334,
    "featured</w>": 2335,
    "long": 2336,
    "gir": 2337,
    "great": 2338,
    "victory</w>": 2339,
    "insp": 2340,
    "mid</w>": 2341,
    "vers": 2342,
    "cover</w>": 2343,
    "via</w>": 2344,
    "200</w>": 2345,
    "standing</w>": 2346,
    "foc": 2347,
    "manager</w>": 2348,
    "ass": 2349,
    "opening</w>": 2350,
    "rich": 2351,
    "start</w>": 2352,
    "pan": 2353,
    "vai": 2354,
    "netw": 2355,
    "31</w>": 2356,
    "fully</w>": 2357,
    "aper</w>": 2358,
    "flo": 2359,
    "micha": 2360,
    "bility</w>": 2361,
    "provided</w>": 2362,
    "tured</w>": 2363,
    "association</w>": 2364,
    "ot</w>": 2365,
    "impro": 2366,
    "stic</w>": 2367,
    "village</w>": 2368,
    "scre": 2369,
    "beyon": 2370,
    "jord": 2371,
    "jordan</w>": 2372,
    "wanted</w>": 2373,
    "conclu": 2374,
    "atlantic</w>": 2375,
    "thin": 2376,
    "council</w>": 2377,
    "nine</w>": 2378,
    "lor": 2379,
    "race</w>": 2380,
    "bridge</w>": 2381,
    "nomin": 2382,
    "increas": 2383,
    "particularly</w>": 2384,
    "tour": 2385,
    "roman</w>": 2386,
    "lic</w>": 2387,
    "call</w>": 2388,
    "alth</w>": 2389,
    "troops</w>": 2390,
    "reve": 2391,
    "summer</w>": 2392,
    "kin": 2393,
    "far</w>": 2394,
    "2014</w>": 2395,
    "initially</w>": 2396,
    "depression</w>": 2397,
    "refu": 2398,
    "tech</w>": 2399,
    "evidence</w>": 2400,
    "dly</w>": 2401,
    "techn": 2402,
    "ues</w>": 2403,
    "pul": 2404,
    "official</w>": 2405,
    "sm</w>": 2406,
    "six": 2407,
    "equi": 2408,
    "office</w>": 2409,
    "largest</w>": 2410,
    "find</w>": 2411,
    "kers</w>": 2412,
    "worked</w>": 2413,
    "review</w>": 2414,
    "blue</w>": 2415,
    "muse": 2416,
    "george</w>": 2417,
    "ances</w>": 2418,
    "let</w>": 2419,
    "ey": 2420,
    "ysi": 2421,
    "attempt</w>": 2422,
    "athle": 2423,
    "19th</w>": 2424,
    "special</w>": 2425,
    "sha": 2426,
    "colle": 2427,
    "joined</w>": 2428,
    "designed</w>": 2429,
    "deta": 2430,
    "1st</w>": 2431,
    "month</w>": 2432,
    "conduc": 2433,
    "leng": 2434,
    "deli": 2435,
    "above</w>": 2436,
    "vels</w>": 2437,
    "tual</w>": 2438,
    "lear": 2439,
    "offici": 2440,
    "ior</w>": 2441,
    "thom": 2442,
    "liter": 2443,
    "tori": 2444,
    "institu": 2445,
    "ba</w>": 2446,
    "bill": 2447,
    "flori": 2448,
    "florida</w>": 2449,
    "sex": 2450,
    "ination</w>": 2451,
    "allowed</w>": 2452,
    "accoun": 2453,
    "event</w>": 2454,
    "ports</w>": 2455,
    "winds</w>": 2456,
    "vers</w>": 2457,
    "serve</w>": 2458,
    "ym": 2459,
    "lab": 2460,
    "pau": 2461,
    "stren": 2462,
    "critical</w>": 2463,
    "ha</w>": 2464,
    "saying</w>": 2465,
    "soun": 2466,
    "185": 2467,
    "real</w>": 2468,
    "fic</w>": 2469,
    "500</w>": 2470,
    "enter": 2471,
    "ologi": 2472,
    "creek</w>": 2473,
    "complete</w>": 2474,
    "cross</w>": 2475,
    "ars</w>": 2476,
    "hill</w>": 2477,
    "hours</w>": 2478,
    "whom</w>": 2479,
    "ream</w>": 2480,
    "taking</w>": 2481,
    "econ": 2482,
    "econom": 2483,
    "coa": 2484,
    "rang": 2485,
    "figh": 2486,
    "sun": 2487,
    "avai": 2488,
    "availa": 2489,
    "dat": 2490,
    "2001</w>": 2491,
    "police</w>": 2492,
    "indic": 2493,
    "san</w>": 2494,
    "plan</w>": 2495,
    "missou": 2496,
    "missouri</w>": 2497,
    "know": 2498,
    "reception</w>": 2499,
    "hall</w>": 2500,
    "depic": 2501,
    "society</w>": 2502,
    "streng": 2503,
    "community</w>": 2504,
    "portra": 2505,
    "previously</w>": 2506,
    "din": 2507,
    "pressed</w>": 2508,
    "adm": 2509,
    "ticip": 2510,
    "free</w>": 2511,
    "ff</w>": 2512,
    "ima": 2513,
    "iii</w>": 2514,
    "demo": 2515,
    "middle</w>": 2516,
    "base</w>": 2517,
    "ners</w>": 2518,
    "process</w>": 2519,
    "nation</w>": 2520,
    "units</w>": 2521,
    "table</w>": 2522,
    "offen": 2523,
    "exec": 2524,
    "gins</w>": 2525,
    "sam": 2526,
    "remains</w>": 2527,
    "aca": 2528,
    "esc": 2529,
    "radio</w>": 2530,
    "vest": 2531,
    "word</w>": 2532,
    "media</w>": 2533,
    "praised</w>": 2534,
    "research</w>": 2535,
    "increased</w>": 2536,
    "thus</w>": 2537,
    "michael</w>": 2538,
    "appointed</w>": 2539,
    "teen</w>": 2540,
    "press": 2541,
    "ries</w>": 2542,
    "mission</w>": 2543,
    "amoun": 2544,
    "parliament</w>": 2545,
    "affec": 2546,
    "begin": 2547,
    "mas": 2548,
    "manu": 2549,
    "ight</w>": 2550,
    "70</w>": 2551,
    "ania</w>": 2552,
    "relationship</w>": 2553,
    "anese</w>": 2554,
    "command</w>": 2555,
    "commander</w>": 2556,
    "regiment</w>": 2557,
    "jack": 2558,
    "free": 2559,
    "studio</w>": 2560,
    "bay</w>": 2561,
    "temp": 2562,
    "recogni": 2563,
    "shop</w>": 2564,
    "happ": 2565,
    "blo": 2566,
    "£</w>": 2567,
    "social</w>": 2568,
    "45</w>": 2569,
    "oce": 2570,
    "cess": 2571,
    "spea": 2572,
    "cing</w>": 2573,
    "hosp": 2574,
    "pool</w>": 2575,
    "replaced</w>": 2576,
    "paul</w>": 2577,
    "ang</w>": 2578,
    "gram</w>": 2579,
    "egyp": 2580,
    "wel": 2581,
    "wheel": 2582,
    "sen</w>": 2583,
    "ki</w>": 2584,
    "wish</w>": 2585,
    "navy</w>": 2586,
    "shot</w>": 2587,
    "lake</w>": 2588,
    "industry</w>": 2589,
    "tom": 2590,
    "ox": 2591,
    "premi": 2592,
    "situ": 2593,
    "colum": 2594,
    "squad": 2595,
    "cle</w>": 2596,
    "town": 2597,
    "tain": 2598,
    "syn": 2599,
    "estimated</w>": 2600,
    "cana": 2601,
    "theat": 2602,
    "specially</w>": 2603,
    "food</w>": 2604,
    "ib": 2605,
    "anna</w>": 2606,
    "cali": 2607,
    "ection</w>": 2608,
    "highest</w>": 2609,
    "college</w>": 2610,
    "gram": 2611,
    "mixed</w>": 2612,
    "reviews</w>": 2613,
    "ributed</w>": 2614,
    "comes</w>": 2615,
    "beginning</w>": 2616,
    "aller</w>": 2617,
    "jects</w>": 2618,
    "usually</w>": 2619,
    "metres</w>": 2620,
    "ets</w>": 2621,
    "°</w>": 2622,
    "introduced</w>": 2623,
    "regular</w>": 2624,
    "pper</w>": 2625,
    "museum</w>": 2626,
    "professi": 2627,
    "mph</w>": 2628,
    "canada</w>": 2629,
    "limited</w>": 2630,
    "available</w>": 2631,
    "goals</w>": 2632,
    "assem": 2633,
    "occu": 2634,
    "give</w>": 2635,
    "size</w>": 2636,
    "moving</w>": 2637,
    "fru": 2638,
    "chi": 2639,
    "passed</w>": 2640,
    "tin": 2641,
    "japanese</w>": 2642,
    "approxim": 2643,
    "priv": 2644,
    "religious</w>": 2645,
    "commercial</w>": 2646,
    "average</w>": 2647,
    "sil": 2648,
    "ka</w>": 2649,
    "stories</w>": 2650,
    "involved</w>": 2651,
    "lyric": 2652,
    "scene</w>": 2653,
    "ples</w>": 2654,
    "training</w>": 2655,
    "john": 2656,
    "physi": 2657,
    "oldham</w>": 2658,
    "alling</w>": 2659,
    "80</w>": 2660,
    "suggested</w>": 2661,
    "arab": 2662,
    "eding</w>": 2663,
    "turned</w>": 2664,
    "sometimes</w>": 2665,
    "expla": 2666,
    "alter": 2667,
    "nei": 2668,
    "today</w>": 2669,
    "background</w>": 2670,
    "likely</w>": 2671,
    "illa</w>": 2672,
    "treat": 2673,
    "horse</w>": 2674,
    "business</w>": 2675,
    "olivier</w>": 2676,
    "entire</w>": 2677,
    "compan": 2678,
    "nature</w>": 2679,
    "itself</w>": 2680,
    "la</w>": 2681,
    "viet": 2682,
    "erous</w>": 2683,
    "woman</w>": 2684,
    "186": 2685,
    "henry</w>": 2686,
    "friends</w>": 2687,
    "actions</w>": 2688,
    "immedi": 2689,
    "law": 2690,
    "mexico</w>": 2691,
    "additional</w>": 2692,
    "staf": 2693,
    "space</w>": 2694,
    "chic": 2695,
    "j</w>": 2696,
    "theast</w>": 2697,
    "arm": 2698,
    "aw": 2699,
    "stly</w>": 2700,
    "represent": 2701,
    "damaged</w>": 2702,
    "lou": 2703,
    "round</w>": 2704,
    "changes</w>": 2705,
    "loss</w>": 2706,
    "transi": 2707,
    "language</w>": 2708,
    "swe": 2709,
    "told</w>": 2710,
    "whose</w>": 2711,
    "natural</w>": 2712,
    "nearly</w>": 2713,
    "term</w>": 2714,
    "tionally</w>": 2715,
    "commit": 2716,
    "sound</w>": 2717,
    "india</w>": 2718,
    "regar": 2719,
    "responsi": 2720,
    "issue</w>": 2721,
    "thomas</w>": 2722,
    "fifth</w>": 2723,
    "past</w>": 2724,
    "cycl": 2725,
    "gradu": 2726,
    "approximately</w>": 2727,
    "ential</w>": 2728,
    "indian</w>": 2729,
    "must</w>": 2730,
    "friend</w>": 2731,
    "kets</w>": 2732,
    "forward</w>": 2733,
    "program</w>": 2734,
    "character": 2735,
    "irish</w>": 2736,
    "chel</w>": 2737,
    "porary</w>": 2738,
    "capital</w>": 2739,
    "corpor": 2740,
    "already</w>": 2741,
    "augh": 2742,
    "tt</w>": 2743,
    "intensi": 2744,
    "contem": 2745,
    "lam": 2746,
    "cast": 2747,
    "hand</w>": 2748,
    "kel": 2749,
    "75</w>": 2750,
    "shows</w>": 2751,
    "prior</w>": 2752,
    "biogra": 2753,
    "tis": 2754,
    "britain</w>": 2755,
    "names</w>": 2756,
    "occa": 2757,
    "probably</w>": 2758,
    "forest</w>": 2759,
    "related</w>": 2760,
    "inn": 2761,
    "ades</w>": 2762,
    "colla": 2763,
    "sun</w>": 2764,
    "male</w>": 2765,
    "notes</w>": 2766,
    "listed</w>": 2767,
    "tries</w>": 2768,
    "eds</w>": 2769,
    "winning</w>": 2770,
    "cel": 2771,
    "cathe": 2772,
    "cathed": 2773,
    "saurus</w>": 2774,
    "uk</w>": 2775,
    "students</w>": 2776,
    "38</w>": 2777,
    "duce</w>": 2778,
    "zeal": 2779,
    "soldi": 2780,
    "plot</w>": 2781,
    "length</w>": 2782,
    "depart": 2783,
    "spac": 2784,
    "ditions</w>": 2785,
    "running</w>": 2786,
    "earth</w>": 2787,
    "appear</w>": 2788,
    "?</w>": 2789,
    "down": 2790,
    "che": 2791,
    "respec": 2792,
    "civil</w>": 2793,
    "child</w>": 2794,
    "daugh": 2795,
    "scho": 2796,
    "shar": 2797,
    "especially</w>": 2798,
    "cher</w>": 2799,
    "activ": 2800,
    "iev": 2801,
    "tery</w>": 2802,
    "admini": 2803,
    "christian</w>": 2804,
    "enough</w>": 2805,
    "organ": 2806,
    "cut</w>": 2807,
    "ald</w>": 2808,
    "jin</w>": 2809,
    "revol": 2810,
    "sey</w>": 2811,
    "overall</w>": 2812,
    "ple": 2813,
    "acy</w>": 2814,
    "travel": 2815,
    "displa": 2816,
    "marked</w>": 2817,
    "chine": 2818,
    "chinese</w>": 2819,
    "failed</w>": 2820,
    "credi": 2821,
    "yer</w>": 2822,
    "floo": 2823,
    "bom": 2824,
    "ano</w>": 2825,
    "captain</w>": 2826,
    "ordered</w>": 2827,
    "execu": 2828,
    "docum": 2829,
    "sons</w>": 2830,
    "land": 2831,
    "better</w>": 2832,
    "lling</w>": 2833,
    "enon</w>": 2834,
    "iting</w>": 2835,
    "mounted</w>": 2836,
    "science</w>": 2837,
    "sim": 2838,
    "particip": 2839,
    "2002</w>": 2840,
    "rest": 2841,
    "dram": 2842,
    "anti</w>": 2843,
    "pon": 2844,
    "minor</w>": 2845,
    "ests</w>": 2846,
    "anci": 2847,
    "nations</w>": 2848,
    "lities</w>": 2849,
    "network</w>": 2850,
    "surroun": 2851,
    "ray</w>": 2852,
    "dig": 2853,
    "ander": 2854,
    "future</w>": 2855,
    "certain</w>": 2856,
    "pacif": 2857,
    "pacific</w>": 2858,
    "rail": 2859,
    "spent</w>": 2860,
    "might</w>": 2861,
    "unds</w>": 2862,
    "any": 2863,
    "arrived</w>": 2864,
    "kan</w>": 2865,
    "includes</w>": 2866,
    "90</w>": 2867,
    "wheeler</w>": 2868,
    "ece</w>": 2869,
    "remaining</w>": 2870,
    "prev": 2871,
    "pain": 2872,
    "larger</w>": 2873,
    "education</w>": 2874,
    "every": 2875,
    "canadian</w>": 2876,
    "cathedral</w>": 2877,
    "location</w>": 2878,
    "ingly</w>": 2879,
    "asked</w>": 2880,
    "hold</w>": 2881,
    "department</w>": 2882,
    "hit</w>": 2883,
    "catho": 2884,
    "suppor": 2885,
    "ester</w>": 2886,
    "mal": 2887,
    "gue</w>": 2888,
    "fig": 2889,
    "required</w>": 2890,
    "quarters</w>": 2891,
    "test</w>": 2892,
    "latter</w>": 2893,
    "saf": 2894,
    "irs</w>": 2895,
    "van</w>": 2896,
    "wall</w>": 2897,
    "decision</w>": 2898,
    "crew</w>": 2899,
    "positions</w>": 2900,
    "response</w>": 2901,
    "uses</w>": 2902,
    "verse</w>": 2903,
    "africa</w>": 2904,
    "changed</w>": 2905,
    "cele": 2906,
    "xon</w>": 2907,
    "discovered</w>": 2908,
    "expan": 2909,
    "musical</w>": 2910,
    "4th</w>": 2911,
    "after": 2912,
    "distric": 2913,
    "books</w>": 2914,
    "thy</w>": 2915,
    "tom</w>": 2916,
    "gul": 2917,
    "ut": 2918,
    "viol": 2919,
    "voice</w>": 2920,
    "oly": 2921,
    "2000</w>": 2922,
    "aled</w>": 2923,
    "seri": 2924,
    "active</w>": 2925,
    "debut</w>": 2926,
    "defeated</w>": 2927,
    "water": 2928,
    "syl": 2929,
    "ero": 2930,
    "culture</w>": 2931,
    "saint</w>": 2932,
    "scient": 2933,
    "wid": 2934,
    "pass": 2935,
    "shoo": 2936,
    "soli": 2937,
    "zz": 2938,
    "groups</w>": 2939,
    "territory</w>": 2940,
    "ket": 2941,
    "nel</w>": 2942,
    "pa</w>": 2943,
    "centre</w>": 2944,
    "jam": 2945,
    "rachel</w>": 2946,
    "positive</w>": 2947,
    "feature</w>": 2948,
    "commission": 2949,
    "rapi": 2950,
    "dated</w>": 2951,
    "billboard</w>": 2952,
    "films</w>": 2953,
    "nes": 2954,
    "frequ": 2955,
    "35</w>": 2956,
    "wards</w>": 2957,
    "staff</w>": 2958,
    "constructed</w>": 2959,
    "ferred</w>": 2960,
    "finally</w>": 2961,
    "analy": 2962,
    "schol": 2963,
    "habit": 2964,
    "score</w>": 2965,
    "tons</w>": 2966,
    "squadron</w>": 2967,
    "supported</w>": 2968,
    "flight</w>": 2969,
    "review": 2970,
    "ry": 2971,
    "agreed</w>": 2972,
    "money</w>": 2973,
    "twi": 2974,
    "becoming</w>": 2975,
    "surface</w>": 2976,
    "gation</w>": 2977,
    "pressure</w>": 2978,
    "ifa</w>": 2979,
    "near": 2980,
    "always</w>": 2981,
    "experience</w>": 2982,
    "anti": 2983,
    "smaller</w>": 2984,
    "gely</w>": 2985,
    "provide</w>": 2986,
    "inve": 2987,
    "ference</w>": 2988,
    "cations</w>": 2989,
    "ton": 2990,
    "pole</w>": 2991,
    "charles</w>": 2992,
    "ac</w>": 2993,
    "imag": 2994,
    "entary</w>": 2995,
    "len": 2996,
    "fact</w>": 2997,
    "private</w>": 2998,
    "shown</w>": 2999,
    "1995</w>": 3000,
    "shortly</w>": 3001,
    "particular</w>": 3002,
    "inj": 3003,
    "proce": 3004,
    "187": 3005,
    "cm</w>": 3006,
    "minutes</w>": 3007,
    "crow": 3008,
    "stein</w>": 3009,
    "person</w>": 3010,
    "see": 3011,
    "tower</w>": 3012,
    "rity</w>": 3013,
    "peter</w>": 3014,
    "trade</w>": 3015,
    "difficult</w>": 3016,
    "mass</w>": 3017,
    "temple</w>": 3018,
    "pping</w>": 3019,
    "selves</w>": 3020,
    "ought</w>": 3021,
    "big</w>": 3022,
    "thro": 3023,
    "mel": 3024,
    "stant</w>": 3025,
    "angel": 3026,
    "subsequently</w>": 3027,
    "japan</w>": 3028,
    "writers</w>": 3029,
    "alist</w>": 3030,
    "upper</w>": 3031,
    "draw</w>": 3032,
    "collection</w>": 3033,
    "stance</w>": 3034,
    "exper": 3035,
    "pass</w>": 3036,
    "lack</w>": 3037,
    "living</w>": 3038,
    "effects</w>": 3039,
    "desi": 3040,
    "zealand</w>": 3041,
    "idea</w>": 3042,
    "popul": 3043,
    "ultim": 3044,
    "mountain</w>": 3045,
    "bit</w>": 3046,
    "professional</w>": 3047,
    "got</w>": 3048,
    "progre": 3049,
    "actor</w>": 3050,
    "material</w>": 3051,
    "clos": 3052,
    "conf": 3053,
    "greater</w>": 3054,
    "olymp": 3055,
    "ca</w>": 3056,
    "problems</w>": 3057,
    "reti": 3058,
    "teams</w>": 3059,
    "au</w>": 3060,
    "riage</w>": 3061,
    "lo</w>": 3062,
    "numbers</w>": 3063,
    "intended</w>": 3064,
    "news</w>": 3065,
    "largely</w>": 3066,
    "ping</w>": 3067,
    "boy</w>": 3068,
    "ens": 3069,
    "interest</w>": 3070,
    "gods</w>": 3071,
    "ide</w>": 3072,
    "scientology</w>": 3073,
    "mostly</w>": 3074,
    "themselves</w>": 3075,
    "poor</w>": 3076,
    "top": 3077,
    "rd</w>": 3078,
    "ranked</w>": 3079,
    "ita</w>": 3080,
    "primary</w>": 3081,
    "temper": 3082,
    "gate</w>": 3083,
    "haifa</w>": 3084,
    "referred</w>": 3085,
    "eig": 3086,
    "authori": 3087,
    "companies</w>": 3088,
    "captured</w>": 3089,
    "movi": 3090,
    "2016</w>": 3091,
    "doms</w>": 3092,
    "election</w>": 3093,
    "sources</w>": 3094,
    "machine</w>": 3095,
    "compu": 3096,
    "quic": 3097,
    "yet</w>": 3098,
    "observ": 3099,
    "oms</w>": 3100,
    "current</w>": 3101,
    "chor": 3102,
    "traff": 3103,
    "traffic</w>": 3104,
    "califor": 3105,
    "ya</w>": 3106,
    "ute</w>": 3107,
    "xenon</w>": 3108,
    "chron": 3109,
    "pose</w>": 3110,
    "tee</w>": 3111,
    "emer": 3112,
    "bul": 3113,
    "amed</w>": 3114,
    "road": 3115,
    "entered</w>": 3116,
    "lac": 3117,
    "contract</w>": 3118,
    "enty</w>": 3119,
    "whole</w>": 3120,
    "eli": 3121,
    "bird</w>": 3122,
    "proper": 3123,
    "3rd</w>": 3124,
    "bill</w>": 3125,
    "ran</w>": 3126,
    "makes</w>": 3127,
    "rate</w>": 3128,
    "ators</w>": 3129,
    "ques": 3130,
    "itali": 3131,
    "fighting</w>": 3132,
    "dead</w>": 3133,
    "airport</w>": 3134,
    "square</w>": 3135,
    "li</w>": 3136,
    "bar</w>": 3137,
    "cric": 3138,
    "acqu": 3139,
    "majority</w>": 3140,
    "lyrics</w>": 3141,
    "headquarters</w>": 3142,
    "morning</w>": 3143,
    "contains</w>": 3144,
    "greatest</w>": 3145,
    "bus": 3146,
    "portu": 3147,
    "send</w>": 3148,
    "achie": 3149,
    "starting</w>": 3150,
    "leaving</w>": 3151,
    "activi": 3152,
    "deal</w>": 3153,
    "appears</w>": 3154,
    "kar": 3155,
    "1999</w>": 3156,
    "dium</w>": 3157,
    "hand": 3158,
    "adap": 3159,
    "rat": 3160,
    "ief</w>": 3161,
    "pil": 3162,
    "report</w>": 3163,
    "ama</w>": 3164,
    "whether</w>": 3165,
    "know</w>": 3166,
    "information</w>": 3167,
    "kill": 3168,
    "studies</w>": 3169,
    "sley</w>": 3170,
    "jected</w>": 3171,
    "officers</w>": 3172,
    "competition</w>": 3173,
    "ption</w>": 3174,
    "los</w>": 3175,
    "urb": 3176,
    "contra": 3177,
    "source</w>": 3178,
    "tually</w>": 3179,
    "pag": 3180,
    "kh": 3181,
    "croati": 3182,
    "isra": 3183,
    "constitu": 3184,
    "castle</w>": 3185,
    "turn</w>": 3186,
    "shes</w>": 3187,
    "create</w>": 3188,
    "married</w>": 3189,
    "ville</w>": 3190,
    "faci": 3191,
    "tian</w>": 3192,
    "adop": 3193,
    "gar</w>": 3194,
    "hus": 3195,
    "pus</w>": 3196,
    "galvest": 3197,
    "galveston</w>": 3198,
    "unit</w>": 3199,
    "tournam": 3200,
    "ma</w>": 3201,
    "fans</w>": 3202,
    "33</w>": 3203,
    "ily</w>": 3204,
    "bodies</w>": 3205,
    "dation</w>": 3206,
    "theme</w>": 3207,
    "episodes</w>": 3208,
    "proposed</w>": 3209,
    "mou": 3210,
    "jack</w>": 3211,
    "lady</w>": 3212,
    "human": 3213,
    "anish</w>": 3214,
    "accomp": 3215,
    "jewish</w>": 3216,
    "personal</w>": 3217,
    "takes</w>": 3218,
    "soldiers</w>": 3219,
    "lived</w>": 3220,
    "plans</w>": 3221,
    "knowle": 3222,
    "stration</w>": 3223,
    "influence</w>": 3224,
    "allow</w>": 3225,
    "norm": 3226,
    "newsp": 3227,
    "communi": 3228,
    "festi": 3229,
    "scul": 3230,
    "ky": 3231,
    "runs</w>": 3232,
    "movement</w>": 3233,
    "div": 3234,
    "singles</w>": 3235,
    "attrac": 3236,
    "11": 3237,
    "launched</w>": 3238,
    "vice</w>": 3239,
    "investi": 3240,
    "mental</w>": 3241,
    "california</w>": 3242,
    "increase</w>": 3243,
    "viet</w>": 3244,
    "ty": 3245,
    "direct</w>": 3246,
    "pre</w>": 3247,
    "quickly</w>": 3248,
    "pair</w>": 3249,
    "mas</w>": 3250,
    "lls</w>": 3251,
    "compared</w>": 3252,
    "fication</w>": 3253,
    "clar": 3254,
    "concert</w>": 3255,
    "dary</w>": 3256,
    "independent</w>": 3257,
    "184": 3258,
    "quarter</w>": 3259,
    "sent": 3260,
    "cole</w>": 3261,
    "amount</w>": 3262,
    "richard</w>": 3263,
    "6th</w>": 3264,
    "queen</w>": 3265,
    "trees</w>": 3266,
    "occurred</w>": 3267,
    "gg": 3268,
    "minute</w>": 3269,
    "tun": 3270,
    "villa</w>": 3271,
    "400</w>": 3272,
    "carol": 3273,
    "hot": 3274,
    "valley</w>": 3275,
    "gor": 3276,
    "finals</w>": 3277,
    "ami</w>": 3278,
    "mont</w>": 3279,
    "assigned</w>": 3280,
    "health</w>": 3281,
    "attacks</w>": 3282,
    "lian</w>": 3283,
    "true</w>": 3284,
    "tracks</w>": 3285,
    "pec": 3286,
    "thir": 3287,
    "5th</w>": 3288,
    "sixth</w>": 3289,
    "daughter</w>": 3290,
    "wood": 3291,
    "things</w>": 3292,
    "leave</w>": 3293,
    "break</w>": 3294,
    "lations</w>": 3295,
    "del</w>": 3296,
    "arian</w>": 3297,
    "destroyed</w>": 3298,
    "defeat</w>": 3299,
    "artill": 3300,
    "artillery</w>": 3301,
    "determin": 3302,
    "inside</w>": 3303,
    "services</w>": 3304,
    "ership</w>": 3305,
    "traditional</w>": 3306,
    "hot</w>": 3307,
    "ght": 3308,
    "ocean</w>": 3309,
    "condoms</w>": 3310,
    "tac": 3311,
    "gri": 3312,
    "conflic": 3313,
    "chicago</w>": 3314,
    "longer</w>": 3315,
    "schools</w>": 3316,
    "closed</w>": 3317,
    "sac": 3318,
    "latin</w>": 3319,
    "double</w>": 3320,
    "reflec": 3321,
    "contemporary</w>": 3322,
    "bishop</w>": 3323,
    "ino": 3324,
    "eign</w>": 3325,
    "cause</w>": 3326,
    "scenes</w>": 3327,
    "rison</w>": 3328,
    "chem": 3329,
    "artist</w>": 3330,
    "legal</w>": 3331,
    "ergy</w>": 3332,
    "carried</w>": 3333,
    "awarded</w>": 3334,
    "cles</w>": 3335,
    "shire</w>": 3336,
    "alice</w>": 3337,
    "32</w>": 3338,
    "cyclone</w>": 3339,
    "nest</w>": 3340,
    "proteins</w>": 3341,
    "something</w>": 3342,
    "interview</w>": 3343,
    "web": 3344,
    "buildings</w>": 3345,
    "gen</w>": 3346,
    "conducted</w>": 3347,
    "restor": 3348,
    "sw": 3349,
    "1998</w>": 3350,
    "course</w>": 3351,
    "inci": 3352,
    "bc</w>": 3353,
    "ception</w>": 3354,
    "expl": 3355,
    "marriage</w>": 3356,
    "ancient</w>": 3357,
    "extr": 3358,
    "ume</w>": 3359,
    "smi": 3360,
    "district</w>": 3361,
    "abu": 3362,
    "deep</w>": 3363,
    "annual</w>": 3364,
    "ali</w>": 3365,
    "status</w>": 3366,
    "associated</w>": 3367,
    "burns</w>": 3368,
    "done</w>": 3369,
    "empire</w>": 3370,
    "piece</w>": 3371,
    "asy</w>": 3372,
    "princi": 3373,
    "issued</w>": 3374,
    "atory</w>": 3375,
    "row": 3376,
    "base": 3377,
    "favor": 3378,
    "chester</w>": 3379,
    "trou": 3380,
    "glo": 3381,
    "poten": 3382,
    "advan": 3383,
    "20th</w>": 3384,
    "unable</w>": 3385,
    "ested</w>": 3386,
    "onto</w>": 3387,
    "conference</w>": 3388,
    "archit": 3389,
    "forming</w>": 3390,
    "commented</w>": 3391,
    "du</w>": 3392,
    "come": 3393,
    "1993</w>": 3394,
    "provin": 3395,
    "albums</w>": 3396,
    "polish</w>": 3397,
    "russi": 3398,
    "rose": 3399,
    "gian</w>": 3400,
    "cad": 3401,
    "alkan</w>": 3402,
    "ess": 3403,
    "rick</w>": 3404,
    "numerous</w>": 3405,
    "+</w>": 3406,
    "brother</w>": 3407,
    "ction</w>": 3408,
    "image</w>": 3409,
    "congre": 3410,
    "republic</w>": 3411,
    "corps</w>": 3412,
    "ain</w>": 3413,
    "cell</w>": 3414,
    "nixon</w>": 3415,
    "liver": 3416,
    "liverpool</w>": 3417,
    "standard</w>": 3418,
    "purch": 3419,
    "safe</w>": 3420,
    "36</w>": 3421,
    "chief</w>": 3422,
    "tered</w>": 3423,
    "sev": 3424,
    "tives</w>": 3425,
    "vic</w>": 3426,
    "shore</w>": 3427,
    "yel": 3428,
    "producer</w>": 3429,
    "jun": 3430,
    "beer</w>": 3431,
    "south": 3432,
    "fow": 3433,
    "meaning</w>": 3434,
    "graphi": 3435,
    "inspired</w>": 3436,
    "rein": 3437,
    "green</w>": 3438,
    "management</w>": 3439,
    "bil": 3440,
    "dance</w>": 3441,
    "accep": 3442,
    "perfec": 3443,
    "texas</w>": 3444,
    "minister</w>": 3445,
    "brad": 3446,
    "zhou": 3447,
    "zhou</w>": 3448,
    "chel": 3449,
    "posse": 3450,
    "ld": 3451,
    "nuclear</w>": 3452,
    "terms</w>": 3453,
    "gative</w>": 3454,
    "37</w>": 3455,
    "power": 3456,
    "did": 3457,
    "lot</w>": 3458,
    "somer": 3459,
    "somerset</w>": 3460,
    "fer</w>": 3461,
    "7th</w>": 3462,
    "looking</w>": 3463,
    "venue</w>": 3464,
    "ylor</w>": 3465,
    "sets</w>": 3466,
    "earned</w>": 3467,
    "defense</w>": 3468,
    "piano</w>": 3469,
    "mosley</w>": 3470,
    "planned</w>": 3471,
    "giving</w>": 3472,
    "there": 3473,
    "gla": 3474,
    "initial</w>": 3475,
    "dark</w>": 3476,
    "variety</w>": 3477,
    "begins</w>": 3478,
    "daily</w>": 3479,
    "chann": 3480,
    "1996</w>": 3481,
    "peak</w>": 3482,
    "stay</w>": 3483,
    "nucle": 3484,
    "ica</w>": 3485,
    "broadcast</w>": 3486,
    "casu": 3487,
    "busch</w>": 3488,
    "directly</w>": 3489,
    "bud": 3490,
    "your</w>": 3491,
    "chall": 3492,
    "dedic": 3493,
    "ssions</w>": 3494,
    "immediately</w>": 3495,
    "committee</w>": 3496,
    "historical</w>": 3497,
    "pop</w>": 3498,
    "mix</w>": 3499,
    "fail": 3500,
    "tains</w>": 3501,
    "avo": 3502,
    "gent": 3503,
    "performances</w>": 3504,
    "bowl</w>": 3505,
    "individual</w>": 3506,
    "kno": 3507,
    "divi": 3508,
    "advant": 3509,
    "aband": 3510,
    "alties</w>": 3511,
    "christmas</w>": 3512,
    "scienti": 3513,
    "39</w>": 3514,
    "tch</w>": 3515,
    "taylor</w>": 3516,
    "sylv": 3517,
    "spanish</w>": 3518,
    "figure</w>": 3519,
    "sound": 3520,
    "leg</w>": 3521,
    "arts</w>": 3522,
    "coach</w>": 3523,
    "helped</w>": 3524,
    "organization</w>": 3525,
    "acade": 3526,
    "penn": 3527,
    "car</w>": 3528,
    "offensive</w>": 3529,
    "monum": 3530,
    "think</w>": 3531,
    "fox</w>": 3532,
    "fowler</w>": 3533,
    "sequence</w>": 3534,
    "ived</w>": 3535,
    "suffered</w>": 3536,
    "places</w>": 3537,
    "ate": 3538,
    "public": 3539,
    "african</w>": 3540,
    "stand</w>": 3541,
    "reach</w>": 3542,
    "minne": 3543,
    "effect</w>": 3544,
    "ame": 3545,
    "sad": 3546,
    "blood</w>": 3547,
    "justi": 3548,
    "multi": 3549,
    "armed</w>": 3550,
    "ities</w>": 3551,
    "activity</w>": 3552,
    "tically</w>": 3553,
    "bia</w>": 3554,
    "300</w>": 3555,
    "ex</w>": 3556,
    "meant</w>": 3557,
    "consider": 3558,
    "ott": 3559,
    "nearby</w>": 3560,
    "singer</w>": 3561,
    "sides</w>": 3562,
    "forts</w>": 3563,
    "oned</w>": 3564,
    "author</w>": 3565,
    "andre": 3566,
    "sex</w>": 3567,
    "rain</w>": 3568,
    "communic": 3569,
    "lled</w>": 3570,
    "presented</w>": 3571,
    "really</w>": 3572,
    "cultural</w>": 3573,
    "jum": 3574,
    "settle": 3575,
    "west": 3576,
    "assembly</w>": 3577,
    "cé</w>": 3578,
    "ore": 3579,
    "weap": 3580,
    "explo": 3581,
    "presence</w>": 3582,
    "spiri": 3583,
    "vely</w>": 3584,
    "raised</w>": 3585,
    "girl</w>": 3586,
    "vocals</w>": 3587,
    "twenty</w>": 3588,
    "assa": 3589,
    "deb": 3590,
    "duction</w>": 3591,
    "gol": 3592,
    "mey": 3593,
    "amm": 3594,
    "revi": 3595,
    "continue</w>": 3596,
    "ie</w>": 3597,
    "ency</w>": 3598,
    "stating</w>": 3599,
    "attempts</w>": 3600,
    "carolina</w>": 3601,
    "sylvania</w>": 3602,
    "figu": 3603,
    "figures</w>": 3604,
    "rule</w>": 3605,
    "dson</w>": 3606,
    "virgin": 3607,
    "virginia</w>": 3608,
    "master</w>": 3609,
    "yan": 3610,
    "roseber": 3611,
    "super</w>": 3612,
    "federal</w>": 3613,
    "9th</w>": 3614,
    "rhy": 3615,
    "below</w>": 3616,
    "genus</w>": 3617,
    "sop": 3618,
    "bloc": 3619,
    "hard</w>": 3620,
    "sty</w>": 3621,
    "ith</w>": 3622,
    "swi": 3623,
    "china</w>": 3624,
    "emy</w>": 3625,
    "selected</w>": 3626,
    "camp</w>": 3627,
    "composed</w>": 3628,
    "officer</w>": 3629,
    "confir": 3630,
    "sumed</w>": 3631,
    "lights</w>": 3632,
    "kap": 3633,
    "catholic</w>": 3634,
    "ssa</w>": 3635,
    "higher</w>": 3636,
    "expected</w>": 3637,
    "extended</w>": 3638,
    "appearances</w>": 3639,
    "1997</w>": 3640,
    "visions</w>": 3641,
    "conver": 3642,
    "diseas": 3643,
    "practi": 3644,
    "ottom": 3645,
    "beyoncé</w>": 3646,
    "eless</w>": 3647,
    "specific</w>": 3648,
    "needed</w>": 3649,
    "sense</w>": 3650,
    "enjo": 3651,
    "feel": 3652,
    "smith</w>": 3653,
    "fell</w>": 3654,
    "adver": 3655,
    "countries</w>": 3656,
    "antly</w>": 3657,
    "zing</w>": 3658,
    "gn": 3659,
    "advance</w>": 3660,
    "coura": 3661,
    "germany</w>": 3662,
    "kit": 3663,
    "miami</w>": 3664,
    "situation</w>": 3665,
    "flan": 3666,
    "speed</w>": 3667,
    "ock</w>": 3668,
    "bac": 3669,
    "fiction</w>": 3670,
    "emo": 3671,
    "enth</w>": 3672,
    "say</w>": 3673,
    "dress</w>": 3674,
    "ris": 3675,
    "sher</w>": 3676,
    "highly</w>": 3677,
    "promin": 3678,
    "hour</w>": 3679,
    "alty</w>": 3680,
    "fra": 3681,
    "comedy</w>": 3682,
    "theatre</w>": 3683,
    "responsible</w>": 3684,
    "ordin": 3685,
    "ambi": 3686,
    "ung</w>": 3687,
    "festival</w>": 3688,
    "emper": 3689,
    "recent</w>": 3690,
    "attacked</w>": 3691,
    "eting</w>": 3692,
    "stop</w>": 3693,
    "touch": 3694,
    "types</w>": 3695,
    "fy</w>": 3696,
    "atten": 3697,
    "alled</w>": 3698,
    "sus</w>": 3699,
    "que": 3700,
    "sports</w>": 3701,
    "mile</w>": 3702,
    "pennsylvania</w>": 3703,
    "birth</w>": 3704,
    "surve": 3705,
    "marine</w>": 3706,
    "edge</w>": 3707,
    "by": 3708,
    "want</w>": 3709,
    "protein</w>": 3710,
    "gadi": 3711,
    "cadmi": 3712,
    "cadmium</w>": 3713,
    "edition</w>": 3714,
    "distance</w>": 3715,
    "look</w>": 3716,
    "removed</w>": 3717,
    "owned</w>": 3718,
    "repe": 3719,
    "distinc": 3720,
    "dest</w>": 3721,
    "spring</w>": 3722,
    "ext": 3723,
    "allowing</w>": 3724,
    "scoring</w>": 3725,
    "paris</w>": 3726,
    "academy</w>": 3727,
    "movie</w>": 3728,
    "bing</w>": 3729,
    "tradition</w>": 3730,
    "defin": 3731,
    "houses</w>": 3732,
    "yu": 3733,
    "serves</w>": 3734,
    "energy</w>": 3735,
    "gas</w>": 3736,
    "kilom": 3737,
    "cav": 3738,
    "portion</w>": 3739,
    "offered</w>": 3740,
    "tters</w>": 3741,
    "widely</w>": 3742,
    "subject</w>": 3743,
    "rif": 3744,
    "historic</w>": 3745,
    "parents</w>": 3746,
    "hospital</w>": 3747,
    "levels</w>": 3748,
    "eigh": 3749,
    "scotland</w>": 3750,
    "prince</w>": 3751,
    "metal</w>": 3752,
    "peaked</w>": 3753,
    "weak": 3754,
    "baby</w>": 3755,
    "script</w>": 3756,
    "combined</w>": 3757,
    "faced</w>": 3758,
    "governor</w>": 3759,
    "tely</w>": 3760,
    "attempted</w>": 3761,
    "sites</w>": 3762,
    "sir</w>": 3763,
    "resc": 3764,
    "beau": 3765,
    "percent</w>": 3766,
    "means</w>": 3767,
    "box</w>": 3768,
    "fas": 3769,
    "1991</w>": 3770,
    "powerful</w>": 3771,
    "ble": 3772,
    "lane</w>": 3773,
    "claim</w>": 3774,
    "typically</w>": 3775,
    "meeting</w>": 3776,
    "ón</w>": 3777,
    "pup": 3778,
    "chris</w>": 3779,
    "copies</w>": 3780,
    "cs</w>": 3781,
    "themes</w>": 3782,
    "quality</w>": 3783,
    "conven": 3784,
    "hands</w>": 3785,
    "iron</w>": 3786,
    "dr": 3787,
    "finan": 3788,
    "victori": 3789,
    "respectively</w>": 3790,
    "drew</w>": 3791,
    "ribution</w>": 3792,
    "timony</w>": 3793,
    "says</w>": 3794,
    "degre": 3795,
    "extre": 3796,
    "fish</w>": 3797,
    "burn</w>": 3798,
    "need</w>": 3799,
    "illu": 3800,
    "47</w>": 3801,
    "activities</w>": 3802,
    "sister</w>": 3803,
    "pursu": 3804,
    "words</w>": 3805,
    "islands</w>": 3806,
    "48</w>": 3807,
    "anderson</w>": 3808,
    "describes</w>": 3809,
    "ids</w>": 3810,
    "husband</w>": 3811,
    "she": 3812,
    "security</w>": 3813,
    "completely</w>": 3814,
    "market</w>": 3815,
    "hood</w>": 3816,
    "complex</w>": 3817,
    "missed</w>": 3818,
    "approa": 3819,
    "bol": 3820,
    "1992</w>": 3821,
    "combat</w>": 3822,
    "envir": 3823,
    "observed</w>": 3824,
    "heavi": 3825,
    "heavily</w>": 3826,
    "med": 3827,
    "insul": 3828,
    "alized</w>": 3829,
    "fam": 3830,
    "1994</w>": 3831,
    "rights</w>": 3832,
    "opport": 3833,
    "managed</w>": 3834,
    "athens</w>": 3835,
    "weight</w>": 3836,
    "reduced</w>": 3837,
    "tress</w>": 3838,
    "transport</w>": 3839,
    "rely</w>": 3840,
    "lightly</w>": 3841,
    "electr": 3842,
    "condom</w>": 3843,
    "affected</w>": 3844,
    "stop": 3845,
    "elling</w>": 3846,
    "jackson</w>": 3847,
    "boat</w>": 3848,
    "design": 3849,
    "matches</w>": 3850,
    "sexual</w>": 3851,
    "resulted</w>": 3852,
    "hl</w>": 3853,
    "minneso": 3854,
    "minnesota</w>": 3855,
    "wind</w>": 3856,
    "acting</w>": 3857,
    "appar": 3858,
    "concluded</w>": 3859,
    "tenn": 3860,
    "defence</w>": 3861,
    "hanna</w>": 3862,
    "audience</w>": 3863,
    "enter</w>": 3864,
    "pal</w>": 3865,
    "lord</w>": 3866,
    "mit": 3867,
    "reports</w>": 3868,
    "calling</w>": 3869,
    "strength</w>": 3870,
    "plays</w>": 3871,
    "entertain": 3872,
    "cruis": 3873,
    "constan": 3874,
    "residents</w>": 3875,
    "cost</w>": 3876,
    "conditions</w>": 3877,
    "liber": 3878,
    "techni": 3879,
    "qua": 3880,
    "beach</w>": 3881,
    "nh</w>": 3882,
    "kakap": 3883,
    "kakapo</w>": 3884,
    "revealed</w>": 3885,
    "featuring</w>": 3886,
    "real": 3887,
    "vehi": 3888,
    "sas</w>": 3889,
    "efforts</w>": 3890,
    "smo": 3891,
    "patter": 3892,
    "stron": 3893,
    "sat": 3894,
    "core</w>": 3895,
    "sky</w>": 3896,
    "fly</w>": 3897,
    "aring</w>": 3898,
    "wave</w>": 3899,
    "townsend</w>": 3900,
    "stadium</w>": 3901,
    "rosebery</w>": 3902,
    "separate</w>": 3903,
    "dv": 3904,
    "artists</w>": 3905,
    "account</w>": 3906,
    "description</w>": 3907,
    "search": 3908,
    "program": 3909,
    "write</w>": 3910,
    "environ": 3911,
    "relief</w>": 3912,
    "refused</w>": 3913,
    "declared</w>": 3914,
    "lers</w>": 3915,
    "asi</w>": 3916,
    "thunder": 3917,
    "cricket</w>": 3918,
    "independence</w>": 3919,
    "therefore</w>": 3920,
    "charge</w>": 3921,
    "1970</w>": 3922,
    "doub": 3923,
    "mount</w>": 3924,
    "hai": 3925,
    "od": 3926,
    "compo": 3927,
    "walpole</w>": 3928,
    "advent": 3929,
    "finkel": 3930,
    "finkelstein</w>": 3931,
    "hawa": 3932,
    "meyer": 3933,
    "meyerbeer</w>": 3934,
    "sales</w>": 3935,
    "approach</w>": 3936,
    "fight</w>": 3937,
    "maxim": 3938,
    "instru": 3939,
    "shment</w>": 3940,
    "naval</w>": 3941,
    "seasons</w>": 3942,
    "aped</w>": 3943,
    "0th</w>": 3944,
    "cli": 3945,
    "demon": 3946,
    "rep": 3947,
    "mun": 3948,
    "titles</w>": 3949,
    "certi": 3950,
    "marily</w>": 3951,
    "impact</w>": 3952,
    "explor": 3953,
    "shiva</w>": 3954,
    "emperor</w>": 3955,
    "casualties</w>": 3956,
    "helm</w>": 3957,
    "tessa</w>": 3958,
    "asses</w>": 3959,
    "foreign</w>": 3960,
    "incorpor": 3961,
    "visu": 3962,
    "issues</w>": 3963,
    "flow": 3964,
    "thick</w>": 3965,
    "necess": 3966,
    "tric</w>": 3967,
    "broken</w>": 3968,
    "dep": 3969,
    "ui": 3970,
    "persi": 3971,
    "dur": 3972,
    "aging</w>": 3973,
    "nicole</w>": 3974,
    "ottoman</w>": 3975,
    "yue</w>": 3976,
    "gained</w>": 3977,
    "em</w>": 3978,
    "becomes</w>": 3979,
    "attention</w>": 3980,
    "mr</w>": 3981,
    "organized</w>": 3982,
    "mainly</w>": 3983,
    "titled</w>": 3984,
    "ak</w>": 3985,
    "drawn</w>": 3986,
    "beha": 3987,
    "practice</w>": 3988,
    "follow</w>": 3989,
    "bin": 3990,
    "dr</w>": 3991,
    "bury</w>": 3992,
    "nam</w>": 3993,
    "divided</w>": 3994,
    "istic</w>": 3995,
    "foot</w>": 3996,
    "8th</w>": 3997,
    "build</w>": 3998,
    "scale</w>": 3999,
    "sand</w>": 4000,
    "sport</w>": 4001,
    "tournament</w>": 4002,
    "strugg": 4003,
    "sign</w>": 4004,
    "italian</w>": 4005,
    "woun": 4006,
    "alo": 4007,
    "aly</w>": 4008,
    "un</w>": 4009,
    "soundtrack</w>": 4010,
    "produce</w>": 4011,
    "cab": 4012,
    "stal</w>": 4013,
    "onic</w>": 4014,
    "braathens</w>": 4015,
    "stems</w>": 4016,
    "preci": 4017,
    "legis": 4018,
    "ultimately</w>": 4019,
    "letters</w>": 4020,
    "manufac": 4021,
    "roo": 4022,
    "elected</w>": 4023,
    "eye</w>": 4024,
    "quali": 4025,
    "gene": 4026,
    "ging</w>": 4027,
    "rich</w>": 4028,
    "actually</w>": 4029,
    "alone</w>": 4030,
    "ricul": 4031,
    "primarily</w>": 4032,
    "rical</w>": 4033,
    "34</w>": 4034,
    "excav": 4035,
    "infall</w>": 4036,
    "oma": 4037,
    "borough</w>": 4038,
    "serving</w>": 4039,
    "exclu": 4040,
    "strated</w>": 4041,
    "kings</w>": 4042,
    "critic</w>": 4043,
    "1990</w>": 4044,
    "johnson</w>": 4045,
    "struck</w>": 4046,
    "roles</w>": 4047,
    "accepted</w>": 4048,
    "wol": 4049,
    "cannot</w>": 4050,
    "intelli": 4051,
    "hotel</w>": 4052,
    "achieved</w>": 4053,
    "illino": 4054,
    "dj": 4055,
    "difficul": 4056,
    "concept</w>": 4057,
    "advantage</w>": 4058,
    "fant": 4059,
    "perman": 4060,
    "authority</w>": 4061,
    "53</w>": 4062,
    "paper</w>": 4063,
    "designated</w>": 4064,
    "commissioned</w>": 4065,
    "43</w>": 4066,
    "industri": 4067,
    "silver</w>": 4068,
    "bank</w>": 4069,
    "entertainment</w>": 4070,
    "rise</w>": 4071,
    "weather</w>": 4072,
    "ridge</w>": 4073,
    "portugu": 4074,
    "portuguese</w>": 4075,
    "job</w>": 4076,
    "foundation</w>": 4077,
    "colony</w>": 4078,
    "along": 4079,
    "alongside</w>": 4080,
    "serious</w>": 4081,
    "authorities</w>": 4082,
    "list": 4083,
    "was": 4084,
    "orial</w>": 4085,
    "elev": 4086,
    "shel": 4087,
    "tories</w>": 4088,
    "entation</w>": 4089,
    "northeast</w>": 4090,
    "channel</w>": 4091,
    "neigh": 4092,
    "boun": 4093,
    "behavi": 4094,
    "cum": 4095,
    "categ": 4096,
    "aria</w>": 4097,
    "rainfall</w>": 4098,
    "soviet</w>": 4099,
    "workers</w>": 4100,
    "flooding</w>": 4101,
    "antimony</w>": 4102,
    "remain</w>": 4103,
    "link</w>": 4104,
    "dang": 4105,
    "onym": 4106,
    "arity</w>": 4107,
    "battery</w>": 4108,
    "paid</w>": 4109,
    "gence</w>": 4110,
    "fan": 4111,
    "bell</w>": 4112,
    "1986</w>": 4113,
    "cities</w>": 4114,
    "fit</w>": 4115,
    "use": 4116,
    "det": 4117,
    "slightly</w>": 4118,
    "branch</w>": 4119,
    "newspaper</w>": 4120,
    "61</w>": 4121,
    "eva</w>": 4122,
    "data</w>": 4123,
    "mine</w>": 4124,
    "entran": 4125,
    "ories</w>": 4126,
    "sphere</w>": 4127,
    "susta": 4128,
    "males</w>": 4129,
    "twice</w>": 4130,
    "composition</w>": 4131,
    "expressed</w>": 4132,
    "inches</w>": 4133,
    "eth": 4134,
    "aling</w>": 4135,
    "may": 4136,
    "acce": 4137,
    "architec": 4138,
    "kind</w>": 4139,
    "concent": 4140,
    "eces</w>": 4141,
    "spain</w>": 4142,
    "opera</w>": 4143,
    "defensive</w>": 4144,
    "tas": 4145,
    "officials</w>": 4146,
    "except</w>": 4147,
    "doing</w>": 4148,
    "access</w>": 4149,
    "founded</w>": 4150,
    "tail</w>": 4151,
    "kra": 4152,
    "flying</w>": 4153,
    "disease</w>": 4154,
    "rated</w>": 4155,
    "sculp": 4156,
    "visit</w>": 4157,
    "lie</w>": 4158,
    "showed</w>": 4159,
    "fey</w>": 4160,
    "frank</w>": 4161,
    "zy</w>": 4162,
    "computer</w>": 4163,
    "vietnam</w>": 4164,
    "rug": 4165,
    "officially</w>": 4166,
    "color</w>": 4167,
    "expe": 4168,
    "knowledge</w>": 4169,
    "northwest</w>": 4170,
    "os": 4171,
    "servation</w>": 4172,
    "analysis</w>": 4173,
    "51</w>": 4174,
    "toward</w>": 4175,
    "ull</w>": 4176,
    "die</w>": 4177,
    "earth": 4178,
    "fruit</w>": 4179,
    "commission</w>": 4180,
    "alab": 4181,
    "ody</w>": 4182,
    "cen": 4183,
    "rock": 4184,
    "welsh</w>": 4185,
    "tintin</w>": 4186,
    "varan": 4187,
    "varanasi</w>": 4188,
    "keep</w>": 4189,
    "onymous</w>": 4190,
    "arms</w>": 4191,
    "winter</w>": 4192,
    "meet</w>": 4193,
    "mes</w>": 4194,
    "represented</w>": 4195,
    "currently</w>": 4196,
    "neu": 4197,
    "physical</w>": 4198,
    "advi": 4199,
    "tree</w>": 4200,
    "nesbit": 4201,
    "nesbitt</w>": 4202,
    "game": 4203,
    "continues</w>": 4204,
    "lives</w>": 4205,
    "guar": 4206,
    "prevent</w>": 4207,
    "pment</w>": 4208,
    "financial</w>": 4209,
    "earliest</w>": 4210,
    "recomm": 4211,
    "individuals</w>": 4212,
    "angeles</w>": 4213,
    "ix</w>": 4214,
    "dome": 4215,
    "domestic</w>": 4216,
    "zo": 4217,
    "ood</w>": 4218,
    "mentioned</w>": 4219,
    "encoura": 4220,
    "thea": 4221,
    "tar</w>": 4222,
    "israel</w>": 4223,
    "wic": 4224,
    "oda": 4225,
    "odaen": 4226,
    "odaenath": 4227,
    "odaenathus</w>": 4228,
    "ases</w>": 4229,
    "care</w>": 4230,
    "stal": 4231,
    "influenced</w>": 4232,
    "jac": 4233,
    "tax": 4234,
    "torpe": 4235,
    "roy</w>": 4236,
    "cerem": 4237,
    "adopted</w>": 4238,
    "rup": 4239,
    "reign</w>": 4240,
    "singing</w>": 4241,
    "enting</w>": 4242,
    "resulting</w>": 4243,
    "perfect</w>": 4244,
    "oppon": 4245,
    "dia</w>": 4246,
    "olympic</w>": 4247,
    "engineer</w>": 4248,
    "sarnia</w>": 4249,
    "dumont</w>": 4250,
    "alle": 4251,
    "executive</w>": 4252,
    "dges</w>": 4253,
    "rear</w>": 4254,
    "door</w>": 4255,
    "rose</w>": 4256,
    "dedicated</w>": 4257,
    "basis</w>": 4258,
    "net</w>": 4259,
    "ssive</w>": 4260,
    "18th</w>": 4261,
    "occup": 4262,
    "150</w>": 4263,
    "musici": 4264,
    "tribu": 4265,
    "increasing</w>": 4266,
    "onist</w>": 4267,
    "pun": 4268,
    "m2</w>": 4269,
    "sr</w>": 4270,
    "illinois</w>": 4271,
    "debu": 4272,
    "digital</w>": 4273,
    "fa</w>": 4274,
    "tially</w>": 4275,
    "wise</w>": 4276,
    "begin</w>": 4277,
    "reason</w>": 4278,
    "lee</w>": 4279,
    "determined</w>": 4280,
    "direction</w>": 4281,
    "roads</w>": 4282,
    "surrounding</w>": 4283,
    "visited</w>": 4284,
    "heart</w>": 4285,
    "44</w>": 4286,
    "urban</w>": 4287,
    "studios</w>": 4288,
    "slow": 4289,
    "manchester</w>": 4290,
    "lar</w>": 4291,
    "susp": 4292,
    "anth": 4293,
    "viewers</w>": 4294,
    "secret</w>": 4295,
    "peace</w>": 4296,
    "aid</w>": 4297,
    "wash": 4298,
    "washington</w>": 4299,
    "exhi": 4300,
    "relatively</w>": 4301,
    "maximum</w>": 4302,
    "discu": 4303,
    "inch</w>": 4304,
    "42</w>": 4305,
    "shu</w>": 4306,
    "vess": 4307,
    "lau": 4308,
    "medical</w>": 4309,
    "potential</w>": 4310,
    "transferred</w>": 4311,
    "attended</w>": 4312,
    "tried</w>": 4313,
    "1988</w>": 4314,
    "chapel</w>": 4315,
    "females</w>": 4316,
    "mouth</w>": 4317,
    "capture</w>": 4318,
    "losing</w>": 4319,
    "ado</w>": 4320,
    "pine</w>": 4321,
    "admir": 4322,
    "ingui": 4323,
    "journey</w>": 4324,
    "older</w>": 4325,
    "heli": 4326,
    "nic": 4327,
    "stan</w>": 4328,
    "anz": 4329,
    "freeway</w>": 4330,
    "effort</w>": 4331,
    "tionary</w>": 4332,
    "systems</w>": 4333,
    "unlike</w>": 4334,
    "proved</w>": 4335,
    "agreement</w>": 4336,
    "64</w>": 4337,
    "oil</w>": 4338,
    "loy": 4339,
    "65</w>": 4340,
    "student</w>": 4341,
    "creation</w>": 4342,
    "wher": 4343,
    "beyond</w>": 4344,
    "meanwhile</w>": 4345,
    "kic": 4346,
    "mic": 4347,
    "objec": 4348,
    "alabama</w>": 4349,
    "notable</w>": 4350,
    "dissi": 4351,
    "inva": 4352,
    "drive</w>": 4353,
    "kovic</w>": 4354,
    "omaha</w>": 4355,
    "orders</w>": 4356,
    "ept</w>": 4357,
    "cited</w>": 4358,
    "prise</w>": 4359,
    "collabor": 4360,
    "literature</w>": 4361,
    "poly": 4362,
    "threat": 4363,
    "matic</w>": 4364,
    "aware</w>": 4365,
    "animal</w>": 4366,
    "empha": 4367,
    "believe</w>": 4368,
    "buried</w>": 4369,
    "avi": 4370,
    "sin</w>": 4371,
    "agricul": 4372,
    "opposed</w>": 4373,
    "flow</w>": 4374,
    "actors</w>": 4375,
    "archaeological</w>": 4376,
    "night": 4377,
    "mary": 4378,
    "battle": 4379,
    "follows</w>": 4380,
    "charts</w>": 4381,
    "gates</w>": 4382,
    "believ": 4383,
    "conflict</w>": 4384,
    "note</w>": 4385,
    "deplo": 4386,
    "photo": 4387,
    "organis": 4388,
    "ditionally</w>": 4389,
    "results</w>": 4390,
    "inner</w>": 4391,
    "possibly</w>": 4392,
    "model</w>": 4393,
    "baseball</w>": 4394,
    "ken": 4395,
    "boats</w>": 4396,
    "focus</w>": 4397,
    "55</w>": 4398,
    "dden</w>": 4399,
    "bla": 4400,
    "yellow</w>": 4401,
    "1960s</w>": 4402,
    "opini": 4403,
    "institute</w>": 4404,
    "golden</w>": 4405,
    "pes</w>": 4406,
    "intensity</w>": 4407,
    "hope</w>": 4408,
    "resol": 4409,
    "timore</w>": 4410,
    "helms</w>": 4411,
    "ano": 4412,
    "ceres</w>": 4413,
    "mogadi": 4414,
    "mogadishu</w>": 4415,
    "perón</w>": 4416,
    "grow": 4417,
    "returning</w>": 4418,
    "simply</w>": 4419,
    "dun": 4420,
    "49</w>": 4421,
    "1940</w>": 4422,
    "edward</w>": 4423,
    "shape</w>": 4424,
    "border</w>": 4425,
    "ah</w>": 4426,
    "supporting</w>": 4427,
    "conce": 4428,
    "1980s</w>": 4429,
    "clim": 4430,
    "1964</w>": 4431,
    "stations</w>": 4432,
    "images</w>": 4433,
    "tices</w>": 4434,
    "sched": 4435,
    "schedul": 4436,
    "treaty</w>": 4437,
    "q</w>": 4438,
    "historian</w>": 4439,
    "prime</w>": 4440,
    "planet</w>": 4441,
    "structures</w>": 4442,
    "wilhelm</w>": 4443,
    "ode</w>": 4444,
    "innis</w>": 4445,
    "content</w>": 4446,
    "kept</w>": 4447,
    "mechan": 4448,
    "emed</w>": 4449,
    "passing</w>": 4450,
    "mess": 4451,
    "sic</w>": 4452,
    "necessary</w>": 4453,
    "equipment</w>": 4454,
    "successfully</w>": 4455,
    "jose": 4456,
    "joseph</w>": 4457,
    "entrance</w>": 4458,
    "ist</w>": 4459,
    "technology</w>": 4460,
    "economic</w>": 4461,
    "camer": 4462,
    "cases</w>": 4463,
    "neutr": 4464,
    "tan</w>": 4465,
    "cardi": 4466,
    "aries</w>": 4467,
    "discus": 4468,
    "adverti": 4469,
    "growing</w>": 4470,
    "dissip": 4471,
    "underground</w>": 4472,
    "rugby</w>": 4473,
    "expen": 4474,
    "jupit": 4475,
    "railway</w>": 4476,
    "secretary</w>": 4477,
    "kg</w>": 4478,
    "filming</w>": 4479,
    "dding</w>": 4480,
    "cer</w>": 4481,
    "argued</w>": 4482,
    "importance</w>": 4483,
    "rare</w>": 4484,
    "aer": 4485,
    "pieces</w>": 4486,
    "weekly</w>": 4487,
    "promotion</w>": 4488,
    "chen</w>": 4489,
    "kore": 4490,
    "mccall</w>": 4491,
    "playstation</w>": 4492,
    "leader</w>": 4493,
    "guard</w>": 4494,
    "publication</w>": 4495,
    "suggests</w>": 4496,
    "bob</w>": 4497,
    "projects</w>": 4498,
    "resta": 4499,
    "restaur": 4500,
    "lay</w>": 4501,
    "grew</w>": 4502,
    "rebel": 4503,
    "argent": 4504,
    "landing</w>": 4505,
    "zes</w>": 4506,
    "aired</w>": 4507,
    "95</w>": 4508,
    "baltimore</w>": 4509,
    "rihanna</w>": 4510,
    "hamels</w>": 4511,
    "zer</w>": 4512,
    "website</w>": 4513,
    "criticized</w>": 4514,
    "volume</w>": 4515,
    "pay</w>": 4516,
    "black": 4517,
    "beat</w>": 4518,
    "consecu": 4519,
    "letter</w>": 4520,
    "cardin": 4521,
    "fted</w>": 4522,
    "wy": 4523,
    "mond</w>": 4524,
    "circu": 4525,
    "actress</w>": 4526,
    "escape</w>": 4527,
    "ak": 4528,
    "advanced</w>": 4529,
    "600</w>": 4530,
    "causing</w>": 4531,
    "hair</w>": 4532,
    "legen": 4533,
    "selling</w>": 4534,
    "tell</w>": 4535,
    "reference</w>": 4536,
    "couple</w>": 4537,
    "touri": 4538,
    "campus</w>": 4539,
    "breeding</w>": 4540,
    "ino</w>": 4541,
    "ized</w>": 4542,
    "growth</w>": 4543,
    "property</w>": 4544,
    "homes</w>": 4545,
    "reaching</w>": 4546,
    "draft</w>": 4547,
    "allen</w>": 4548,
    "elim": 4549,
    "jupiter</w>": 4550,
    "travel</w>": 4551,
    "drama</w>": 4552,
    "screen</w>": 4553,
    "guest</w>": 4554,
    "slo": 4555,
    "evol": 4556,
    "crown</w>": 4557,
    "eag": 4558,
    "claims</w>": 4559,
    "reaction</w>": 4560,
    "av": 4561,
    "containing</w>": 4562,
    "debuted</w>": 4563,
    "horses</w>": 4564,
    "apple": 4565,
    "djed": 4566,
    "djedk": 4567,
    "djedkare</w>": 4568,
    "enemy</w>": 4569,
    "fal": 4570,
    "chosen</w>": 4571,
    "graph</w>": 4572,
    "nor</w>": 4573,
    "devo": 4574,
    "administration</w>": 4575,
    "andrew</w>": 4576,
    "cr": 4577,
    "personnel</w>": 4578,
    "ologist</w>": 4579,
    "contrast</w>": 4580,
    "aggre": 4581,
    "wounded</w>": 4582,
    "religion</w>": 4583,
    "prac": 4584,
    "experim": 4585,
    "theory</w>": 4586,
    "acci": 4587,
    "ational</w>": 4588,
    "prison": 4589,
    "1947</w>": 4590,
    "grams</w>": 4591,
    "torres</w>": 4592,
    "granted</w>": 4593,
    "rejected</w>": 4594,
    "newly</w>": 4595,
    "cell": 4596,
    "abandoned</w>": 4597,
    "house": 4598,
    "prominent</w>": 4599,
    "consecutive</w>": 4600,
    "connected</w>": 4601,
    "rar": 4602,
    "unknown</w>": 4603,
    "ods</w>": 4604,
    "replac": 4605,
    "eth</w>": 4606,
    "seems</w>": 4607,
    "nit": 4608,
    "ahead</w>": 4609,
    "viewed</w>": 4610,
    "commonly</w>": 4611,
    "multiple</w>": 4612,
    "voic": 4613,
    "cust": 4614,
    "tations</w>": 4615,
    "kan": 4616,
    "confirmed</w>": 4617,
    "operated</w>": 4618,
    "1941</w>": 4619,
    "metho": 4620,
    "wild</w>": 4621,
    "unity</w>": 4622,
    "encoun": 4623,
    "gated</w>": 4624,
    "scottish</w>": 4625,
    "promis": 4626,
    "alex": 4627,
    "cells</w>": 4628,
    "secondary</w>": 4629,
    "assault</w>": 4630,
    "deities</w>": 4631,
    "where": 4632,
    "increasingly</w>": 4633,
    "fields</w>": 4634,
    "settlement</w>": 4635,
    "quake</w>": 4636,
    "crazy</w>": 4637,
    "bid</w>": 4638,
    "applewhite</w>": 4639,
    "hem": 4640,
    "54</w>": 4641,
    "phia</w>": 4642,
    "1987</w>": 4643,
    "seconds</w>": 4644,
    "stones</w>": 4645,
    "restric": 4646,
    "broke</w>": 4647,
    "acted</w>": 4648,
    "strong": 4649,
    "regions</w>": 4650,
    "passes</w>": 4651,
    "moment</w>": 4652,
    "risk</w>": 4653,
    "dates</w>": 4654,
    "generation</w>": 4655,
    "cin": 4656,
    "haven</w>": 4657,
    "touchdown</w>": 4658,
    "cake</w>": 4659,
    "revolution</w>": 4660,
    "fantasy</w>": 4661,
    "versions</w>": 4662,
    "missi": 4663,
    "fit": 4664,
    "families</w>": 4665,
    "nur": 4666,
    "keep": 4667,
    "spon": 4668,
    "cks</w>": 4669,
    "di</w>": 4670,
    "senior</w>": 4671,
    "gall": 4672,
    "identified</w>": 4673,
    "controlled</w>": 4674,
    "ided</w>": 4675,
    "com</w>": 4676,
    "bie</w>": 4677,
    "phili": 4678,
    "egyptian</w>": 4679,
    "feel</w>": 4680,
    "promoted</w>": 4681,
    "guil": 4682,
    "1970s</w>": 4683,
    "killing</w>": 4684,
    "holds</w>": 4685,
    "solo</w>": 4686,
    "nominated</w>": 4687,
    "explained</w>": 4688,
    "temperature</w>": 4689,
    "berg</w>": 4690,
    "slam</w>": 4691,
    "hi</w>": 4692,
    "gil": 4693,
    "volun": 4694,
    "nc</w>": 4695,
    "chronic": 4696,
    "unique</w>": 4697,
    "anonymous</w>": 4698,
    "ror</w>": 4699,
    "save</w>": 4700,
    "aspec": 4701,
    "dvd</w>": 4702,
    "1989</w>": 4703,
    "jen": 4704,
    "memorial</w>": 4705,
    "seas</w>": 4706,
    "colo": 4707,
    "phase</w>": 4708,
    "famous</w>": 4709,
    "1984</w>": 4710,
    "croatia</w>": 4711,
    "greek</w>": 4712,
    "nasty</w>": 4713,
    "laid</w>": 4714,
    "celebr": 4715,
    "philo": 4716,
    "philosop": 4717,
    "bal</w>": 4718,
    "1972</w>": 4719,
    "effective</w>": 4720,
    "cap</w>": 4721,
    "fame</w>": 4722,
    "arrang": 4723,
    "tine</w>": 4724,
    "bbc</w>": 4725,
    "barrow</w>": 4726,
    "jur": 4727,
    "atta": 4728,
    "bass</w>": 4729,
    "iling</w>": 4730,
    "interpre": 4731,
    "supply</w>": 4732,
    "nothing</w>": 4733,
    "employed</w>": 4734,
    "disco": 4735,
    "1985</w>": 4736,
    "biography</w>": 4737,
    "choice</w>": 4738,
    "color": 4739,
    "outer</w>": 4740,
    "fired</w>": 4741,
    "mike</w>": 4742,
    "animals</w>": 4743,
    "share</w>": 4744,
    "max</w>": 4745,
    "gain</w>": 4746,
    "ula</w>": 4747,
    "ghly</w>": 4748,
    "atic</w>": 4749,
    "gal</w>": 4750,
    "folk</w>": 4751,
    "dream</w>": 4752,
    "tav": 4753,
    "visual</w>": 4754,
    "stered</w>": 4755,
    "pied</w>": 4756,
    "poetry</w>": 4757,
    "1960</w>": 4758,
    "less": 4759,
    "correc": 4760,
    "inth</w>": 4761,
    "subsequent</w>": 4762,
    "41</w>": 4763,
    "ller</w>": 4764,
    "worth</w>": 4765,
    "ideas</w>": 4766,
    "setting</w>": 4767,
    "adult</w>": 4768,
    "hms</w>": 4769,
    "writes</w>": 4770,
    "filmed</w>": 4771,
    "russian</w>": 4772,
    "cardiff</w>": 4773,
    "destin": 4774,
    "cougar</w>": 4775,
    "perform</w>": 4776,
    "weapons</w>": 4777,
    "model": 4778,
    "journ": 4779,
    "ising</w>": 4780,
    "ok": 4781,
    "consisted</w>": 4782,
    "rapidly</w>": 4783,
    "herself</w>": 4784,
    "atmo": 4785,
    "1944</w>": 4786,
    "phila": 4787,
    "philadel": 4788,
    "philadelphia</w>": 4789,
    "michi": 4790,
    "michigan</w>": 4791,
    "vocal</w>": 4792,
    "murder</w>": 4793,
    "gives</w>": 4794,
    "offer</w>": 4795,
    "stood</w>": 4796,
    "regarded</w>": 4797,
    "story": 4798,
    "mortal</w>": 4799,
    "bat</w>": 4800,
    "views</w>": 4801,
    "micro": 4802,
    "experienced</w>": 4803,
    "lin</w>": 4804,
    "eval</w>": 4805,
    "invasion</w>": 4806,
    "rence</w>": 4807,
    "benef": 4808,
    "trial</w>": 4809,
    "ranged</w>": 4810,
    "aspects</w>": 4811,
    "substan": 4812,
    "prepared</w>": 4813,
    "marks</w>": 4814,
    "astic</w>": 4815,
    "ata</w>": 4816,
    "bot": 4817,
    "happy</w>": 4818,
    "deman": 4819,
    "dropped</w>": 4820,
    "depth</w>": 4821,
    "fix": 4822,
    "easi": 4823,
    "failure</w>": 4824,
    "bond</w>": 4825,
    "mind</w>": 4826,
    "seven": 4827,
    "seventh</w>": 4828,
    "symbo": 4829,
    "distingui": 4830,
    "maintained</w>": 4831,
    "acts</w>": 4832,
    "dred</w>": 4833,
    "avoid</w>": 4834,
    "rolling</w>": 4835,
    "hero": 4836,
    "1990s</w>": 4837,
    "premier</w>": 4838,
    "igu": 4839,
    "battalions</w>": 4840,
    "keats</w>": 4841,
    "popularity</w>": 4842,
    "extensive</w>": 4843,
    "tenant</w>": 4844,
    "efly</w>": 4845,
    "mark": 4846,
    "sn": 4847,
    "injury</w>": 4848,
    "slow</w>": 4849,
    "stages</w>": 4850,
    "join</w>": 4851,
    "waters</w>": 4852,
    "deliver": 4853,
    "province</w>": 4854,
    "tude</w>": 4855,
    "frequently</w>": 4856,
    "mont": 4857,
    "crete</w>": 4858,
    "collap": 4859,
    "cies</w>": 4860,
    "occur</w>": 4861,
    "dan": 4862,
    "hair": 4863,
    "vin</w>": 4864,
    "landfall</w>": 4865,
    "pitched</w>": 4866,
    "chains</w>": 4867,
    "vietnam": 4868,
    "lit</w>": 4869,
    "criticism</w>": 4870,
    "sively</w>": 4871,
    "retired</w>": 4872,
    "sia</w>": 4873,
    "value</w>": 4874,
    "gulf</w>": 4875,
    "sustained</w>": 4876,
    "steve</w>": 4877,
    "consist": 4878,
    "normal</w>": 4879,
    "transit</w>": 4880,
    "stence</w>": 4881,
    "miss</w>": 4882,
    "conv": 4883,
    "tment</w>": 4884,
    "italy</w>": 4885,
    "humans</w>": 4886,
    "resem": 4887,
    "truth</w>": 4888,
    "usual</w>": 4889,
    "bring</w>": 4890,
    "ulated</w>": 4891,
    "medieval</w>": 4892,
    "km2</w>": 4893,
    "bound</w>": 4894,
    "vis</w>": 4895,
    "andy</w>": 4896,
    "gers</w>": 4897,
    "palest": 4898,
    "text</w>": 4899,
    "creating</w>": 4900,
    "americans</w>": 4901,
    "turing</w>": 4902,
    "suffici": 4903,
    "96</w>": 4904,
    "semi</w>": 4905,
    "lem": 4906,
    "ric</w>": 4907,
    "significantly</w>": 4908,
    "mobi": 4909,
    "reading</w>": 4910,
    "recognized</w>": 4911,
    "hundred</w>": 4912,
    "facilities</w>": 4913,
    "bad</w>": 4914,
    "ax": 4915,
    "finding</w>": 4916,
    "decre": 4917,
    "stream</w>": 4918,
    "why</w>": 4919,
    "rating</w>": 4920,
    "sman</w>": 4921,
    "interchange</w>": 4922,
    "abu</w>": 4923,
    "mush": 4924,
    "walls</w>": 4925,
    "spread</w>": 4926,
    "surren": 4927,
    "perha": 4928,
    "perhaps</w>": 4929,
    "matter</w>": 4930,
    "46</w>": 4931,
    "che</w>": 4932,
    "depar": 4933,
    "56</w>": 4934,
    "rooms</w>": 4935,
    "step": 4936,
    "protection</w>": 4937,
    "chose</w>": 4938,
    "sought</w>": 4939,
    "count</w>": 4940,
    "dden": 4941,
    "counter": 4942,
    "safe": 4943,
    "scheduled</w>": 4944,
    "fur</w>": 4945,
    "dential</w>": 4946,
    "intelligence</w>": 4947,
    "oured</w>": 4948,
    "producers</w>": 4949,
    "peninsul": 4950,
    "lb</w>": 4951,
    "comic</w>": 4952,
    "losses</w>": 4953,
    "recently</w>": 4954,
    "post": 4955,
    "ste</w>": 4956,
    "plain</w>": 4957,
    "starts</w>": 4958,
    "inscrip": 4959,
    "height</w>": 4960,
    "1981</w>": 4961,
    "treatment</w>": 4962,
    "represent</w>": 4963,
    "powers</w>": 4964,
    "filled</w>": 4965,
    "simul": 4966,
    "dish</w>": 4967,
    "lewi": 4968,
    "demic</w>": 4969,
    "quo": 4970,
    "nucleus</w>": 4971,
    "dota</w>": 4972,
    "vietnamese</w>": 4973,
    "gradually</w>": 4974,
    "fought</w>": 4975,
    "request</w>": 4976,
    "dering</w>": 4977,
    "lieu": 4978,
    "chapter</w>": 4979,
    "occupied</w>": 4980,
    "glass</w>": 4981,
    "wind": 4982,
    "mathe": 4983,
    "bered</w>": 4984,
    "milli": 4985,
    "allied</w>": 4986,
    "regarding</w>": 4987,
    "marines</w>": 4988,
    "recon": 4989,
    "rho": 4990,
    "southeast</w>": 4991,
    "nathan</w>": 4992,
    "bari</w>": 4993,
    "thunderbirds</w>": 4994,
    "cambo": 4995,
    "load": 4996,
    "transfer</w>": 4997,
    "promp": 4998,
    "roll</w>": 4999,
    "distribution</w>": 5000,
    "conservation</w>": 5001,
    "kish</w>": 5002,
    "ella</w>": 5003,
    "auto": 5004,
    "contained</w>": 5005,
    "twel": 5006,
    "teenth</w>": 5007,
    "94</w>": 5008,
    "death": 5009,
    "predic": 5010,
    "safety</w>": 5011,
    "rem": 5012,
    "1939</w>": 5013,
    "thu": 5014,
    "policy</w>": 5015,
    "theastern</w>": 5016,
    "za": 5017,
    "finds</w>": 5018,
    "ults</w>": 5019,
    "assive</w>": 5020,
    "gang": 5021,
    "dar</w>": 5022,
    "musc": 5023,
    "ye</w>": 5024,
    "swit": 5025,
    "grade</w>": 5026,
    "1942</w>": 5027,
    "attor": 5028,
    "bited</w>": 5029,
    "world": 5030,
    "worldwide</w>": 5031,
    "bottom</w>": 5032,
    "molec": 5033,
    "habitat</w>": 5034,
    "host</w>": 5035,
    "dged</w>": 5036,
    "centu": 5037,
    "17th</w>": 5038,
    "degree</w>": 5039,
    "negative</w>": 5040,
    "itation</w>": 5041,
    "allows</w>": 5042,
    "collected</w>": 5043,
    "drum</w>": 5044,
    "severe</w>": 5045,
    "oxford</w>": 5046,
    "specific": 5047,
    "180": 5048,
    "cold</w>": 5049,
    "mir": 5050,
    "clou": 5051,
    "covering</w>": 5052,
    "oul": 5053,
    "contributed</w>": 5054,
    "gration</w>": 5055,
    "naz": 5056,
    "athletes</w>": 5057,
    "peninsula</w>": 5058,
    "jim</w>": 5059,
    "gordon</w>": 5060,
    "champion</w>": 5061,
    "gameplay</w>": 5062,
    "missions</w>": 5063,
    "moves</w>": 5064,
    "problem</w>": 5065,
    "improved</w>": 5066,
    "labor": 5067,
    "neither</w>": 5068,
    "lieutenant</w>": 5069,
    "yment</w>": 5070,
    "1918</w>": 5071,
    "zer": 5072,
    "shaped</w>": 5073,
    "pap": 5074,
    "life": 5075,
    "kill</w>": 5076,
    "commo": 5077,
    "economy</w>": 5078,
    "sections</w>": 5079,
    "tren": 5080,
    "minim": 5081,
    "characteris": 5082,
    "treated</w>": 5083,
    "dynasty</w>": 5084,
    "heads</w>": 5085,
    "pilot</w>": 5086,
    "1950s</w>": 5087,
    "survey</w>": 5088,
    "championships</w>": 5089,
    "entirely</w>": 5090,
    "dani": 5091,
    "iss": 5092,
    "turner</w>": 5093,
    "surviv": 5094,
    "nba</w>": 5095,
    "stable</w>": 5096,
    "concrete</w>": 5097,
    "ech": 5098,
    "alla": 5099,
    "lisa</w>": 5100,
    "justice</w>": 5101,
    "yson</w>": 5102,
    "never": 5103,
    "sized</w>": 5104,
    "artic": 5105,
    "arth": 5106,
    "arthur</w>": 5107,
    "budget</w>": 5108,
    "simple</w>": 5109,
    "responded</w>": 5110,
    "shell</w>": 5111,
    "nie</w>": 5112,
    "1968</w>": 5113,
    "62</w>": 5114,
    "threat</w>": 5115,
    "tied</w>": 5116,
    "boston</w>": 5117,
    "camp": 5118,
    "slowly</w>": 5119,
    "valent</w>": 5120,
    "fast</w>": 5121,
    "fashi": 5122,
    "mario</w>": 5123,
    "ander</w>": 5124,
    "tests</w>": 5125,
    "capable</w>": 5126,
    "reasons</w>": 5127,
    "contain</w>": 5128,
    "vul": 5129,
    "musli": 5130,
    "von</w>": 5131,
    "lewis</w>": 5132,
    "motion</w>": 5133,
    "tte</w>": 5134,
    "dutch</w>": 5135,
    "kilomet": 5136,
    "kilometres</w>": 5137,
    "path</w>": 5138,
    "williams</w>": 5139,
    "1969</w>": 5140,
    "profess": 5141,
    "sentence</w>": 5142,
    "arab</w>": 5143,
    "boise</w>": 5144,
    "europi": 5145,
    "europium</w>": 5146,
    "expanded</w>": 5147,
    "grant</w>": 5148,
    "extra</w>": 5149,
    "develop</w>": 5150,
    "exer": 5151,
    "planning</w>": 5152,
    "ish</w>": 5153,
    "wealth</w>": 5154,
    "agent</w>": 5155,
    "ama": 5156,
    "astron": 5157,
    "decor": 5158,
    "repor": 5159,
    "pleas": 5160,
    "brian</w>": 5161,
    "nes</w>": 5162,
    "headed</w>": 5163,
    "decade</w>": 5164,
    "roughly</w>": 5165,
    "achiev": 5166,
    "programs</w>": 5167,
    "1975</w>": 5168,
    "macle": 5169,
    "kang</w>": 5170,
    "canal</w>": 5171,
    "gully</w>": 5172,
    "ria</w>": 5173,
    "goes</w>": 5174,
    "appeal</w>": 5175,
    "heard</w>": 5176,
    "acres</w>": 5177,
    "12th</w>": 5178,
    "libr": 5179,
    "inder</w>": 5180,
    "evening</w>": 5181,
    "covers</w>": 5182,
    "girls</w>": 5183,
    "youth</w>": 5184,
    "faces</w>": 5185,
    "skin</w>": 5186,
    "nego": 5187,
    "negoti": 5188,
    "pope</w>": 5189,
    "centuries</w>": 5190,
    "graphic</w>": 5191,
    "stea": 5192,
    "sands</w>": 5193,
    "occasion": 5194,
    "occasionally</w>": 5195,
    "rub": 5196,
    "transportation</w>": 5197,
    "infec": 5198,
    "display</w>": 5199,
    "items</w>": 5200,
    "possibility</w>": 5201,
    "massive</w>": 5202,
    "1974</w>": 5203,
    "1965</w>": 5204,
    "southwest</w>": 5205,
    "evita</w>": 5206,
    "han</w>": 5207,
    "volunte": 5208,
    "isy</w>": 5209,
    "hawai": 5210,
    "wrest": 5211,
    "imperi": 5212,
    "speaking</w>": 5213,
    "taining</w>": 5214,
    "purpose</w>": 5215,
    "kansas</w>": 5216,
    "instruc": 5217,
    "classified</w>": 5218,
    "floor</w>": 5219,
    "decades</w>": 5220,
    "rey</w>": 5221,
    "churches</w>": 5222,
    "plant</w>": 5223,
    "straight</w>": 5224,
    "additionally</w>": 5225,
    "adding</w>": 5226,
    "52</w>": 5227,
    "munici": 5228,
    "raid</w>": 5229,
    "deaths</w>": 5230,
    "sector</w>": 5231,
    "drop</w>": 5232,
    "train</w>": 5233,
    "dal": 5234,
    "dollar</w>": 5235,
    "violence</w>": 5236,
    "bour": 5237,
    "ians</w>": 5238,
    "beth</w>": 5239,
    "editor</w>": 5240,
    "jane</w>": 5241,
    "gham</w>": 5242,
    "asia</w>": 5243,
    "quite</w>": 5244,
    "chess</w>": 5245,
    "khá": 5246,
    "khánh</w>": 5247,
    "āda</w>": 5248,
    "ech</w>": 5249,
    "synthe": 5250,
    "chemical</w>": 5251,
    "purchased</w>": 5252,
    "func": 5253,
    "fair</w>": 5254,
    "discovery</w>": 5255,
    "66</w>": 5256,
    "avenue</w>": 5257,
    "dd</w>": 5258,
    "isi": 5259,
    "700</w>": 5260,
    "tton</w>": 5261,
    "wedding</w>": 5262,
    "drawing</w>": 5263,
    "didn</w>": 5264,
    "engaged</w>": 5265,
    "typical</w>": 5266,
    "sle": 5267,
    "gie</w>": 5268,
    "harb": 5269,
    "moon</w>": 5270,
    "jamal</w>": 5271,
    "ites</w>": 5272,
    "poet</w>": 5273,
    "compos": 5274,
    "kur": 5275,
    "details</w>": 5276,
    "protag": 5277,
    "umes</w>": 5278,
    "permanent</w>": 5279,
    "attorney</w>": 5280,
    "compri": 5281,
    "dor": 5282,
    "briefly</w>": 5283,
    "poses</w>": 5284,
    "belong": 5285,
    "lars</w>": 5286,
    "1946</w>": 5287,
    "challeng": 5288,
    "nation": 5289,
    "inspir": 5290,
    "tol": 5291,
    "remix</w>": 5292,
    "passeng": 5293,
    "torpedo</w>": 5294,
    "lywood</w>": 5295,
    "declined</w>": 5296,
    "ner": 5297,
    "sity</w>": 5298,
    "tane": 5299,
    "cement</w>": 5300,
    "isab": 5301,
    "falls</w>": 5302,
    "category</w>": 5303,
    "martin</w>": 5304,
    "tre</w>": 5305,
    "begun</w>": 5306,
    "learned</w>": 5307,
    "authors</w>": 5308,
    "politics</w>": 5309,
    "remn": 5310,
    "tennyson</w>": 5311,
    "tia</w>": 5312,
    "zone</w>": 5313,
    "thirty</w>": 5314,
    "cured</w>": 5315,
    "carri": 5316,
    "interior</w>": 5317,
    "1950</w>": 5318,
    "dela": 5319,
    "soft</w>": 5320,
    "eyes</w>": 5321,
    "dean</w>": 5322,
    "elimin": 5323,
    "wei": 5324,
    "performing</w>": 5325,
    "800</w>": 5326,
    "dating</w>": 5327,
    "si</w>": 5328,
    "applied</w>": 5329,
    "mann</w>": 5330,
    "guide</w>": 5331,
    "gus</w>": 5332,
    "za</w>": 5333,
    "congress</w>": 5334,
    "leaders</w>": 5335,
    "illo</w>": 5336,
    "literary</w>": 5337,
    "af</w>": 5338,
    "coastal</w>": 5339,
    "brac": 5340,
    "ling": 5341,
    "basin</w>": 5342,
    "dominated</w>": 5343,
    "settlers</w>": 5344,
    "liu</w>": 5345,
    "simone</w>": 5346,
    "dubl": 5347,
    "iguano": 5348,
    "parall": 5349,
    "line": 5350,
    "meth": 5351,
    "entry</w>": 5352,
    "enjoyed</w>": 5353,
    "citing</w>": 5354,
    "arsen": 5355,
    "bled</w>": 5356,
    "condition</w>": 5357,
    "hired</w>": 5358,
    "1919</w>": 5359,
    "wings</w>": 5360,
    "paint": 5361,
    "paintings</w>": 5362,
    "eral</w>": 5363,
    "participated</w>": 5364,
    "1952</w>": 5365,
    "bus</w>": 5366,
    "clubs</w>": 5367,
    "inging</w>": 5368,
    "visible</w>": 5369,
    "tie</w>": 5370,
    "bad": 5371,
    "repu": 5372,
    "gets</w>": 5373,
    "holy</w>": 5374,
    "#</w>": 5375,
    "scholars</w>": 5376,
    "shr": 5377,
    "ography</w>": 5378,
    "dog</w>": 5379,
    "disa": 5380,
    "accompani": 5381,
    "accompanied</w>": 5382,
    "sie": 5383,
    "var</w>": 5384,
    "longest</w>": 5385,
    "earthquake</w>": 5386,
    "1966</w>": 5387,
    "arrival</w>": 5388,
    "jump</w>": 5389,
    "05</w>": 5390,
    "routes</w>": 5391,
    "phil": 5392,
    "oldest</w>": 5393,
    "acu": 5394,
    "1936</w>": 5395,
    "painting</w>": 5396,
    "technical</w>": 5397,
    "tells</w>": 5398,
    "developing</w>": 5399,
    "76</w>": 5400,
    "engineering</w>": 5401,
    "85</w>": 5402,
    "steph": 5403,
    "brothers</w>": 5404,
    "billion</w>": 5405,
    "contact</w>": 5406,
    "egypt</w>": 5407,
    "characteristics</w>": 5408,
    "braz": 5409,
    "confe": 5410,
    "journal</w>": 5411,
    "rio</w>": 5412,
    "amy</w>": 5413,
    "snow</w>": 5414,
    "78</w>": 5415,
    "command": 5416,
    "uly": 5417,
    "ulysses</w>": 5418,
    "vert</w>": 5419,
    "macleod</w>": 5420,
    "imperial</w>": 5421,
    "fellow</w>": 5422,
    "stra</w>": 5423,
    "alists</w>": 5424,
    "store</w>": 5425,
    "deter": 5426,
    "1973</w>": 5427,
    "fying</w>": 5428,
    "funding</w>": 5429,
    "charter</w>": 5430,
    "ro</w>": 5431,
    "consists</w>": 5432,
    "propos": 5433,
    "combination</w>": 5434,
    "apart</w>": 5435,
    "72</w>": 5436,
    "session</w>": 5437,
    "existence</w>": 5438,
    "chorus</w>": 5439,
    "reserve</w>": 5440,
    "protected</w>": 5441,
    "thousands</w>": 5442,
    "phs</w>": 5443,
    "towns</w>": 5444,
    "widesp": 5445,
    "widespread</w>": 5446,
    "priest</w>": 5447,
    "photogra": 5448,
    "joint</w>": 5449,
    "acre</w>": 5450,
    "franci": 5451,
    "francisc": 5452,
    "reviewers</w>": 5453,
    "bean</w>": 5454,
    "1930</w>": 5455,
    "anthony</w>": 5456,
    "inde": 5457,
    "lasted</w>": 5458,
    "younger</w>": 5459,
    "crowd</w>": 5460,
    "turkish</w>": 5461,
    "clean</w>": 5462,
    "rome</w>": 5463,
    "cerat": 5464,
    "populations</w>": 5465,
    "16th</w>": 5466,
    "chance</w>": 5467,
    "vements</w>": 5468,
    "reality</w>": 5469,
    "engine</w>": 5470,
    "deni": 5471,
    "bron": 5472,
    "oth</w>": 5473,
    "caught</w>": 5474,
    "closely</w>": 5475,
    "pin": 5476,
    "stopped</w>": 5477,
    "clin": 5478,
    "divisions</w>": 5479,
    "missing</w>": 5480,
    "cardinal</w>": 5481,
    "stic": 5482,
    "81</w>": 5483,
    "thri": 5484,
    "turning</w>": 5485,
    "crime</w>": 5486,
    "ective</w>": 5487,
    "thic</w>": 5488,
    "establish</w>": 5489,
    "everything</w>": 5490,
    "existing</w>": 5491,
    "wr": 5492,
    "competitions</w>": 5493,
    "one": 5494,
    "enz": 5495,
    "mountains</w>": 5496,
    "calls</w>": 5497,
    "anything</w>": 5498,
    "weakened</w>": 5499,
    "mean</w>": 5500,
    "monument</w>": 5501,
    "stoc": 5502,
    "1967</w>": 5503,
    "hip</w>": 5504,
    "mobile</w>": 5505,
    "juan</w>": 5506,
    "glades</w>": 5507,
    "fusion</w>": 5508,
    "rying</w>": 5509,
    "greatly</w>": 5510,
    "exist</w>": 5511,
    "wear": 5512,
    "aser</w>": 5513,
    "legacy</w>": 5514,
    "mitted</w>": 5515,
    "itable</w>": 5516,
    "friend": 5517,
    "1930s</w>": 5518,
    "opportunity</w>": 5519,
    "assistant</w>": 5520,
    "wins</w>": 5521,
    "statis": 5522,
    "71</w>": 5523,
    "nan": 5524,
    "1914</w>": 5525,
    "element</w>": 5526,
    "creator</w>": 5527,
    "inte": 5528,
    "similarly</w>": 5529,
    "rules</w>": 5530,
    "classic</w>": 5531,
    "gli": 5532,
    "formula</w>": 5533,
    "races</w>": 5534,
    "decline</w>": 5535,
    "provides</w>": 5536,
    "derived</w>": 5537,
    "pet</w>": 5538,
    "ceremony</w>": 5539,
    "holding</w>": 5540,
    "log": 5541,
    "cem": 5542,
    "trip</w>": 5543,
    "convo": 5544,
    "hei": 5545,
    "noisy</w>": 5546,
    "other": 5547,
    "changing</w>": 5548,
    "task</w>": 5549,
    "descen": 5550,
    "vehicles</w>": 5551,
    "dougl": 5552,
    "douglas</w>": 5553,
    "sort</w>": 5554,
    "invited</w>": 5555,
    "bought</w>": 5556,
    "receiving</w>": 5557,
    "bet</w>": 5558,
    "common": 5559,
    "industrial</w>": 5560,
    "arily</w>": 5561,
    "palace</w>": 5562,
    "locations</w>": 5563,
    "seat</w>": 5564,
    "modi": 5565,
    "contribu": 5566,
    "restaurant</w>": 5567,
    "ean</w>": 5568,
    "diss": 5569,
    "horn": 5570,
    "hornung</w>": 5571,
    "compla": 5572,
    "technique</w>": 5573,
    "narra": 5574,
    "carib": 5575,
    "caribbean</w>": 5576,
    "storyline</w>": 5577,
    "day": 5578,
    "pregn": 5579,
    "shu": 5580,
    "herit": 5581,
    "asing</w>": 5582,
    "jaz": 5583,
    "jazz</w>": 5584,
    "anny</w>": 5585,
    "innings</w>": 5586,
    "rail</w>": 5587,
    "aml</w>": 5588,
    "dissipated</w>": 5589,
    "md</w>": 5590,
    "chelsea</w>": 5591,
    "franch": 5592,
    "57</w>": 5593,
    "establishment</w>": 5594,
    "colonel</w>": 5595,
    "gone</w>": 5596,
    "louis</w>": 5597,
    "sto": 5598,
    "research": 5599,
    "eller</w>": 5600,
    "receive</w>": 5601,
    "credited</w>": 5602,
    "rural</w>": 5603,
    "appearing</w>": 5604,
    "gment</w>": 5605,
    "lap</w>": 5606,
    "1971</w>": 5607,
    "evil</w>": 5608,
    "question</w>": 5609,
    "describing</w>": 5610,
    "destruc": 5611,
    "chair": 5612,
    "survived</w>": 5613,
    "ía</w>": 5614,
    "novels</w>": 5615,
    "1945</w>": 5616,
    "ace": 5617,
    "ratings</w>": 5618,
    "ure": 5619,
    "cus</w>": 5620,
    "lum": 5621,
    "westward</w>": 5622,
    "fred</w>": 5623,
    "spar": 5624,
    "casting</w>": 5625,
    "rangers</w>": 5626,
    "constantine</w>": 5627,
    "destiny</w>": 5628,
    "sweet</w>": 5629,
    "perry</w>": 5630,
    "hibari</w>": 5631,
    "maed": 5632,
    "maeda</w>": 5633,
    "fan</w>": 5634,
    "ills</w>": 5635,
    "shared</w>": 5636,
    "treas": 5637,
    "compon": 5638,
    "capac": 5639,
    "citi": 5640,
    "converted</w>": 5641,
    "library</w>": 5642,
    "organiz": 5643,
    "teaching</w>": 5644,
    "tau": 5645,
    "ram</w>": 5646,
    "acquired</w>": 5647,
    "simon</w>": 5648,
    "scott</w>": 5649,
    "signing</w>": 5650,
    "trying</w>": 5651,
    "astronom": 5652,
    "gary</w>": 5653,
    "looked</w>": 5654,
    "efs</w>": 5655,
    "whereas</w>": 5656,
    "faith</w>": 5657,
    "dry</w>": 5658,
    "flights</w>": 5659,
    "eagle</w>": 5660,
    "sert</w>": 5661,
    "1982</w>": 5662,
    "boys</w>": 5663,
    "plun": 5664,
    "mtv</w>": 5665,
    "gery</w>": 5666,
    "chol": 5667,
    "dan</w>": 5668,
    "champions</w>": 5669,
    "georgian</w>": 5670,
    "rox": 5671,
    "qed": 5672,
    "romani</w>": 5673,
    "everglades</w>": 5674,
    "outs</w>": 5675,
    "engineers</w>": 5676,
    "crimin": 5677,
    "arranged</w>": 5678,
    "focused</w>": 5679,
    "supre": 5680,
    "evacu": 5681,
    "freder": 5682,
    "fine</w>": 5683,
    "atmosphere</w>": 5684,
    "1916</w>": 5685,
    "regional</w>": 5686,
    "dna</w>": 5687,
    "pel": 5688,
    "richar": 5689,
    "finish</w>": 5690,
    "eighth</w>": 5691,
    "entering</w>": 5692,
    "ena</w>": 5693,
    "graded</w>": 5694,
    "carry</w>": 5695,
    "haiti</w>": 5696,
    "ots</w>": 5697,
    "brief</w>": 5698,
    "succeeded</w>": 5699,
    "tings</w>": 5700,
    "depicted</w>": 5701,
    "tili": 5702,
    "rescue</w>": 5703,
    "label</w>": 5704,
    "introduction</w>": 5705,
    "1956</w>": 5706,
    "throw</w>": 5707,
    "1913</w>": 5708,
    "opposition</w>": 5709,
    "facing</w>": 5710,
    "naiss": 5711,
    "naissance</w>": 5712,
    "watched</w>": 5713,
    "rivers</w>": 5714,
    "ficial</w>": 5715,
    "phone</w>": 5716,
    "1980</w>": 5717,
    "1976</w>": 5718,
    "electronic</w>": 5719,
    "moz": 5720,
    "iro</w>": 5721,
    "mushroom</w>": 5722,
    "oslo</w>": 5723,
    "spacing</w>": 5724,
    "lings</w>": 5725,
    "poems</w>": 5726,
    "attached</w>": 5727,
    "watch</w>": 5728,
    "article</w>": 5729,
    "gency</w>": 5730,
    "box": 5731,
    "prize</w>": 5732,
    "jones</w>": 5733,
    "1943</w>": 5734,
    "disci": 5735,
    "assistance</w>": 5736,
    "diam": 5737,
    "bits</w>": 5738,
    "breaking</w>": 5739,
    "penalty</w>": 5740,
    "ez</w>": 5741,
    "rhyth": 5742,
    "posite</w>": 5743,
    "venus</w>": 5744,
    "seeing</w>": 5745,
    "knew</w>": 5746,
    "abor": 5747,
    "dos</w>": 5748,
    "rober": 5749,
    "defined</w>": 5750,
    "providing</w>": 5751,
    "siege</w>": 5752,
    "tts</w>": 5753,
    "methods</w>": 5754,
    "ican</w>": 5755,
    "tim</w>": 5756,
    "convic": 5757,
    "kem": 5758,
    "aj": 5759,
    "hearts</w>": 5760,
    "credits</w>": 5761,
    "communist</w>": 5762,
    "basket": 5763,
    "basketball</w>": 5764,
    "exerci": 5765,
    "puzz": 5766,
    "gw": 5767,
    "vn</w>": 5768,
    "iguanodon</w>": 5769,
    "adapted</w>": 5770,
    "spective</w>": 5771,
    "getting</w>": 5772,
    "method</w>": 5773,
    "ario</w>": 5774,
    "civilian</w>": 5775,
    "67</w>": 5776,
    "10th</w>": 5777,
    "renamed</w>": 5778,
    "stev": 5779,
    "fare</w>": 5780,
    "ris</w>": 5781,
    "phoen": 5782,
    "uel</w>": 5783,
    "grounds</w>": 5784,
    "supplies</w>": 5785,
    "delivered</w>": 5786,
    "fear</w>": 5787,
    "separated</w>": 5788,
    "prece": 5789,
    "bone</w>": 5790,
    "rarely</w>": 5791,
    "stances</w>": 5792,
    "insi": 5793,
    "examples</w>": 5794,
    "isol": 5795,
    "accur": 5796,
    "ara</w>": 5797,
    "leads</w>": 5798,
    "mad": 5799,
    "jersey</w>": 5800,
    "pher</w>": 5801,
    "incident</w>": 5802,
    "1963</w>": 5803,
    "controvers": 5804,
    "controversy</w>": 5805,
    "63</w>": 5806,
    "morrison</w>": 5807,
    "hits</w>": 5808,
    "kent</w>": 5809,
    "gab": 5810,
    "alan</w>": 5811,
    "professor</w>": 5812,
    "ren</w>": 5813,
    "bart</w>": 5814,
    "dublin</w>": 5815,
    "colonies</w>": 5816,
    "jain</w>": 5817,
    "classes</w>": 5818,
    "consisting</w>": 5819,
    "protect</w>": 5820,
    "remainder</w>": 5821,
    "progress</w>": 5822,
    "pattern</w>": 5823,
    "ored</w>": 5824,
    "sal</w>": 5825,
    "aten</w>": 5826,
    "controversi": 5827,
    "spr": 5828,
    "columbia</w>": 5829,
    "sign": 5830,
    "break": 5831,
    "hollywood</w>": 5832,
    "athletic</w>": 5833,
    "satis": 5834,
    "alexander</w>": 5835,
    "god": 5836,
    "posing</w>": 5837,
    "mani": 5838,
    "ruled</w>": 5839,
    "nership</w>": 5840,
    "certified</w>": 5841,
    "accounts</w>": 5842,
    "ires</w>": 5843,
    "fuel</w>": 5844,
    "opinion</w>": 5845,
    "strike</w>": 5846,
    "indicate</w>": 5847,
    "regime</w>": 5848,
    "junction</w>": 5849,
    "bern": 5850,
    "commanded</w>": 5851,
    "australians</w>": 5852,
    "immi": 5853,
    "usa</w>": 5854,
    "bun": 5855,
    "tty</w>": 5856,
    "camps</w>": 5857,
    "anda</w>": 5858,
    "duke</w>": 5859,
    "leman</w>": 5860,
    "fountain</w>": 5861,
    "sunday</w>": 5862,
    "acid</w>": 5863,
    "archaeology</w>": 5864,
    "bradford</w>": 5865,
    "colonial</w>": 5866,
    "lords</w>": 5867,
    "flank</w>": 5868,
    "utc</w>": 5869,
    "ffman</w>": 5870,
    "occurs</w>": 5871,
    "turns</w>": 5872,
    "memory</w>": 5873,
    "orche": 5874,
    "vals</w>": 5875,
    "superi": 5876,
    "window</w>": 5877,
    "1953</w>": 5878,
    "threatened</w>": 5879,
    "asse": 5880,
    "warm</w>": 5881,
    "bringing</w>": 5882,
    "gia</w>": 5883,
    "fun</w>": 5884,
    "embar": 5885,
    "coal</w>": 5886,
    "lay": 5887,
    "59</w>": 5888,
    "narrow</w>": 5889,
    "79</w>": 5890,
    "defini": 5891,
    "online</w>": 5892,
    "93</w>": 5893,
    "divine</w>": 5894,
    "references</w>": 5895,
    "ologists</w>": 5896,
    "suggest</w>": 5897,
    "agu": 5898,
    "hamp": 5899,
    "specifically</w>": 5900,
    "croatian</w>": 5901,
    "chairman</w>": 5902,
    "truj": 5903,
    "trujillo</w>": 5904,
    "anger</w>": 5905,
    "juli": 5906,
    "1978</w>": 5907,
    "regularly</w>": 5908,
    "mccar": 5909,
    "feelings</w>": 5910,
    "grey</w>": 5911,
    "ek": 5912,
    "strength": 5913,
    "dock</w>": 5914,
    "kson</w>": 5915,
    "maryland</w>": 5916,
    "gé</w>": 5917,
    "montan": 5918,
    "montana</w>": 5919,
    "squad</w>": 5920,
    "masters</w>": 5921,
    "acc": 5922,
    "feeling</w>": 5923,
    "sequences</w>": 5924,
    "denied</w>": 5925,
    "citiz": 5926,
    "mississi": 5927,
    "mississipp": 5928,
    "mississippi</w>": 5929,
    "11th</w>": 5930,
    "earl</w>": 5931,
    "spirit</w>": 5932,
    "walter</w>": 5933,
    "leaves</w>": 5934,
    "77</w>": 5935,
    "favorite</w>": 5936,
    "studied</w>": 5937,
    "ond</w>": 5938,
    "producing</w>": 5939,
    "sher": 5940,
    "protest</w>": 5941,
    "agents</w>": 5942,
    "fications</w>": 5943,
    "cd</w>": 5944,
    "poor": 5945,
    "wooden</w>": 5946,
    "alternative</w>": 5947,
    "farm": 5948,
    "laws</w>": 5949,
    "dialo": 5950,
    "reputation</w>": 5951,
    "shooting</w>": 5952,
    "recognition</w>": 5953,
    "function</w>": 5954,
    "communities</w>": 5955,
    "worship</w>": 5956,
    "neighbor": 5957,
    "soil</w>": 5958,
    "desire</w>": 5959,
    "patro": 5960,
    "forests</w>": 5961,
    "successor</w>": 5962,
    "agricultural</w>": 5963,
    "nbc</w>": 5964,
    "finishing</w>": 5965,
    "statement</w>": 5966,
    "sor</w>": 5967,
    "portrayed</w>": 5968,
    "ast": 5969,
    "exit</w>": 5970,
    "wine</w>": 5971,
    "charlie</w>": 5972,
    "oon</w>": 5973,
    "gray</w>": 5974,
    "−</w>": 5975,
    "inc</w>": 5976,
    "dino": 5977,
    "lev": 5978,
    "roxas</w>": 5979,
    "su</w>": 5980,
    "arsenal</w>": 5981,
    "supreme</w>": 5982,
    "message</w>": 5983,
    "aug": 5984,
    "250</w>": 5985,
    "rifles</w>": 5986,
    "electric</w>": 5987,
    "honor</w>": 5988,
    "principal</w>": 5989,
    "1915</w>": 5990,
    "picture</w>": 5991,
    "exce": 5992,
    "worst</w>": 5993,
    "samuel</w>": 5994,
    "secure</w>": 5995,
    "sche": 5996,
    "gallery</w>": 5997,
    "hang": 5998,
    "ship": 5999,
    "recru": 6000,
    "diag": 6001,
    "outstanding</w>": 6002,
    "ude</w>": 6003,
    "maintain</w>": 6004,
    "dismissed</w>": 6005,
    "basic</w>": 6006,
    "reviewer</w>": 6007,
    "howard</w>": 6008,
    "fat": 6009,
    "bon</w>": 6010,
    "leagues</w>": 6011,
    "fictional</w>": 6012,
    "daniel</w>": 6013,
    "ay": 6014,
    "scripts</w>": 6015,
    "ison</w>": 6016,
    "hindu</w>": 6017,
    "lad</w>": 6018,
    "block</w>": 6019,
    "warri": 6020,
    "02</w>": 6021,
    "offense</w>": 6022,
    "boy": 6023,
    "58</w>": 6024,
    "dows</w>": 6025,
    "mr": 6026,
    "pum": 6027,
    "nas": 6028,
    "homer</w>": 6029,
    "activision</w>": 6030,
    "speech</w>": 6031,
    "target</w>": 6032,
    "dic</w>": 6033,
    "capacity</w>": 6034,
    "noting</w>": 6035,
    "enterprise</w>": 6036,
    "inity</w>": 6037,
    "lished</w>": 6038,
    "specim": 6039,
    "specimens</w>": 6040,
    "measure</w>": 6041,
    "continuing</w>": 6042,
    "attributed</w>": 6043,
    "yo": 6044,
    "replace</w>": 6045,
    "monit": 6046,
    "knots</w>": 6047,
    "08</w>": 6048,
    "steel</w>": 6049,
    "treat</w>": 6050,
    "interested</w>": 6051,
    "relationships</w>": 6052,
    "civili": 6053,
    "firm</w>": 6054,
    "cycle</w>": 6055,
    "discussed</w>": 6056,
    "charges</w>": 6057,
    "dollars</w>": 6058,
    "candi": 6059,
    "academic</w>": 6060,
    "opponents</w>": 6061,
    "isabella</w>": 6062,
    "involvement</w>": 6063,
    "arre": 6064,
    "mit</w>": 6065,
    "kins</w>": 6066,
    "tz": 6067,
    "tomb</w>": 6068,
    "quarter": 6069,
    "fee</w>": 6070,
    "calvert</w>": 6071,
    "prede": 6072,
    "predecess": 6073,
    "formal</w>": 6074,
    "certain": 6075,
    "load</w>": 6076,
    "spi": 6077,
    "distinct</w>": 6078,
    "expedition</w>": 6079,
    "passage</w>": 6080,
    "pairs</w>": 6081,
    "1917</w>": 6082,
    "correspon": 6083,
    "amate": 6084,
    "1948</w>": 6085,
    "holi": 6086,
    "challen": 6087,
    "challenge</w>": 6088,
    "exchange</w>": 6089,
    "van": 6090,
    "offers</w>": 6091,
    "magne": 6092,
    "ameter</w>": 6093,
    "towers</w>": 6094,
    "railroad</w>": 6095,
    "solid</w>": 6096,
    "non": 6097,
    "tide</w>": 6098,
    "scent</w>": 6099,
    "torial</w>": 6100,
    "magic</w>": 6101,
    "convin": 6102,
    "spot</w>": 6103,
    "twelve</w>": 6104,
    "scra": 6105,
    "origin</w>": 6106,
    "flood</w>": 6107,
    "counter</w>": 6108,
    "standards</w>": 6109,
    "ints</w>": 6110,
    "wars</w>": 6111,
    "strate": 6112,
    "ducing</w>": 6113,
    "classical</w>": 6114,
    "ap</w>": 6115,
    "apes</w>": 6116,
    "theater</w>": 6117,
    "global</w>": 6118,
    "arm</w>": 6119,
    "gho": 6120,
    "adventure</w>": 6121,
    "rabb": 6122,
    "saraj": 6123,
    "sarajev": 6124,
    "sarajevo</w>": 6125,
    "print</w>": 6126,
    "genre</w>": 6127,
    "danny</w>": 6128,
    "inland</w>": 6129,
    "allo": 6130,
    "marl": 6131,
    "cancel": 6132,
    "kom": 6133,
    "difficulty</w>": 6134,
    "none</w>": 6135,
    "incorporated</w>": 6136,
    "valry</w>": 6137,
    "scope</w>": 6138,
    "frederick</w>": 6139,
    "tum": 6140,
    "plants</w>": 6141,
    "guardian</w>": 6142,
    "victoria</w>": 6143,
    "prey</w>": 6144,
    "eff</w>": 6145,
    "ninth</w>": 6146,
    "vi</w>": 6147,
    "fing": 6148,
    "austri": 6149,
    "stephen</w>": 6150,
    "dah": 6151,
    "romantic</w>": 6152,
    "reali": 6153,
    "attle</w>": 6154,
    "bles</w>": 6155,
    "ignor": 6156,
    "respect</w>": 6157,
    "titude</w>": 6158,
    "firing</w>": 6159,
    "rates</w>": 6160,
    "emotional</w>": 6161,
    "1979</w>": 6162,
    "120</w>": 6163,
    "1951</w>": 6164,
    "someone</w>": 6165,
    "considerable</w>": 6166,
    "legs</w>": 6167,
    "ora</w>": 6168,
    "partial</w>": 6169,
    "tales</w>": 6170,
    "dot</w>": 6171,
    "rocky</w>": 6172,
    "yankovic</w>": 6173,
    "kni": 6174,
    "labour</w>": 6175,
    "strand</w>": 6176,
    "miner</w>": 6177,
    "ceratop": 6178,
    "shad": 6179,
    "tile</w>": 6180,
    "taught</w>": 6181,
    "1954</w>": 6182,
    "1961</w>": 6183,
    "kesp": 6184,
    "observations</w>": 6185,
    "lit": 6186,
    "hills</w>": 6187,
    "joe</w>": 6188,
    "voy": 6189,
    "landed</w>": 6190,
    "psy": 6191,
    "nomination</w>": 6192,
    "anni": 6193,
    "sole</w>": 6194,
    "68</w>": 6195,
    "ona</w>": 6196,
    "tro</w>": 6197,
    "hundre": 6198,
    "ules</w>": 6199,
    "assist</w>": 6200,
    "replacement</w>": 6201,
    "bling</w>": 6202,
    "candidate</w>": 6203,
    "liked</w>": 6204,
    "historians</w>": 6205,
    "pitch</w>": 6206,
    "heritage</w>": 6207,
    "altar</w>": 6208,
    "tled</w>": 6209,
    "hospit": 6210,
    "patrick</w>": 6211,
    "fia</w>": 6212,
    "brigades</w>": 6213,
    "crossing</w>": 6214,
    "clarkson</w>": 6215,
    "storms</w>": 6216,
    "cket</w>": 6217,
    "alities</w>": 6218,
    "3d</w>": 6219,
    "sap": 6220,
    "aston</w>": 6221,
    "sau": 6222,
    "pir": 6223,
    "mode</w>": 6224,
    "somali</w>": 6225,
    "appropri": 6226,
    "connection</w>": 6227,
    "conqu": 6228,
    "mise</w>": 6229,
    "recommended</w>": 6230,
    "agency</w>": 6231,
    "1937</w>": 6232,
    "rows</w>": 6233,
    "picked</w>": 6234,
    "locks</w>": 6235,
    "aska</w>": 6236,
    "intersection</w>": 6237,
    "bow</w>": 6238,
    "atives</w>": 6239,
    "turre": 6240,
    "accept": 6241,
    "soul</w>": 6242,
    "puni": 6243,
    "teacher</w>": 6244,
    "muslim</w>": 6245,
    "nether": 6246,
    "destroyers</w>": 6247,
    "fungus</w>": 6248,
    "approved</w>": 6249,
    "francisco</w>": 6250,
    "secured</w>": 6251,
    "substitu": 6252,
    "atro": 6253,
    "documentary</w>": 6254,
    "sessions</w>": 6255,
    "believes</w>": 6256,
    "leu": 6257,
    "organ</w>": 6258,
    "estate</w>": 6259,
    "candid": 6260,
    "adults</w>": 6261,
    "santa</w>": 6262,
    "dramatic</w>": 6263,
    "allah</w>": 6264,
    "jerus": 6265,
    "jerusal": 6266,
    "simpsons</w>": 6267,
    "wilde</w>": 6268,
    "brien</w>": 6269,
    "bono</w>": 6270,
    "nighting": 6271,
    "nightingale</w>": 6272,
    "jif": 6273,
    "jifna</w>": 6274,
    "skye</w>": 6275,
    "kits": 6276,
    "kitsune</w>": 6277,
    "ou</w>": 6278,
    "neverth": 6279,
    "nevertheless</w>": 6280,
    "multi</w>": 6281,
    "sufficient</w>": 6282,
    "broo": 6283,
    "organizations</w>": 6284,
    "christ</w>": 6285,
    "esting</w>": 6286,
    "1955</w>": 6287,
    "consu": 6288,
    "ts": 6289,
    "streets</w>": 6290,
    "languages</w>": 6291,
    "fashion</w>": 6292,
    "len</w>": 6293,
    "89</w>": 6294,
    "leadership</w>": 6295,
    "concerns</w>": 6296,
    "98</w>": 6297,
    "kenne": 6298,
    "ben</w>": 6299,
    "burg</w>": 6300,
    "eve</w>": 6301,
    "hosti": 6302,
    "grow</w>": 6303,
    "learning</w>": 6304,
    "materi": 6305,
    "grass</w>": 6306,
    "contex": 6307,
    "cratic</w>": 6308,
    "simultane": 6309,
    "hamil": 6310,
    "hamilton</w>": 6311,
    "surviving</w>": 6312,
    "hydro": 6313,
    "split</w>": 6314,
    "oulder</w>": 6315,
    "sna": 6316,
    "terr": 6317,
    "alien</w>": 6318,
    "olympics</w>": 6319,
    "rob": 6320,
    "territories</w>": 6321,
    "cinem": 6322,
    "teach": 6323,
    "launch</w>": 6324,
    "extrem": 6325,
    "extremely</w>": 6326,
    "rang</w>": 6327,
    "ré": 6328,
    "adams</w>": 6329,
    "×</w>": 6330,
    "windows</w>": 6331,
    "argentina</w>": 6332,
    "distributed</w>": 6333,
    "tone</w>": 6334,
    "remo": 6335,
    "91</w>": 6336,
    "1958</w>": 6337,
    "indicated</w>": 6338,
    "commonwealth</w>": 6339,
    "genetic</w>": 6340,
    "ance": 6341,
    "frame</w>": 6342,
    "predat": 6343,
    "diameter</w>": 6344,
    "fixed</w>": 6345,
    "ont": 6346,
    "manner</w>": 6347,
    "emerged</w>": 6348,
    "advoc": 6349,
    "terran": 6350,
    "terranean</w>": 6351,
    "surrounded</w>": 6352,
    "oh</w>": 6353,
    "absor": 6354,
    "ruler</w>": 6355,
    "existed</w>": 6356,
    "extreme</w>": 6357,
    "shir": 6358,
    "encouraged</w>": 6359,
    "atters</w>": 6360,
    "parties</w>": 6361,
    "eu</w>": 6362,
    "bure": 6363,
    "expensive</w>": 6364,
    "stol</w>": 6365,
    "gations</w>": 6366,
    "tat": 6367,
    "detailed</w>": 6368,
    "sian</w>": 6369,
    "talk</w>": 6370,
    "approached</w>": 6371,
    "showing</w>": 6372,
    "jar": 6373,
    "teeth</w>": 6374,
    "arrangement</w>": 6375,
    "semi": 6376,
    "juni": 6377,
    "wim": 6378,
    "compounds</w>": 6379,
    "tribes</w>": 6380,
    "mill</w>": 6381,
    "zong</w>": 6382,
    "banai</w>": 6383,
    "ious</w>": 6384,
    "tune</w>": 6385,
    "69</w>": 6386,
    "painted</w>": 6387,
    "freedom</w>": 6388,
    "child": 6389,
    "institutions</w>": 6390,
    "beauti": 6391,
    "carter</w>": 6392,
    "suffering</w>": 6393,
    "strat": 6394,
    "inspiration</w>": 6395,
    "armor</w>": 6396,
    "admiral</w>": 6397,
    "dney</w>": 6398,
    "satur": 6399,
    "immediate</w>": 6400,
    "triple</w>": 6401,
    "meter</w>": 6402,
    "attempting</w>": 6403,
    "distinguished</w>": 6404,
    "crossed</w>": 6405,
    "univers": 6406,
    "apparent</w>": 6407,
    "deep": 6408,
    "lying</w>": 6409,
    "unusual</w>": 6410,
    "isolated</w>": 6411,
    "hoped</w>": 6412,
    "hard": 6413,
    "wants</w>": 6414,
    "normally</w>": 6415,
    "ash": 6416,
    "fea": 6417,
    "courts</w>": 6418,
    "rival</w>": 6419,
    "prison</w>": 6420,
    "kir": 6421,
    "1949</w>": 6422,
    "giant</w>": 6423,
    "leukem": 6424,
    "orist</w>": 6425,
    "dell</w>": 6426,
    "fresh</w>": 6427,
    "leon": 6428,
    "1977</w>": 6429,
    "climate</w>": 6430,
    "constitution</w>": 6431,
    "norman</w>": 6432,
    "counties</w>": 6433,
    "videos</w>": 6434,
    "roger</w>": 6435,
    "ku": 6436,
    "tunnel</w>": 6437,
    "arc</w>": 6438,
    "lb": 6439,
    "lennon</w>": 6440,
    "franchise</w>": 6441,
    "sequel</w>": 6442,
    "gments</w>": 6443,
    "ryan</w>": 6444,
    "fate</w>": 6445,
    "ina": 6446,
    "possession</w>": 6447,
    "assumed</w>": 6448,
    "shops</w>": 6449,
    "duties</w>": 6450,
    "cost": 6451,
    "admitted</w>": 6452,
    "tale</w>": 6453,
    "omy</w>": 6454,
    "ylo": 6455,
    "scientific</w>": 6456,
    "pointed</w>": 6457,
    "expec": 6458,
    "jas": 6459,
    "owner</w>": 6460,
    "expansion</w>": 6461,
    "statistics</w>": 6462,
    "vege": 6463,
    "neck</w>": 6464,
    "choo": 6465,
    "annivers": 6466,
    "anniversary</w>": 6467,
    "initiative</w>": 6468,
    "74</w>": 6469,
    "aim": 6470,
    "strongly</w>": 6471,
    "dynam": 6472,
    "identity</w>": 6473,
    "atures</w>": 6474,
    "hundreds</w>": 6475,
    "pione": 6476,
    "protagonist</w>": 6477,
    "resources</w>": 6478,
    "indeed</w>": 6479,
    "footage</w>": 6480,
    "reconstruction</w>": 6481,
    "protests</w>": 6482,
    "relative</w>": 6483,
    "13th</w>": 6484,
    "convoy</w>": 6485,
    "wright</w>": 6486,
    "designation</w>": 6487,
    "weak</w>": 6488,
    "saprang</w>": 6489,
    "rapid</w>": 6490,
    "osc": 6491,
    "grav": 6492,
    "hergé</w>": 6493,
    "crusad": 6494,
    "kilmer</w>": 6495,
    "jane": 6496,
    "janeiro</w>": 6497,
    "goffman</w>": 6498,
    "bolí": 6499,
    "bolívar</w>": 6500,
    "completion</w>": 6501,
    "sely</w>": 6502,
    "escor": 6503,
    "improve</w>": 6504,
    "thetic</w>": 6505,
    "specimen</w>": 6506,
    "20s</w>": 6507,
    "1983</w>": 6508,
    "won": 6509,
    "1920</w>": 6510,
    "uc": 6511,
    "winner</w>": 6512,
    "not": 6513,
    "dying</w>": 6514,
    "suit</w>": 6515,
    "camera</w>": 6516,
    "ldn</w>": 6517,
    "accept</w>": 6518,
    "sects</w>": 6519,
    "enters</w>": 6520,
    "georgia</w>": 6521,
    "trials</w>": 6522,
    "easily</w>": 6523,
    "grand": 6524,
    "pleasure</w>": 6525,
    "attracted</w>": 6526,
    "concerned</w>": 6527,
    "cat</w>": 6528,
    "cult</w>": 6529,
    "rever": 6530,
    "step</w>": 6531,
    "circum": 6532,
    "asser": 6533,
    "debate</w>": 6534,
    "mention</w>": 6535,
    "heaven</w>": 6536,
    "cally</w>": 6537,
    "ulate</w>": 6538,
    "airline</w>": 6539,
    "employe": 6540,
    "factory</w>": 6541,
    "tailed</w>": 6542,
    "assas": 6543,
    "assassin": 6544,
    "corn</w>": 6545,
    "applic": 6546,
    "coup</w>": 6547,
    "internal</w>": 6548,
    "rice</w>": 6549,
    "plane</w>": 6550,
    "medal</w>": 6551,
    "reconnaissance</w>": 6552,
    "defended</w>": 6553,
    "stret": 6554,
    "blan": 6555,
    "musicians</w>": 6556,
    "fter</w>": 6557,
    "marke": 6558,
    "wearing</w>": 6559,
    "concerts</w>": 6560,
    "meets</w>": 6561,
    "belt</w>": 6562,
    "bce</w>": 6563,
    "hop</w>": 6564,
    "communications</w>": 6565,
    "wimble": 6566,
    "wimbledon</w>": 6567,
    "jerusalem</w>": 6568,
    "stero": 6569,
    "sand": 6570,
    "eggs</w>": 6571,
    "slide</w>": 6572,
    "prero": 6573,
    "lawton</w>": 6574,
    "cory": 6575,
    "ekā": 6576,
    "ekān": 6577,
    "composer</w>": 6578,
    "accused</w>": 6579,
    "revolu": 6580,
    "tank</w>": 6581,
    "ockey</w>": 6582,
    "reinfor": 6583,
    "surrender</w>": 6584,
    "rifle</w>": 6585,
    "hau": 6586,
    "iv</w>": 6587,
    "iring</w>": 6588,
    "register</w>": 6589,
    "influences</w>": 6590,
    "amateur</w>": 6591,
    "ment": 6592,
    "understanding</w>": 6593,
    "insur": 6594,
    "falling</w>": 6595,
    "mete": 6596,
    "tioning</w>": 6597,
    "terminus</w>": 6598,
    "eved</w>": 6599,
    "haw": 6600,
    "require</w>": 6601,
    "vio": 6602,
    "kick</w>": 6603,
    "traveled</w>": 6604,
    "settled</w>": 6605,
    "ritual</w>": 6606,
    "vention</w>": 6607,
    "practices</w>": 6608,
    "recordings</w>": 6609,
    "hear</w>": 6610,
    "pro</w>": 6611,
    "ministry</w>": 6612,
    "operate</w>": 6613,
    "effectively</w>": 6614,
    "destruction</w>": 6615,
    "aded</w>": 6616,
    "adjac": 6617,
    "adjacent</w>": 6618,
    "speak</w>": 6619,
    "behaviour</w>": 6620,
    "lets</w>": 6621,
    "jon": 6622,
    "crash</w>": 6623,
    "stock</w>": 6624,
    "jean</w>": 6625,
    "tall</w>": 6626,
    "well": 6627,
    "alism</w>": 6628,
    "ghost</w>": 6629,
    "wolf</w>": 6630,
    "blocks</w>": 6631,
    "oning</w>": 6632,
    "publishing</w>": 6633,
    "patri": 6634,
    "faster</w>": 6635,
    "remnants</w>": 6636,
    "colour</w>": 6637,
    "watershed</w>": 6638,
    "cambridge</w>": 6639,
    "guy</w>": 6640,
    "mar</w>": 6641,
    "yon</w>": 6642,
    "richardson</w>": 6643,
    "parks</w>": 6644,
    "gerard</w>": 6645,
    "somali": 6646,
    "somalia</w>": 6647,
    "starling</w>": 6648,
    "sung</w>": 6649,
    "partly</w>": 6650,
    "graphics</w>": 6651,
    "seemed</w>": 6652,
    "purchase</w>": 6653,
    "consider</w>": 6654,
    "dele": 6655,
    "recalled</w>": 6656,
    "supposed</w>": 6657,
    "somewhat</w>": 6658,
    "valu": 6659,
    "obtained</w>": 6660,
    "meet": 6661,
    "meetings</w>": 6662,
    "bab": 6663,
    "holiday</w>": 6664,
    "selection</w>": 6665,
    "strea": 6666,
    "shots</w>": 6667,
    "jesus</w>": 6668,
    "86</w>": 6669,
    "generated</w>": 6670,
    "deck</w>": 6671,
    "victim": 6672,
    "victims</w>": 6673,
    "1910</w>": 6674,
    "restoration</w>": 6675,
    "destroy</w>": 6676,
    "solar</w>": 6677,
    "environment</w>": 6678,
    "aviation</w>": 6679,
    "operating</w>": 6680,
    "1909</w>": 6681,
    "formally</w>": 6682,
    "stands</w>": 6683,
    "portrait</w>": 6684,
    "witne": 6685,
    "mau": 6686,
    "bush</w>": 6687,
    "afterwards</w>": 6688,
    "campaig": 6689,
    "adam</w>": 6690,
    "measures</w>": 6691,
    "driving</w>": 6692,
    "recovered</w>": 6693,
    "pupils</w>": 6694,
    "fallen</w>": 6695,
    "polo": 6696,
    "aa</w>": 6697,
    "eleven</w>": 6698,
    "lis": 6699,
    "bridges</w>": 6700,
    "eli</w>": 6701,
    "pitcher</w>": 6702,
    "bank": 6703,
    "mega</w>": 6704,
    "yo</w>": 6705,
    "aniston</w>": 6706,
    "yce</w>": 6707,
    "mole</w>": 6708,
    "anzac</w>": 6709,
    "keamy</w>": 6710,
    "kombat</w>": 6711,
    "representing</w>": 6712,
    "exter": 6713,
    "crisis</w>": 6714,
    "1912</w>": 6715,
    "household</w>": 6716,
    "willing</w>": 6717,
    "correct</w>": 6718,
    "preserved</w>": 6719,
    "angular</w>": 6720,
    "communication</w>": 6721,
    "hosted</w>": 6722,
    "arabic</w>": 6723,
    "productions</w>": 6724,
    "funds</w>": 6725,
    "cancer</w>": 6726,
    "ky</w>": 6727,
    "godde": 6728,
    "origins</w>": 6729,
    "linked</w>": 6730,
    "fis": 6731,
    "philosoph": 6732,
    "architecture</w>": 6733,
    "erly</w>": 6734,
    "grants</w>": 6735,
    "prohi": 6736,
    "destroyer</w>": 6737,
    "reduce</w>": 6738,
    "sculpture</w>": 6739,
    "stere": 6740,
    "file</w>": 6741,
    "1931</w>": 6742,
    "desert</w>": 6743,
    "rough</w>": 6744,
    "trail</w>": 6745,
    "cbs</w>": 6746,
    "03</w>": 6747,
    "poland</w>": 6748,
    "german": 6749,
    "germans</w>": 6750,
    "doctr": 6751,
    "1935</w>": 6752,
    "arc": 6753,
    "township</w>": 6754,
    "nichol": 6755,
    "researchers</w>": 6756,
    "rian</w>": 6757,
    "johnston</w>": 6758,
    "stevens</w>": 6759,
    "fraser</w>": 6760,
    "plunket": 6761,
    "plunketts</w>": 6762,
    "corytho": 6763,
    "corythosaurus</w>": 6764,
    "anekān": 6765,
    "responsibility</w>": 6766,
    "ninten": 6767,
    "nintendo</w>": 6768,
    "stayed</w>": 6769,
    "else</w>": 6770,
    "reb": 6771,
    "fair": 6772,
    "attered</w>": 6773,
    "shakesp": 6774,
    "shakespear": 6775,
    "1932</w>": 6776,
    "printed</w>": 6777,
    "recogn": 6778,
    "bands</w>": 6779,
    "thor": 6780,
    "hockey</w>": 6781,
    "controversial</w>": 6782,
    "trading</w>": 6783,
    "programme</w>": 6784,
    "crosses</w>": 6785,
    "deployed</w>": 6786,
    "equipped</w>": 6787,
    "circulation</w>": 6788,
    "attacking</w>": 6789,
    "abled</w>": 6790,
    "nic</w>": 6791,
    "medium</w>": 6792,
    "nd": 6793,
    "opposite</w>": 6794,
    "income</w>": 6795,
    "sisters</w>": 6796,
    "drin": 6797,
    "express</w>": 6798,
    "vessel</w>": 6799,
    "monuments</w>": 6800,
    "interaction</w>": 6801,
    "shoot</w>": 6802,
    "schem": 6803,
    "infra": 6804,
    "short": 6805,
    "ym</w>": 6806,
    "institution</w>": 6807,
    "aboli": 6808,
    "ene</w>": 6809,
    "generals</w>": 6810,
    "vil</w>": 6811,
    "judge</w>": 6812,
    "walk</w>": 6813,
    "harmon": 6814,
    "artificial</w>": 6815,
    "hunting</w>": 6816,
    "tube</w>": 6817,
    "junior</w>": 6818,
    "bey</w>": 6819,
    "venues</w>": 6820,
    "else": 6821,
    "elsewhere</w>": 6822,
    "overwh": 6823,
    "overwhel": 6824,
    "elect": 6825,
    "09</w>": 6826,
    "networ": 6827,
    "marlborough</w>": 6828,
    "prerogative</w>": 6829,
    "parallel</w>": 6830,
    "otherwise</w>": 6831,
    "essential</w>": 6832,
    "promote</w>": 6833,
    "inaug": 6834,
    "noon</w>": 6835,
    "deposi": 6836,
    "1911</w>": 6837,
    "dily</w>": 6838,
    "1929</w>": 6839,
    "1921</w>": 6840,
    "beautiful</w>": 6841,
    "disc</w>": 6842,
    "continental</w>": 6843,
    "offs</w>": 6844,
    "than": 6845,
    "stanley</w>": 6846,
    "mad</w>": 6847,
    "lowest</w>": 6848,
    "plus</w>": 6849,
    "passengers</w>": 6850,
    "impossible</w>": 6851,
    "pushed</w>": 6852,
    "upri": 6853,
    "rone</w>": 6854,
    "styles</w>": 6855,
    "exception</w>": 6856,
    "ela": 6857,
    "netherlands</w>": 6858,
    "alli": 6859,
    "legislation</w>": 6860,
    "donald</w>": 6861,
    "bearing</w>": 6862,
    "burning</w>": 6863,
    "voted</w>": 6864,
    "supporters</w>": 6865,
    "rebels</w>": 6866,
    "onica</w>": 6867,
    "throwing</w>": 6868,
    "obser": 6869,
    "cloud</w>": 6870,
    "arrested</w>": 6871,
    "accommo": 6872,
    "disaster</w>": 6873,
    "cave</w>": 6874,
    "legend</w>": 6875,
    "dressed</w>": 6876,
    "fore": 6877,
    "ques</w>": 6878,
    "ardo</w>": 6879,
    "judi": 6880,
    "internet</w>": 6881,
    "tney</w>": 6882,
    "gali": 6883,
    "wrong</w>": 6884,
    "owen</w>": 6885,
    "á</w>": 6886,
    "acks</w>": 6887,
    "lawrence</w>": 6888,
    "fei</w>": 6889,
    "wag": 6890,
    "plum</w>": 6891,
    "palmy": 6892,
    "carrying</w>": 6893,
    "retained</w>": 6894,
    "learn</w>": 6895,
    "ela</w>": 6896,
    "sional</w>": 6897,
    "ku</w>": 6898,
    "convention</w>": 6899,
    "quick</w>": 6900,
    "doubt</w>": 6901,
    "natur": 6902,
    "1938</w>": 6903,
    "apti": 6904,
    "1962</w>": 6905,
    "panel</w>": 6906,
    "eld</w>": 6907,
    "angle</w>": 6908,
    "1959</w>": 6909,
    "tis</w>": 6910,
    "involving</w>": 6911,
    "observatory</w>": 6912,
    "roof</w>": 6913,
    "calcul": 6914,
    "atlanta</w>": 6915,
    "equivalent</w>": 6916,
    "raise</w>": 6917,
    "objects</w>": 6918,
    "villages</w>": 6919,
    "mista": 6920,
    "inhabit": 6921,
    "tribute</w>": 6922,
    "isle</w>": 6923,
    "althy</w>": 6924,
    "ides</w>": 6925,
    "motor</w>": 6926,
    "cruiser</w>": 6927,
    "sach": 6928,
    "tedly</w>": 6929,
    "difficulties</w>": 6930,
    "occasions</w>": 6931,
    "las</w>": 6932,
    "math</w>": 6933,
    "absol": 6934,
    "comments</w>": 6935,
    "returns</w>": 6936,
    "garc": 6937,
    "garcía</w>": 6938,
    "unsuccessful</w>": 6939,
    "vessels</w>": 6940,
    "eliza": 6941,
    "elizabeth</w>": 6942,
    "bright</w>": 6943,
    "praise</w>": 6944,
    "charity</w>": 6945,
    "numbered</w>": 6946,
    "ceme": 6947,
    "cemetery</w>": 6948,
    "criminal</w>": 6949,
    "sale</w>": 6950,
    "witz</w>": 6951,
    "amp</w>": 6952,
    "russia</w>": 6953,
    "yne</w>": 6954,
    "intensified</w>": 6955,
    "stefan": 6956,
    "stefani</w>": 6957,
    "baker</w>": 6958,
    "oc</w>": 6959,
    "ann</w>": 6960,
    "code</w>": 6961,
    "legi": 6962,
    "defences</w>": 6963,
    "korean</w>": 6964,
    "patt": 6965,
    "batsman</w>": 6966,
    "helmet</w>": 6967,
    "pitman</w>": 6968,
    "cambodia</w>": 6969,
    "voiced</w>": 6970,
    "hori": 6971,
    "horiz": 6972,
    "confeder": 6973,
    "laboratory</w>": 6974,
    "yle</w>": 6975,
    "1920s</w>": 6976,
    "garden</w>": 6977,
    "wis": 6978,
    "committed</w>": 6979,
    "greg": 6980,
    "meteor": 6981,
    "choir</w>": 6982,
    "88</w>": 6983,
    "92</w>": 6984,
    "sell</w>": 6985,
    "displac": 6986,
    "resistance</w>": 6987,
    "apparently</w>": 6988,
    "hat": 6989,
    "princess</w>": 6990,
    "causes</w>": 6991,
    "housing</w>": 6992,
    "needs</w>": 6993,
    "appointment</w>": 6994,
    "mediterranean</w>": 6995,
    "promised</w>": 6996,
    "temples</w>": 6997,
    "belief</w>": 6998,
    "behavior</w>": 6999,
    "reveals</w>": 7000,
    "product</w>": 7001,
    "periods</w>": 7002,
    "eri": 7003,
    "answ": 7004,
    "bath</w>": 7005,
    "farm</w>": 7006,
    "context</w>": 7007,
    "lists</w>": 7008,
    "notably</w>": 7009,
    "fill</w>": 7010,
    "elled</w>": 7011,
    "preferred</w>": 7012,
    "democratic</w>": 7013,
    "narrative</w>": 7014,
    "overseas</w>": 7015,
    "wives</w>": 7016,
    "sees</w>": 7017,
    "regard</w>": 7018,
    "ancy</w>": 7019,
    "gene</w>": 7020,
    "1900</w>": 7021,
    "saved</w>": 7022,
    "survivors</w>": 7023,
    "alised</w>": 7024,
    "kev": 7025,
    "defeating</w>": 7026,
    "nick</w>": 7027,
    "inian</w>": 7028,
    "meters</w>": 7029,
    "bee</w>": 7030,
    "derers</w>": 7031,
    "noti": 7032,
    "biographer</w>": 7033,
    "palestine</w>": 7034,
    "lei": 7035,
    "extinc": 7036,
    "subspecies</w>": 7037,
    "radiation</w>": 7038,
    "latex</w>": 7039,
    "ji": 7040,
    "canter": 7041,
    "canterbury</w>": 7042,
    "phillies</w>": 7043,
    "aerith</w>": 7044,
    "manga</w>": 7045,
    "armor": 7046,
    "divor": 7047,
    "abilities</w>": 7048,
    "page</w>": 7049,
    "dominant</w>": 7050,
    "visitors</w>": 7051,
    "artw": 7052,
    "collaboration</w>": 7053,
    "installed</w>": 7054,
    "represents</w>": 7055,
    "refers</w>": 7056,
    "suggesting</w>": 7057,
    "apar": 7058,
    "archi": 7059,
    "representative</w>": 7060,
    "colorado</w>": 7061,
    "fting</w>": 7062,
    "nah</w>": 7063,
    "steam</w>": 7064,
    "110</w>": 7065,
    "easy</w>": 7066,
    "kim</w>": 7067,
    "musician</w>": 7068,
    "dialogue</w>": 7069,
    "ambas": 7070,
    "ambassad": 7071,
    "graphy</w>": 7072,
    "chec": 7073,
    "remin": 7074,
    "elabor": 7075,
    "wal</w>": 7076,
    "consul": 7077,
    "matters</w>": 7078,
    "licen": 7079,
    "mature</w>": 7080,
    "abs": 7081,
    "absence</w>": 7082,
    "concentra": 7083,
    "criticised</w>": 7084,
    "hyp": 7085,
    "bureau</w>": 7086,
    "proposal</w>": 7087,
    "borne</w>": 7088,
    "closer</w>": 7089,
    "mption</w>": 7090,
    "products</w>": 7091,
    "dad</w>": 7092,
    "tested</w>": 7093,
    "followers</w>": 7094,
    "expos": 7095,
    "exposure</w>": 7096,
    "shipping</w>": 7097,
    "trust</w>": 7098,
    "grammy</w>": 7099,
    "does": 7100,
    "doesn</w>": 7101,
    "vati</w>": 7102,
    "considers</w>": 7103,
    "maria</w>": 7104,
    "mayor</w>": 7105,
    "echo": 7106,
    "journalist</w>": 7107,
    "markgra": 7108,
    "markgraf</w>": 7109,
    "warning</w>": 7110,
    "platoon</w>": 7111,
    "furt": 7112,
    "furtado</w>": 7113,
    "anes</w>": 7114,
    "rhodesi": 7115,
    "catech": 7116,
    "monarch</w>": 7117,
    "canyon</w>": 7118,
    "barb": 7119,
    "elli</w>": 7120,
    "hart</w>": 7121,
    "imagine</w>": 7122,
    "u2</w>": 7123,
    "lbw</w>": 7124,
    "jackrabb": 7125,
    "ecki</w>": 7126,
    "raff": 7127,
    "raffles</w>": 7128,
    "depending</w>": 7129,
    "wa</w>": 7130,
    "ultimate</w>": 7131,
    "impressed</w>": 7132,
    "stationed</w>": 7133,
    "sacred</w>": 7134,
    "extent</w>": 7135,
    "flat</w>": 7136,
    "aside</w>": 7137,
    "bapti": 7138,
    "nhl</w>": 7139,
    "predators</w>": 7140,
    "listing</w>": 7141,
    "joining</w>": 7142,
    "magnetic</w>": 7143,
    "83</w>": 7144,
    "occupation</w>": 7145,
    "06</w>": 7146,
    "heat</w>": 7147,
    "sha</w>": 7148,
    "politan</w>": 7149,
    "recovery</w>": 7150,
    "label": 7151,
    "universal</w>": 7152,
    "poorly</w>": 7153,
    "drums</w>": 7154,
    "aero": 7155,
    "displays</w>": 7156,
    "navi": 7157,
    "submarine</w>": 7158,
    "ensure</w>": 7159,
    "trouble</w>": 7160,
    "wer</w>": 7161,
    "aftermath</w>": 7162,
    "dominican</w>": 7163,
    "surpri": 7164,
    "moments</w>": 7165,
    "nickn": 7166,
    "republi": 7167,
    "republican</w>": 7168,
    "carol</w>": 7169,
    "honor": 7170,
    "wasp</w>": 7171,
    "ranges</w>": 7172,
    "eau</w>": 7173,
    "therea": 7174,
    "thereafter</w>": 7175,
    "usta": 7176,
    "ustaš": 7177,
    "archbishop</w>": 7178,
    "tab": 7179,
    "barri": 7180,
    "metro": 7181,
    "madi": 7182,
    "directors</w>": 7183,
    "vehicle</w>": 7184,
    "convection</w>": 7185,
    "cars</w>": 7186,
    "sholay</w>": 7187,
    "networks</w>": 7188,
    "forcing</w>": 7189,
    "rid</w>": 7190,
    "sue</w>": 7191,
    "smen</w>": 7192,
    "mel</w>": 7193,
    "rh": 7194,
    "bi</w>": 7195,
    "amino</w>": 7196,
    "waterfall</w>": 7197,
    "ár": 7198,
    "muscaria</w>": 7199,
    "grown</w>": 7200,
    "lose</w>": 7201,
    "models</w>": 7202,
    "telling</w>": 7203,
    "cements</w>": 7204,
    "sentim": 7205,
    "asp": 7206,
    "withdraw</w>": 7207,
    "purposes</w>": 7208,
    "1940s</w>": 7209,
    "childhood</w>": 7210,
    "sponsor": 7211,
    "thousand</w>": 7212,
    "mon</w>": 7213,
    "fifa</w>": 7214,
    "withdrew</w>": 7215,
    "vent": 7216,
    "burgh</w>": 7217,
    "sure</w>": 7218,
    "talking</w>": 7219,
    "deal": 7220,
    "posted</w>": 7221,
    "saves</w>": 7222,
    "caa</w>": 7223,
    "forti": 7224,
    "modified</w>": 7225,
    "intense</w>": 7226,
    "representatives</w>": 7227,
    "cape</w>": 7228,
    "municipal</w>": 7229,
    "zoo</w>": 7230,
    "light": 7231,
    "sab": 7232,
    "superior</w>": 7233,
    "inju": 7234,
    "injuries</w>": 7235,
    "garian</w>": 7236,
    "centi": 7237,
    "throne</w>": 7238,
    "mono": 7239,
    "abun": 7240,
    "opportuni": 7241,
    "opportunities</w>": 7242,
    "stric": 7243,
    "annually</w>": 7244,
    "environmental</w>": 7245,
    "infrastructure</w>": 7246,
    "driven</w>": 7247,
    "160</w>": 7248,
    "hando": 7249,
    "simultaneously</w>": 7250,
    "coins</w>": 7251,
    "charged</w>": 7252,
    "mexican</w>": 7253,
    "jos": 7254,
    "bering</w>": 7255,
    "scholar</w>": 7256,
    "athan</w>": 7257,
    "nis</w>": 7258,
    "influential</w>": 7259,
    "orbit</w>": 7260,
    "measure": 7261,
    "excavation</w>": 7262,
    "entitled</w>": 7263,
    "publisher</w>": 7264,
    "accident</w>": 7265,
    "extension</w>": 7266,
    "advertising</w>": 7267,
    "eccle": 7268,
    "wart</w>": 7269,
    "sfield</w>": 7270,
    "15th</w>": 7271,
    "dir": 7272,
    "situated</w>": 7273,
    "bren": 7274,
    "efa</w>": 7275,
    "clay</w>": 7276,
    "phr": 7277,
    "inning</w>": 7278,
    "pit</w>": 7279,
    "reser": 7280,
    "reservo": 7281,
    "maggie</w>": 7282,
    "mura</w>": 7283,
    "az": 7284,
    "rel": 7285,
    "interests</w>": 7286,
    "platform</w>": 7287,
    "anime</w>": 7288,
    "detail</w>": 7289,
    "happened</w>": 7290,
    "onists</w>": 7291,
    "ums</w>": 7292,
    "birth": 7293,
    "ammuni": 7294,
    "ammunition</w>": 7295,
    "informed</w>": 7296,
    "demand</w>": 7297,
    "barker</w>": 7298,
    "properties</w>": 7299,
    "1928</w>": 7300,
    "organised</w>": 7301,
    "sanc": 7302,
    "altern": 7303,
    "ouri": 7304,
    "strate</w>": 7305,
    "vary</w>": 7306,
    "historically</w>": 7307,
    "factors</w>": 7308,
    "pick</w>": 7309,
    "ud</w>": 7310,
    "apers</w>": 7311,
    "engines</w>": 7312,
    "tted</w>": 7313,
    "dawn</w>": 7314,
    "rid": 7315,
    "99</w>": 7316,
    "writings</w>": 7317,
    "relations</w>": 7318,
    "recur": 7319,
    "circumstances</w>": 7320,
    "materials</w>": 7321,
    "suici": 7322,
    "originated</w>": 7323,
    "ao</w>": 7324,
    "recre": 7325,
    "helicop": 7326,
    "trained</w>": 7327,
    "require": 7328,
    "severely</w>": 7329,
    "burned</w>": 7330,
    "norway</w>": 7331,
    "spoke</w>": 7332,
    "massach": 7333,
    "massachuse": 7334,
    "massachusetts</w>": 7335,
    "tox": 7336,
    "shark</w>": 7337,
    "watching</w>": 7338,
    "parvati</w>": 7339,
    "tico</w>": 7340,
    "skele": 7341,
    "lications</w>": 7342,
    "roc": 7343,
    "stock": 7344,
    "metre</w>": 7345,
    "driver</w>": 7346,
    "07</w>": 7347,
    "israeli</w>": 7348,
    "athletics</w>": 7349,
    "crake</w>": 7350,
    "adventures</w>": 7351,
    "body": 7352,
    "ride</w>": 7353,
    "tter": 7354,
    "ambique</w>": 7355,
    "réunion</w>": 7356,
    "wrestling</w>": 7357,
    "partially</w>": 7358,
    "map</w>": 7359,
    "option</w>": 7360,
    "dangerous</w>": 7361,
    "instruments</w>": 7362,
    "moral</w>": 7363,
    "supervi": 7364,
    "emergency</w>": 7365,
    "substantial</w>": 7366,
    "engage</w>": 7367,
    "favor</w>": 7368,
    "facts</w>": 7369,
    "sevent": 7370,
    "fon": 7371,
    "1927</w>": 7372,
    "sword</w>": 7373,
    "among": 7374,
    "amongst</w>": 7375,
    "organisation</w>": 7376,
    "survive</w>": 7377,
    "victories</w>": 7378,
    "convers": 7379,
    "73</w>": 7380,
    "rhythm</w>": 7381,
    "everyone</w>": 7382,
    "82</w>": 7383,
    "anyone</w>": 7384,
    "richmond</w>": 7385,
    "nel": 7386,
    "layer</w>": 7387,
    "shells</w>": 7388,
    "confi": 7389,
    "whil": 7390,
    "whilst</w>": 7391,
    "tel": 7392,
    "departure</w>": 7393,
    "fits</w>": 7394,
    "lla</w>": 7395,
    "understood</w>": 7396,
    "dissol": 7397,
    "tot": 7398,
    "ordinary</w>": 7399,
    "ker": 7400,
    "nish</w>": 7401,
    "mail</w>": 7402,
    "movements</w>": 7403,
    "guer": 7404,
    "affa": 7405,
    "affairs</w>": 7406,
    "cia</w>": 7407,
    "eat": 7408,
    "eaton</w>": 7409,
    "raaf</w>": 7410,
    "cool": 7411,
    "kilome": 7412,
    "portugal</w>": 7413,
    "carved</w>": 7414,
    "structural</w>": 7415,
    "plateau</w>": 7416,
    "propag": 7417,
    "proper</w>": 7418,
    "bulls</w>": 7419,
    "mixture</w>": 7420,
    "wilson</w>": 7421,
    "bigge": 7422,
    "biggest</w>": 7423,
    "ah": 7424,
    "giants</w>": 7425,
    "gwen</w>": 7426,
    "swedish</w>": 7427,
    "anne</w>": 7428,
    "plu": 7429,
    "hurricanes</w>": 7430,
    "bot</w>": 7431,
    "dc</w>": 7432,
    "vander": 7433,
    "nio": 7434,
    "heera</w>": 7435,
    "kann": 7436,
    "kannada</w>": 7437,
    "ustaše</w>": 7438,
    "starlings</w>": 7439,
    "anekāntav": 7440,
    "anekāntavāda</w>": 7441,
    "armored</w>": 7442,
    "dant</w>": 7443,
    "price</w>": 7444,
    "downtown</w>": 7445,
    "reinforcements</w>": 7446,
    "citizens</w>": 7447,
    "documents</w>": 7448,
    "commem": 7449,
    "commemor": 7450,
    "wasn</w>": 7451,
    "promise</w>": 7452,
    "restored</w>": 7453,
    "residence</w>": 7454,
    "interesting</w>": 7455,
    "1933</w>": 7456,
    "broad</w>": 7457,
    "diet</w>": 7458,
    "struggle</w>": 7459,
    "compete</w>": 7460,
    "restricted</w>": 7461,
    "key": 7462,
    "rising</w>": 7463,
    "looks</w>": 7464,
    "asian</w>": 7465,
    "kin</w>": 7466,
    "twins</w>": 7467,
    "spend</w>": 7468,
    "batter": 7469,
    "beli": 7470,
    "loose</w>": 7471,
    "signs</w>": 7472,
    "instance</w>": 7473,
    "mies</w>": 7474,
    "object</w>": 7475,
    "renew": 7476,
    "innov": 7477,
    "xe</w>": 7478,
    "thinking</w>": 7479,
    "classification</w>": 7480,
    "claiming</w>": 7481,
    "kri": 7482,
    "yugo": 7483,
    "yugosla": 7484,
    "spores</w>": 7485,
    "persu": 7486,
    "resigned</w>": 7487,
    "veronica</w>": 7488,
    "personality</w>": 7489,
    "premiered</w>": 7490,
    "lli": 7491,
    "relation</w>": 7492,
    "caves</w>": 7493,
    "creative</w>": 7494,
    "chamber</w>": 7495,
    "keys</w>": 7496,
    "sang</w>": 7497,
    "spur</w>": 7498,
    "terrorist</w>": 7499,
    "techniques</w>": 7500,
    "simpson</w>": 7501,
    "usd</w>": 7502,
    "establishing</w>": 7503,
    "forty</w>": 7504,
    "chase</w>": 7505,
    "corporation</w>": 7506,
    "fifteen</w>": 7507,
    "vative</w>": 7508,
    "zom": 7509,
    "yanke": 7510,
    "stewart</w>": 7511,
    "boxing</w>": 7512,
    "howe</w>": 7513,
    "sag": 7514,
    "wicca</w>": 7515,
    "khando": 7516,
    "khandoba</w>": 7517,
    "már": 7518,
    "márque": 7519,
    "márquez</w>": 7520,
    "midge</w>": 7521,
    "sub</w>": 7522,
    "prove</w>": 7523,
    "confron": 7524,
    "achieve</w>": 7525,
    "designs</w>": 7526,
    "flower</w>": 7527,
    "illustrated</w>": 7528,
    "shakespeare</w>": 7529,
    "1957</w>": 7530,
    "recognised</w>": 7531,
    "jeff</w>": 7532,
    "detro": 7533,
    "detroit</w>": 7534,
    "phoenix</w>": 7535,
    "toronto</w>": 7536,
    "strateg": 7537,
    "waiting</w>": 7538,
    "universe</w>": 7539,
    "orous</w>": 7540,
    "saturday</w>": 7541,
    "minimum</w>": 7542,
    "nings</w>": 7543,
    "apy</w>": 7544,
    "retire": 7545,
    "retirement</w>": 7546,
    "sler</w>": 7547,
    "jr</w>": 7548,
    "acknowle": 7549,
    "useful</w>": 7550,
    "phic</w>": 7551,
    "agree</w>": 7552,
    "matt</w>": 7553,
    "sounds</w>": 7554,
    "actual</w>": 7555,
    "commerci": 7556,
    "sensi": 7557,
    "moderate</w>": 7558,
    "preparation</w>": 7559,
    "application</w>": 7560,
    "offices</w>": 7561,
    "politici": 7562,
    "readers</w>": 7563,
    "miller</w>": 7564,
    "rons</w>": 7565,
    "week": 7566,
    "experiences</w>": 7567,
    "scientists</w>": 7568,
    "metal": 7569,
    "burn": 7570,
    "proto": 7571,
    "aliers</w>": 7572,
    "niel": 7573,
    "anita</w>": 7574,
    "lithu": 7575,
    "downs</w>": 7576,
    "21st</w>": 7577,
    "ingham</w>": 7578,
    "inh": 7579,
    "inhg</w>": 7580,
    "chair</w>": 7581,
    "owed</w>": 7582,
    "ads</w>": 7583,
    "mage</w>": 7584,
    "catechism</w>": 7585,
    "martial</w>": 7586,
    "prefec": 7587,
    "jurchen</w>": 7588,
    "buo": 7589,
    "resolution</w>": 7590,
    "molecules</w>": 7591,
    "mulder</w>": 7592,
    "mozambique</w>": 7593,
    "ndh</w>": 7594,
    "frelim": 7595,
    "frelimo</w>": 7596,
    "attribu": 7597,
    "revolutionary</w>": 7598,
    "pressing</w>": 7599,
    "tanks</w>": 7600,
    "900</w>": 7601,
    "suitable</w>": 7602,
    "rank</w>": 7603,
    "pha": 7604,
    "remarked</w>": 7605,
    "delayed</w>": 7606,
    "tam": 7607,
    "inha": 7608,
    "moore</w>": 7609,
    "fortun": 7610,
    "huge</w>": 7611,
    "weigh": 7612,
    "christop": 7613,
    "97</w>": 7614,
    "approval</w>": 7615,
    "bear</w>": 7616,
    "hull</w>": 7617,
    "starred</w>": 7618,
    "elle</w>": 7619,
    "convinced</w>": 7620,
    "84</w>": 7621,
    "shaf": 7622,
    "twin</w>": 7623,
    "iser</w>": 7624,
    "tians</w>": 7625,
    "bra</w>": 7626,
    "depicts</w>": 7627,
    "frank": 7628,
    "understand</w>": 7629,
    "tivity</w>": 7630,
    "fund</w>": 7631,
    "rus</w>": 7632,
    "wra": 7633,
    "presentation</w>": 7634,
    "philosophy</w>": 7635,
    "objective</w>": 7636,
    "scheme</w>": 7637,
    "hang</w>": 7638,
    "usage</w>": 7639,
    "costs</w>": 7640,
    "appropriate</w>": 7641,
    "formerly</w>": 7642,
    "vali": 7643,
    "brick</w>": 7644,
    "brow": 7645,
    "format</w>": 7646,
    "stin</w>": 7647,
    "buri": 7648,
    "ope</w>": 7649,
    "measured</w>": 7650,
    "excavations</w>": 7651,
    "address</w>": 7652,
    "founder</w>": 7653,
    "tactics</w>": 7654,
    "parliam": 7655,
    "kevin</w>": 7656,
    "76": 7657,
    "parti": 7658,
    "cleared</w>": 7659,
    "battlec": 7660,
    "battlecru": 7661,
    "stum": 7662,
    "variation</w>": 7663,
    "archaeologist</w>": 7664,
    "work": 7665,
    "gilbert</w>": 7666,
    "pati": 7667,
    "cry": 7668,
    "characterized</w>": 7669,
    "mechanical</w>": 7670,
    "ttles</w>": 7671,
    "chev": 7672,
    "cubs</w>": 7673,
    "parish</w>": 7674,
    "virgin</w>": 7675,
    "oux</w>": 7676,
    "coleman</w>": 7677,
    "raft</w>": 7678,
    "ik": 7679,
    "scully</w>": 7680,
    "doc</w>": 7681,
    "nad": 7682,
    "wiś": 7683,
    "wiśnio": 7684,
    "wiśniowi": 7685,
    "wiśniowiecki</w>": 7686,
    "designer</w>": 7687,
    "skills</w>": 7688,
    "altered</w>": 7689,
    "decides</w>": 7690,
    "predecessor</w>": 7691,
    "duty</w>": 7692,
    "arriving</w>": 7693,
    "closure</w>": 7694,
    "perce": 7695,
    "determine</w>": 7696,
    "regiments</w>": 7697,
    "cavalry</w>": 7698,
    "valuable</w>": 7699,
    "130</w>": 7700,
    "displayed</w>": 7701,
    "green": 7702,
    "partner</w>": 7703,
    "1926</w>": 7704,
    "feeding</w>": 7705,
    "jan</w>": 7706,
    "taxon": 7707,
    "queens": 7708,
    "streak</w>": 7709,
    "blues</w>": 7710,
    "intention</w>": 7711,
    "dead": 7712,
    "ulation</w>": 7713,
    "vote</w>": 7714,
    "regu": 7715,
    "schedu": 7716,
    "schedule</w>": 7717,
    "inscription</w>": 7718,
    "revival</w>": 7719,
    "kness</w>": 7720,
    "open": 7721,
    "differences</w>": 7722,
    "voyage</w>": 7723,
    "py": 7724,
    "ranging</w>": 7725,
    "ambassador</w>": 7726,
    "erson</w>": 7727,
    "bard": 7728,
    "fundam": 7729,
    "texts</w>": 7730,
    "thesis</w>": 7731,
    "keeping</w>": 7732,
    "describe</w>": 7733,
    "benefit</w>": 7734,
    "banks</w>": 7735,
    "crops</w>": 7736,
    "stery</w>": 7737,
    "fts</w>": 7738,
    "strategy</w>": 7739,
    "scop": 7740,
    "circle</w>": 7741,
    "feathers</w>": 7742,
    "publications</w>": 7743,
    "encies</w>": 7744,
    "opponent</w>": 7745,
    "adi": 7746,
    "frequent</w>": 7747,
    "grace</w>": 7748,
    "tant</w>": 7749,
    "ban</w>": 7750,
    "spiritual</w>": 7751,
    "column</w>": 7752,
    "alu": 7753,
    "attend": 7754,
    "close": 7755,
    "closest</w>": 7756,
    "wild": 7757,
    "fies</w>": 7758,
    "clearly</w>": 7759,
    "tta</w>": 7760,
    "jobs</w>": 7761,
    "kö": 7762,
    "audiences</w>": 7763,
    "iland</w>": 7764,
    "kong</w>": 7765,
    "bee": 7766,
    "graduate</w>": 7767,
    "caes": 7768,
    "persian</w>": 7769,
    "fossi": 7770,
    "mamm": 7771,
    "oscar</w>": 7772,
    "gars</w>": 7773,
    "mrs</w>": 7774,
    "trek</w>": 7775,
    "residential</w>": 7776,
    "warren</w>": 7777,
    "hamlet</w>": 7778,
    "hok": 7779,
    "hokies</w>": 7780,
    "magdal": 7781,
    "heim</w>": 7782,
    "valky": 7783,
    "valkyria</w>": 7784,
    "perspective</w>": 7785,
    "temporary</w>": 7786,
    "adaptation</w>": 7787,
    "respective</w>": 7788,
    "antiqu": 7789,
    "garrison</w>": 7790,
    "prompted</w>": 7791,
    "aspect</w>": 7792,
    "colli": 7793,
    "kelly</w>": 7794,
    "pole": 7795,
    "exclusively</w>": 7796,
    "roots</w>": 7797,
    "releases</w>": 7798,
    "victorian</w>": 7799,
    "oming</w>": 7800,
    "goal": 7801,
    "teamm": 7802,
    "1905</w>": 7803,
    "machines</w>": 7804,
    "newspapers</w>": 7805,
    "highways</w>": 7806,
    "flag": 7807,
    "veness</w>": 7808,
    "badly</w>": 7809,
    "violent</w>": 7810,
    "definition</w>": 7811,
    "ranking</w>": 7812,
    "armament</w>": 7813,
    "batteries</w>": 7814,
    "artwork</w>": 7815,
    "argues</w>": 7816,
    "disrup": 7817,
    "centers</w>": 7818,
    "ruling</w>": 7819,
    "ose</w>": 7820,
    "doz": 7821,
    "nationally</w>": 7822,
    "oura": 7823,
    "cruise</w>": 7824,
    "declar": 7825,
    "favorable</w>": 7826,
    "elections</w>": 7827,
    "sexu": 7828,
    "mol": 7829,
    "arrive</w>": 7830,
    "jonathan</w>": 7831,
    "diplo": 7832,
    "defending</w>": 7833,
    "administra": 7834,
    "considering</w>": 7835,
    "marsh": 7836,
    "magnit": 7837,
    "magnitude</w>": 7838,
    "compi": 7839,
    "eland</w>": 7840,
    "scribed</w>": 7841,
    "cel</w>": 7842,
    "peach</w>": 7843,
    "conduct</w>": 7844,
    "attained</w>": 7845,
    "comment": 7846,
    "degrees</w>": 7847,
    "ensu": 7848,
    "pack</w>": 7849,
    "lesli": 7850,
    "leslie</w>": 7851,
    "updated</w>": 7852,
    "jay</w>": 7853,
    "sb</w>": 7854,
    "peti": 7855,
    "isb": 7856,
    "isbn</w>": 7857,
    "cky</w>": 7858,
    "xes</w>": 7859,
    "flies</w>": 7860,
    "blacks</w>": 7861,
    "protestant</w>": 7862,
    "commandment</w>": 7863,
    "brazil</w>": 7864,
    "mathews</w>": 7865,
    "pagan</w>": 7866,
    "membran": 7867,
    "quarterback</w>": 7868,
    "turks</w>": 7869,
    "cater</w>": 7870,
    "malley</w>": 7871,
    "abby</w>": 7872,
    "chag": 7873,
    "chagas</w>": 7874,
    "chronicles</w>": 7875,
    "handled</w>": 7876,
    "custom": 7877,
    "deemed</w>": 7878,
    "cler": 7879,
    "brooks</w>": 7880,
    "fifty</w>": 7881,
    "exists</w>": 7882,
    "artistic</w>": 7883,
    "glad": 7884,
    "attend</w>": 7885,
    "jackets</w>": 7886,
    "disappeared</w>": 7887,
    "cher": 7888,
    "qualified</w>": 7889,
    "further": 7890,
    "furthermore</w>": 7891,
    "injured</w>": 7892,
    "investigation</w>": 7893,
    "manufactur": 7894,
    "plate</w>": 7895,
    "erected</w>": 7896,
    "talent</w>": 7897,
    "nebr": 7898,
    "nebraska</w>": 7899,
    "owners</w>": 7900,
    "cotton</w>": 7901,
    "dal</w>": 7902,
    "retreat</w>": 7903,
    "crews</w>": 7904,
    "mala": 7905,
    "bo</w>": 7906,
    "“</w>": 7907,
    "deity</w>": 7908,
    "withdra": 7909,
    "refer</w>": 7910,
    "lis</w>": 7911,
    "bones</w>": 7912,
    "horn</w>": 7913,
    "celebrated</w>": 7914,
    "utili": 7915,
    "suicide</w>": 7916,
    "dave</w>": 7917,
    "sacri": 7918,
    "roberts</w>": 7919,
    "lanes</w>": 7920,
    "iness</w>": 7921,
    "gger</w>": 7922,
    "dwar": 7923,
    "amounts</w>": 7924,
    "hudson</w>": 7925,
    "testing</w>": 7926,
    "blow": 7927,
    "inhabitants</w>": 7928,
    "repeated</w>": 7929,
    "clark</w>": 7930,
    "screen": 7931,
    "globe</w>": 7932,
    "jim": 7933,
    "assu": 7934,
    "heroes</w>": 7935,
    "tourist</w>": 7936,
    "bea": 7937,
    "explains</w>": 7938,
    "dwi": 7939,
    "invest": 7940,
    "northward</w>": 7941,
    "iding</w>": 7942,
    "olen</w>": 7943,
    "beaten</w>": 7944,
    "resumed</w>": 7945,
    "boundary</w>": 7946,
    "strengthened</w>": 7947,
    "atom": 7948,
    "yan</w>": 7949,
    "nine": 7950,
    "isotop": 7951,
    "cinema</w>": 7952,
    "anthem</w>": 7953,
    "esh": 7954,
    "chu": 7955,
    "northeastern</w>": 7956,
    "ira": 7957,
    "boom</w>": 7958,
    "ml</w>": 7959,
    "clair</w>": 7960,
    "leigh</w>": 7961,
    "liberal</w>": 7962,
    "bertin</w>": 7963,
    "spaces</w>": 7964,
    "egon</w>": 7965,
    "paraly": 7966,
    "paralymp": 7967,
    "nurse</w>": 7968,
    "01</w>": 7969,
    "comics</w>": 7970,
    "kau": 7971,
    "uefa</w>": 7972,
    "bir</w>": 7973,
    "qedar": 7974,
    "magad": 7975,
    "magadheera</w>": 7976,
    "lia</w>": 7977,
    "shift</w>": 7978,
    "wait</w>": 7979,
    "stores</w>": 7980,
    "exhau": 7981,
    "thered</w>": 7982,
    "basement</w>": 7983,
    "1890</w>": 7984,
    "1925</w>": 7985,
    "1924</w>": 7986,
    "pursue</w>": 7987,
    "scattered</w>": 7988,
    "tent</w>": 7989,
    "seek</w>": 7990,
    "fili": 7991,
    "diamond</w>": 7992,
    "dent": 7993,
    "bears</w>": 7994,
    "trophy</w>": 7995,
    "meteorological</w>": 7996,
    "steps</w>": 7997,
    "180</w>": 7998,
    "stac": 7999,
    "prevented</w>": 8000,
    "demonstrated</w>": 8001,
    "eo</w>": 8002,
    "confu": 8003,
    "ugu": 8004,
    "diagno": 8005,
    "turrets</w>": 8006,
    "fitted</w>": 8007,
    "like": 8008,
    "consistent</w>": 8009,
    "pure</w>": 8010,
    "disturb": 8011,
    "pain</w>": 8012,
    "constant</w>": 8013,
    "landings</w>": 8014,
    "strip</w>": 8015,
    "referring</w>": 8016,
    "assassination</w>": 8017,
    "southeastern</w>": 8018,
    "distinctive</w>": 8019,
    "difference</w>": 8020,
    "profile</w>": 8021,
    "executed</w>": 8022,
    "demands</w>": 8023,
    "consp": 8024,
    "celebra": 8025,
    "cos</w>": 8026,
    "emmy</w>": 8027,
    "exposed</w>": 8028,
    "budd": 8029,
    "inscriptions</w>": 8030,
    "honour</w>": 8031,
    "millen": 8032,
    "peaking</w>": 8033,
    "ago": 8034,
    "vac": 8035,
    "exac": 8036,
    "banned</w>": 8037,
    "nielsen</w>": 8038,
    "brand</w>": 8039,
    "davis</w>": 8040,
    "sory</w>": 8041,
    "substitute</w>": 8042,
    "sy</w>": 8043,
    "runners</w>": 8044,
    "ores</w>": 8045,
    "visiting</w>": 8046,
    "settlements</w>": 8047,
    "condem": 8048,
    "dako": 8049,
    "chain</w>": 8050,
    "yankees</w>": 8051,
    "inn</w>": 8052,
    "altar": 8053,
    "madri": 8054,
    "madrid</w>": 8055,
    "breed</w>": 8056,
    "harold</w>": 8057,
    "herze": 8058,
    "herzego": 8059,
    "herzegov": 8060,
    "herzegovina</w>": 8061,
    "tack": 8062,
    "pryce</w>": 8063,
    "djo": 8064,
    "djokovic</w>": 8065,
    "asom": 8066,
    "asomtav": 8067,
    "asomtavru": 8068,
    "asomtavruli</w>": 8069,
    "translation</w>": 8070,
    "card</w>": 8071,
    "pictures</w>": 8072,
    "afternoon</w>": 8073,
    "labor</w>": 8074,
    "indicating</w>": 8075,
    "yor": 8076,
    "subjects</w>": 8077,
    "bition</w>": 8078,
    "1934</w>": 8079,
    "bible</w>": 8080,
    "epi": 8081,
    "tournaments</w>": 8082,
    "thin</w>": 8083,
    "tta": 8084,
    "initiated</w>": 8085,
    "assisted</w>": 8086,
    "east": 8087,
    "sixteen</w>": 8088,
    "cargo</w>": 8089,
    "pounds</w>": 8090,
    "diary</w>": 8091,
    "defend</w>": 8092,
    "reci": 8093,
    "tious</w>": 8094,
    "sati": 8095,
    "ras": 8096,
    "eleph": 8097,
    "magazines</w>": 8098,
    "engag": 8099,
    "sunk</w>": 8100,
    "hypo": 8101,
    "spher": 8102,
    "hostile</w>": 8103,
    "false</w>": 8104,
    "inno": 8105,
    "feels</w>": 8106,
    "cool</w>": 8107,
    "advertise": 8108,
    "liner</w>": 8109,
    "sail": 8110,
    "tex</w>": 8111,
    "rush</w>": 8112,
    "bbed</w>": 8113,
    "striking</w>": 8114,
    "eff": 8115,
    "imprison": 8116,
    "sings</w>": 8117,
    "discuss</w>": 8118,
    "loan</w>": 8119,
    "satelli": 8120,
    "comedi": 8121,
    "premiere</w>": 8122,
    "jews</w>": 8123,
    "corner</w>": 8124,
    "oral</w>": 8125,
    "houston</w>": 8126,
    "polis</w>": 8127,
    "madison</w>": 8128,
    "defenders</w>": 8129,
    "alfred</w>": 8130,
    "wich</w>": 8131,
    "warrior</w>": 8132,
    "140</w>": 8133,
    "anglo</w>": 8134,
    "celtic</w>": 8135,
    "inum</w>": 8136,
    "melody</w>": 8137,
    "edges</w>": 8138,
    "dams</w>": 8139,
    "gent</w>": 8140,
    "suspended</w>": 8141,
    "acute</w>": 8142,
    "orm": 8143,
    "philip</w>": 8144,
    "tennes": 8145,
    "tennessee</w>": 8146,
    "yn</w>": 8147,
    "eur": 8148,
    "congo</w>": 8149,
    "runway</w>": 8150,
    "murray</w>": 8151,
    "cook": 8152,
    "weir</w>": 8153,
    "lun": 8154,
    "mbar</w>": 8155,
    "commandos</w>": 8156,
    "valve</w>": 8157,
    "ecraft</w>": 8158,
    "frea": 8159,
    "caine</w>": 8160,
    "astero": 8161,
    "lé": 8162,
    "cong</w>": 8163,
    "kurt</w>": 8164,
    "weapon</w>": 8165,
    "certainly</w>": 8166,
    "orchestra</w>": 8167,
    "reveal</w>": 8168,
    "eline</w>": 8169,
    "receives</w>": 8170,
    "tier</w>": 8171,
    "ordering</w>": 8172,
    "delivery</w>": 8173,
    "equal</w>": 8174,
    "employment</w>": 8175,
    "conclusion</w>": 8176,
    "1908</w>": 8177,
    "qui": 8178,
    "tip</w>": 8179,
    "ecolo": 8180,
    "pled</w>": 8181,
    "consequ": 8182,
    "spect</w>": 8183,
    "requested</w>": 8184,
    "clock</w>": 8185,
    "tempor": 8186,
    "deliber": 8187,
    "eliminated</w>": 8188,
    "lip": 8189,
    "gift</w>": 8190,
    "highligh": 8191,
    "ethnic</w>": 8192,
    "barry</w>": 8193,
    "encing</w>": 8194,
    "scorer</w>": 8195,
    "ontario</w>": 8196,
    "realized</w>": 8197,
    "outbreak</w>": 8198,
    "goddess</w>": 8199,
    "ologies</w>": 8200,
    "ceased</w>": 8201,
    "reader</w>": 8202,
    "tend</w>": 8203,
    "guilty</w>": 8204,
    "eman</w>": 8205,
    "seem</w>": 8206,
    "drag": 8207,
    "discipl": 8208,
    "lement</w>": 8209,
    "conc": 8210,
    "concern</w>": 8211,
    "coo": 8212,
    "gi</w>": 8213,
    "deri": 8214,
    "colleagues</w>": 8215,
    "1000</w>": 8216,
    "ather": 8217,
    "reducing</w>": 8218,
    "bases</w>": 8219,
    "drug</w>": 8220,
    "eric</w>": 8221,
    "presidential</w>": 8222,
    "sexuality</w>": 8223,
    "portions</w>": 8224,
    "imagin": 8225,
    "salv": 8226,
    "rescu": 8227,
    "paramount</w>": 8228,
    "measurements</w>": 8229,
    "harbour</w>": 8230,
    "architectural</w>": 8231,
    "subsi": 8232,
    "kne": 8233,
    "ises</w>": 8234,
    "toured</w>": 8235,
    "minster</w>": 8236,
    "jeff": 8237,
    "pt</w>": 8238,
    "stell": 8239,
    "stellar</w>": 8240,
    "programming</w>": 8241,
    "speaker</w>": 8242,
    "rebuilt</w>": 8243,
    "romanian</w>": 8244,
    "belgi": 8245,
    "underne": 8246,
    "underneath</w>": 8247,
    "depu": 8248,
    "swiss</w>": 8249,
    "pretty</w>": 8250,
    "walking</w>": 8251,
    "shef": 8252,
    "sheffield</w>": 8253,
    "biological</w>": 8254,
    "federation</w>": 8255,
    "conser": 8256,
    "conservative</w>": 8257,
    "geoff</w>": 8258,
    "chro": 8259,
    "hawaii</w>": 8260,
    "nf": 8261,
    "wagner</w>": 8262,
    "chevaliers</w>": 8263,
    "chi</w>": 8264,
    "degro": 8265,
    "dine</w>": 8266,
    "mariana</w>": 8267,
    "animation</w>": 8268,
    "components</w>": 8269,
    "sms</w>": 8270,
    "span</w>": 8271,
    "machin": 8272,
    "carp": 8273,
    "rounds</w>": 8274,
    "gather": 8275,
    "1923</w>": 8276,
    "autum": 8277,
    "autumn</w>": 8278,
    "targe": 8279,
    "queensland</w>": 8280,
    "operates</w>": 8281,
    "culmin": 8282,
    "coaching</w>": 8283,
    "passion</w>": 8284,
    "mathema": 8285,
    "observation</w>": 8286,
    "pulas": 8287,
    "pulaski</w>": 8288,
    "flag</w>": 8289,
    "hart": 8290,
    "elaborate</w>": 8291,
    "tah</w>": 8292,
    "battles</w>": 8293,
    "withdrawal</w>": 8294,
    "sper": 8295,
    "wrapped</w>": 8296,
    "peoples</w>": 8297,
    "dict</w>": 8298,
    "gaining</w>": 8299,
    "lions</w>": 8300,
    "employees</w>": 8301,
    "circuit</w>": 8302,
    "excep": 8303,
    "spots</w>": 8304,
    "vii</w>": 8305,
    "collapsed</w>": 8306,
    "oxy": 8307,
    "yi": 8308,
    "puppet</w>": 8309,
    "ura</w>": 8310,
    "discover</w>": 8311,
    "impression</w>": 8312,
    "benjam": 8313,
    "benjamin</w>": 8314,
    "abc</w>": 8315,
    "sentences</w>": 8316,
    "prosecu": 8317,
    "accurate</w>": 8318,
    "riding</w>": 8319,
    "shoulder</w>": 8320,
    "skull</w>": 8321,
    "tus</w>": 8322,
    "trick</w>": 8323,
    "tracy</w>": 8324,
    "propaganda</w>": 8325,
    "barre": 8326,
    "parliamentary</w>": 8327,
    "intel": 8328,
    "intellec": 8329,
    "christian": 8330,
    "potentially</w>": 8331,
    "evans</w>": 8332,
    "harrison</w>": 8333,
    "stim": 8334,
    "veer": 8335,
    "lob": 8336,
    "zinc</w>": 8337,
    "obvi": 8338,
    "dakota</w>": 8339,
    "saurs</w>": 8340,
    "phrase</w>": 8341,
    "asks</w>": 8342,
    "cougars</w>": 8343,
    "chicks</w>": 8344,
    "stav": 8345,
    "oregon</w>": 8346,
    "helium</w>": 8347,
    "omar</w>": 8348,
    "christine</w>": 8349,
    "krak</w>": 8350,
    "cit": 8351,
    "hawaiian</w>": 8352,
    "rhyme</w>": 8353,
    "ceratopsi": 8354,
    "carre</w>": 8355,
    "rhys</w>": 8356,
    "download": 8357,
    "allies</w>": 8358,
    "asking</w>": 8359,
    "translated</w>": 8360,
    "putting</w>": 8361,
    "dequ": 8362,
    "legislat": 8363,
    "posts</w>": 8364,
    "believing</w>": 8365,
    "lincol": 8366,
    "pace</w>": 8367,
    "advancing</w>": 8368,
    "renov": 8369,
    "eties</w>": 8370,
    "youngest</w>": 8371,
    "consci": 8372,
    "ball": 8373,
    "shorter</w>": 8374,
    "string</w>": 8375,
    "percent": 8376,
    "upset</w>": 8377,
    "drove</w>": 8378,
    "ranger</w>": 8379,
    "thic": 8380,
    "rocks</w>": 8381,
    "stro": 8382,
    "14th</w>": 8383,
    "dual</w>": 8384,
    "starring</w>": 8385,
    "dg": 8386,
    "iners</w>": 8387,
    "tiny</w>": 8388,
    "tuals</w>": 8389,
    "myth": 8390,
    "boundar": 8391,
    "boundaries</w>": 8392,
    "symbol</w>": 8393,
    "accu": 8394,
    "mming</w>": 8395,
    "gon": 8396,
    "grave</w>": 8397,
    "contribution</w>": 8398,
    "ser</w>": 8399,
    "negotiations</w>": 8400,
    "christopher</w>": 8401,
    "provo": 8402,
    "seeking</w>": 8403,
    "effici": 8404,
    "thi": 8405,
    "compound</w>": 8406,
    "remove</w>": 8407,
    "goat</w>": 8408,
    "expression</w>": 8409,
    "earning</w>": 8410,
    "coordin": 8411,
    "subur": 8412,
    "weekend</w>": 8413,
    "paro": 8414,
    "brilli": 8415,
    "voices</w>": 8416,
    "columns</w>": 8417,
    "teen": 8418,
    "ise": 8419,
    "vs</w>": 8420,
    "mainst": 8421,
    "logic</w>": 8422,
    "audio</w>": 8423,
    "ffs</w>": 8424,
    "discre": 8425,
    "bob": 8426,
    "dispute</w>": 8427,
    "caster</w>": 8428,
    "lover</w>": 8429,
    "territorial</w>": 8430,
    "doctrine</w>": 8431,
    "comparison</w>": 8432,
    "platinum</w>": 8433,
    "extratro": 8434,
    "extratropical</w>": 8435,
    "kills</w>": 8436,
    "surgery</w>": 8437,
    "parade</w>": 8438,
    "acids</w>": 8439,
    "m3</w>": 8440,
    "eous</w>": 8441,
    "korea</w>": 8442,
    "timate</w>": 8443,
    "documented</w>": 8444,
    "toll</w>": 8445,
    "boss</w>": 8446,
    "had": 8447,
    "wildlife</w>": 8448,
    "virtu": 8449,
    "singap": 8450,
    "angered</w>": 8451,
    "ego</w>": 8452,
    "commons</w>": 8453,
    "woodhouse</w>": 8454,
    "spacecraft</w>": 8455,
    "islam": 8456,
    "islamic</w>": 8457,
    "dick</w>": 8458,
    "afri": 8459,
    "africaine</w>": 8460,
    "sorra": 8461,
    "sorraia</w>": 8462,
    "sisler</w>": 8463,
    "topped</w>": 8464,
    "balance</w>": 8465,
    "removal</w>": 8466,
    "completing</w>": 8467,
    "volumes</w>": 8468,
    "walker</w>": 8469,
    "repair</w>": 8470,
    "rowed</w>": 8471,
    "merged</w>": 8472,
    "cards</w>": 8473,
    "prepare</w>": 8474,
    "submitted</w>": 8475,
    "dens</w>": 8476,
    "kshire</w>": 8477,
    "birthday</w>": 8478,
    "friendly</w>": 8479,
    "representation</w>": 8480,
    "molecular</w>": 8481,
    "jason</w>": 8482,
    "temporarily</w>": 8483,
    "personally</w>": 8484,
    "worn</w>": 8485,
    "gy": 8486,
    "strategic</w>": 8487,
    "87</w>": 8488,
    "gap</w>": 8489,
    "couldn</w>": 8490,
    "block": 8491,
    "vertical</w>": 8492,
    "disgu": 8493,
    "psych": 8494,
    "khan</w>": 8495,
    "telugu": 8496,
    "telugu</w>": 8497,
    "ja</w>": 8498,
    "cullen</w>": 8499,
    "universities</w>": 8500,
    "bu</w>": 8501,
    "loud</w>": 8502,
    "spending</w>": 8503,
    "battleships</w>": 8504,
    "sudden": 8505,
    "suddenly</w>": 8506,
    "naming</w>": 8507,
    "produces</w>": 8508,
    "pois": 8509,
    "cloth": 8510,
    "grated</w>": 8511,
    "shrine</w>": 8512,
    "questions</w>": 8513,
    "inher": 8514,
    "racing</w>": 8515,
    "agriculture</w>": 8516,
    "airlines</w>": 8517,
    "lance</w>": 8518,
    "powered</w>": 8519,
    "acceptable</w>": 8520,
    "factor</w>": 8521,
    "liar</w>": 8522,
    "yi</w>": 8523,
    "horse": 8524,
    "inge</w>": 8525,
    "dimen": 8526,
    "pale</w>": 8527,
    "trun": 8528,
    "coin</w>": 8529,
    "sured</w>": 8530,
    "inclusion</w>": 8531,
    "beauty</w>": 8532,
    "doors</w>": 8533,
    "clic</w>": 8534,
    "vast</w>": 8535,
    "ome": 8536,
    "encountered</w>": 8537,
    "aming</w>": 8538,
    "reflected</w>": 8539,
    "khe": 8540,
    "satellite</w>": 8541,
    "obli": 8542,
    "detected</w>": 8543,
    "sculptures</w>": 8544,
    "kai": 8545,
    "ros": 8546,
    "atus</w>": 8547,
    "tape</w>": 8548,
    "millenni": 8549,
    "millennium</w>": 8550,
    "exploration</w>": 8551,
    "collapse</w>": 8552,
    "revised</w>": 8553,
    "sugar</w>": 8554,
    "industries</w>": 8555,
    "wie</w>": 8556,
    "louisi": 8557,
    "louisiana</w>": 8558,
    "explain</w>": 8559,
    "sansk": 8560,
    "sanskri": 8561,
    "isles</w>": 8562,
    "neil</w>": 8563,
    "belgium</w>": 8564,
    "greg</w>": 8565,
    "mac</w>": 8566,
    "cress": 8567,
    "cresswell</w>": 8568,
    "amp": 8569,
    "sample</w>": 8570,
    "honorary</w>": 8571,
    "1907</w>": 8572,
    "fishing</w>": 8573,
    "herald</w>": 8574,
    "bou": 8575,
    "presby": 8576,
    "bble</w>": 8577,
    "verac": 8578,
    "veracru": 8579,
    "veracruz</w>": 8580,
    "alber": 8581,
    "matthe": 8582,
    "doctor</w>": 8583,
    "gravity</w>": 8584,
    "hob": 8585,
    "pike</w>": 8586,
    "rene</w>": 8587,
    "joy": 8588,
    "766th</w>": 8589,
    "bodyline</w>": 8590,
    "prix</w>": 8591,
    "degrom</w>": 8592,
    "briggs</w>": 8593,
    "ingres</w>": 8594,
    "nettles</w>": 8595,
    "jardine</w>": 8596,
    "bidden": 8597,
    "biddenden</w>": 8598,
    "underwent</w>": 8599,
    "select</w>": 8600,
    "knoc": 8601,
    "wishes</w>": 8602,
    "assembled</w>": 8603,
    "faul": 8604,
    "racks</w>": 8605,
    "closing</w>": 8606,
    "traded</w>": 8607,
    "demolished</w>": 8608,
    "sover": 8609,
    "1922</w>": 8610,
    "lesser</w>": 8611,
    "guine": 8612,
    "arded</w>": 8613,
    "consequently</w>": 8614,
    "struggled</w>": 8615,
    "hire</w>": 8616,
    "coinci": 8617,
    "campbell</w>": 8618,
    "lica</w>": 8619,
    "lemented</w>": 8620,
    "upgraded</w>": 8621,
    "pier": 8622,
    "pulled</w>": 8623,
    "sailed</w>": 8624,
    "shares</w>": 8625,
    "tra</w>": 8626,
    "”</w>": 8627,
    "signal</w>": 8628,
    "beliefs</w>": 8629,
    "phen": 8630,
    "allu": 8631,
    "likewise</w>": 8632,
    "approaches</w>": 8633,
    "eat</w>": 8634,
    "hidden</w>": 8635,
    "fortune</w>": 8636,
    "stors</w>": 8637,
    "commenting</w>": 8638,
    "patrol</w>": 8639,
    "genera</w>": 8640,
    "discussion</w>": 8641,
    "oxide</w>": 8642,
    "duces</w>": 8643,
    "mate</w>": 8644,
    "cabin": 8645,
    "cabinet</w>": 8646,
    "memories</w>": 8647,
    "choose</w>": 8648,
    "capit": 8649,
    "burial</w>": 8650,
    "spin</w>": 8651,
    "administrative</w>": 8652,
    "provincial</w>": 8653,
    "biographi": 8654,
    "nominations</w>": 8655,
    "clinton</w>": 8656,
    "westminster</w>": 8657,
    "band": 8658,
    "cash</w>": 8659,
    "synago": 8660,
    "synagogue</w>": 8661,
    "tenth</w>": 8662,
    "prisoners</w>": 8663,
    "conflicts</w>": 8664,
    "emphasis</w>": 8665,
    "sav": 8666,
    "illegal</w>": 8667,
    "rati": 8668,
    "tali": 8669,
    "linger</w>": 8670,
    "bious</w>": 8671,
    "scand": 8672,
    "benne": 8673,
    "bennett</w>": 8674,
    "jaco": 8675,
    "ballad</w>": 8676,
    "sony</w>": 8677,
    "charted</w>": 8678,
    "ala</w>": 8679,
    "homo": 8680,
    "tering</w>": 8681,
    "liqu": 8682,
    "jury</w>": 8683,
    "armies</w>": 8684,
    "oper</w>": 8685,
    "objectives</w>": 8686,
    "radar</w>": 8687,
    "mainland</w>": 8688,
    "marry</w>": 8689,
    "luc": 8690,
    "ulu</w>": 8691,
    "sioux</w>": 8692,
    "dersho": 8693,
    "dershowitz</w>": 8694,
    "turn": 8695,
    "dud": 8696,
    "ernest</w>": 8697,
    "ond": 8698,
    "paran": 8699,
    "chens</w>": 8700,
    "punt</w>": 8701,
    "patty": 8702,
    "pattycake</w>": 8703,
    "amanita</w>": 8704,
    "corpus</w>": 8705,
    "typho": 8706,
    "typhoon</w>": 8707,
    "arvn</w>": 8708,
    "neve": 8709,
    "nevesin": 8710,
    "nevesinj": 8711,
    "nevesinje</w>": 8712,
    "chrono</w>": 8713,
    "eshmu": 8714,
    "eshmun</w>": 8715,
    "tto</w>": 8716,
    "22nd</w>": 8717,
    "flowers</w>": 8718,
    "1861</w>": 8719,
    "dispat": 8720,
    "remark": 8721,
    "sting": 8722,
    "unlikely</w>": 8723,
    "columbus</w>": 8724,
    "ski</w>": 8725,
    "percentage</w>": 8726,
    "starter</w>": 8727,
    "reforms</w>": 8728,
    "mentation</w>": 8729,
    "sweden</w>": 8730,
    "uss</w>": 8731,
    "pilots</w>": 8732,
    "dez</w>": 8733,
    "₹</w>": 8734,
    "tony</w>": 8735,
    "daughters</w>": 8736,
    "advice</w>": 8737,
    "beings</w>": 8738,
    "differenti": 8739,
    "protec": 8740,
    "credit</w>": 8741,
    "punishment</w>": 8742,
    "what": 8743,
    "argentine</w>": 8744,
    "alliance</w>": 8745,
    "reduction</w>": 8746,
    "reviewed</w>": 8747,
    "enthu": 8748,
    "enthusi": 8749,
    "controller</w>": 8750,
    "charlo": 8751,
    "charlotte</w>": 8752,
    "crest</w>": 8753,
    "facility</w>": 8754,
    "reactions</w>": 8755,
    "rotation</w>": 8756,
    "ee</w>": 8757,
    "merely</w>": 8758,
    "theatrical</w>": 8759,
    "indon": 8760,
    "indone": 8761,
    "kei": 8762,
    "keith</w>": 8763,
    "complim": 8764,
    "mitch": 8765,
    "eventual</w>": 8766,
    "chronicle</w>": 8767,
    "leukemia</w>": 8768,
    "snake</w>": 8769,
    "carries</w>": 8770,
    "parody</w>": 8771,
    "mainstream</w>": 8772,
    "pink</w>": 8773,
    "metropolitan</w>": 8774,
    "tax</w>": 8775,
    "achievement</w>": 8776,
    "aire</w>": 8777,
    "pages</w>": 8778,
    "sation</w>": 8779,
    "ola</w>": 8780,
    "cooperation</w>": 8781,
    "nels</w>": 8782,
    "pohl</w>": 8783,
    "360</w>": 8784,
    "gle</w>": 8785,
    "drivers</w>": 8786,
    "beats</w>": 8787,
    "switzer": 8788,
    "switzerland</w>": 8789,
    "elic</w>": 8790,
    "wanderers</w>": 8791,
    "unnamed</w>": 8792,
    "finale</w>": 8793,
    "threw</w>": 8794,
    "preston</w>": 8795,
    "caesar</w>": 8796,
    "tigers</w>": 8797,
    "danger</w>": 8798,
    "tle</w>": 8799,
    "temperatures</w>": 8800,
    "lakes</w>": 8801,
    "194</w>": 8802,
    "doo": 8803,
    "idah": 8804,
    "idaho</w>": 8805,
    "usher</w>": 8806,
    "conversation</w>": 8807,
    "bos": 8808,
    "northum": 8809,
    "abbey</w>": 8810,
    "singapore</w>": 8811,
    "zanz": 8812,
    "bis": 8813,
    "tees</w>": 8814,
    "developers</w>": 8815,
    "hn</w>": 8816,
    "ww": 8817,
    "wwf</w>": 8818,
    "ibis</w>": 8819,
    "130th</w>": 8820,
    "linear</w>": 8821,
    "enem": 8822,
    "enemies</w>": 8823,
    "destro": 8824,
    "pot</w>": 8825,
    "erate</w>": 8826,
    "authorized</w>": 8827,
    "machinery</w>": 8828,
    "excell": 8829,
    "iron": 8830,
    "veter": 8831,
    "depicting</w>": 8832,
    "themed</w>": 8833,
    "accompan": 8834,
    "accompanying</w>": 8835,
    "gardens</w>": 8836,
    "gosp": 8837,
    "gospel</w>": 8838,
    "lan</w>": 8839,
    "smooth</w>": 8840,
    "mp</w>": 8841,
    "taxonomy</w>": 8842,
    "measuring</w>": 8843,
    "helping</w>": 8844,
    "facilit": 8845,
    "traveling</w>": 8846,
    "backed</w>": 8847,
    "350</w>": 8848,
    "elevation</w>": 8849,
    "delaware</w>": 8850,
    "bah": 8851,
    "duo</w>": 8852,
    "chan</w>": 8853,
    "ceremon": 8854,
    "sugges": 8855,
    "concep": 8856,
    "draws</w>": 8857,
    "aggressive</w>": 8858,
    "licated</w>": 8859,
    "mediate</w>": 8860,
    "decisions</w>": 8861,
    "aerial</w>": 8862,
    "recreation</w>": 8863,
    "aerodro": 8864,
    "airports</w>": 8865,
    "significance</w>": 8866,
    "wider</w>": 8867,
    "duration</w>": 8868,
    "lifetime</w>": 8869,
    "inage</w>": 8870,
    "patterns</w>": 8871,
    "senator</w>": 8872,
    "mader": 8873,
    "madero</w>": 8874,
    "uprising</w>": 8875,
    "ongoing</w>": 8876,
    "unt</w>": 8877,
    "onwards</w>": 8878,
    "sque</w>": 8879,
    "controls</w>": 8880,
    "pregnancy</w>": 8881,
    "strange</w>": 8882,
    "sq</w>": 8883,
    "vish": 8884,
    "prehen": 8885,
    "onia</w>": 8886,
    "nazi</w>": 8887,
    "emi": 8888,
    "investment</w>": 8889,
    "gold": 8890,
    "offshore</w>": 8891,
    "harbor</w>": 8892,
    "deva": 8893,
    "youtube</w>": 8894,
    "anian</w>": 8895,
    "urs</w>": 8896,
    "contest</w>": 8897,
    "teachers</w>": 8898,
    "owa</w>": 8899,
    "sanskrit</w>": 8900,
    "construct</w>": 8901,
    "kit</w>": 8902,
    "stuart</w>": 8903,
    "tooth</w>": 8904,
    "august": 8905,
    "restore</w>": 8906,
    "extra": 8907,
    "sporting</w>": 8908,
    "offering</w>": 8909,
    "deputy</w>": 8910,
    "hong</w>": 8911,
    "agan</w>": 8912,
    "mills</w>": 8913,
    "dale</w>": 8914,
    "travelled</w>": 8915,
    "saur</w>": 8916,
    "evalu": 8917,
    "las": 8918,
    "tonin": 8919,
    "toniná</w>": 8920,
    "census</w>": 8921,
    "alberta</w>": 8922,
    "bishops</w>": 8923,
    "armoured</w>": 8924,
    "belgian</w>": 8925,
    "trails</w>": 8926,
    "dover</w>": 8927,
    "gard": 8928,
    "deer</w>": 8929,
    "everton</w>": 8930,
    "nen</w>": 8931,
    "hoover</w>": 8932,
    "carmel</w>": 8933,
    "mccartney</w>": 8934,
    "nadal</w>": 8935,
    "isesi</w>": 8936,
    "lessing</w>": 8937,
    "myster": 8938,
    "arkansas</w>": 8939,
    "bronze</w>": 8940,
    "carpenter</w>": 8941,
    "1895</w>": 8942,
    "juven": 8943,
    "donated</w>": 8944,
    "kate</w>": 8945,
    "preparing</w>": 8946,
    "cherry</w>": 8947,
    "predomin": 8948,
    "rays</w>": 8949,
    "ilers</w>": 8950,
    "stap": 8951,
    "permission</w>": 8952,
    "xi": 8953,
    "indicates</w>": 8954,
    "architect</w>": 8955,
    "span": 8956,
    "decorated</w>": 8957,
    "connecting</w>": 8958,
    "embarked</w>": 8959,
    "conversion</w>": 8960,
    "disper": 8961,
    "sydney</w>": 8962,
    "itarian</w>": 8963,
    "revenue</w>": 8964,
    "fresh": 8965,
    "trio</w>": 8966,
    "illness</w>": 8967,
    "eness</w>": 8968,
    "battleship</w>": 8969,
    "1902</w>": 8970,
    "aimed</w>": 8971,
    "phenom": 8972,
    "clear": 8973,
    "perio": 8974,
    "recurring</w>": 8975,
    "bull</w>": 8976,
    "commands</w>": 8977,
    "partnership</w>": 8978,
    "ghter</w>": 8979,
    "hell</w>": 8980,
    "requires</w>": 8981,
    "scar": 8982,
    "segment</w>": 8983,
    "operational</w>": 8984,
    "concentrated</w>": 8985,
    "sations</w>": 8986,
    "dubbed</w>": 8987,
    "hydrogen</w>": 8988,
    "raising</w>": 8989,
    "breaks</w>": 8990,
    "commanders</w>": 8991,
    "twenti": 8992,
    "twentieth</w>": 8993,
    "policies</w>": 8994,
    "pressive</w>": 8995,
    "terrain</w>": 8996,
    "searching</w>": 8997,
    "compani": 8998,
    "albert</w>": 8999,
    "sville</w>": 9000,
    "buy</w>": 9001,
    "conventional</w>": 9002,
    "sof": 9003,
    "exactly</w>": 9004,
    "candidates</w>": 9005,
    "seattle</w>": 9006,
    "manuscripts</w>": 9007,
    "sympa": 9008,
    "chment</w>": 9009,
    "retali": 9010,
    "values</w>": 9011,
    "farmers</w>": 9012,
    "wells</w>": 9013,
    "madon": 9014,
    "madonna</w>": 9015,
    "cade": 9016,
    "soc": 9017,
    "decay</w>": 9018,
    "leonard</w>": 9019,
    "feed</w>": 9020,
    "allosaurus</w>": 9021,
    "pitching</w>": 9022,
    "thirteen</w>": 9023,
    "trapped</w>": 9024,
    "cancelled</w>": 9025,
    "stavanger</w>": 9026,
    "icia</w>": 9027,
    "eng</w>": 9028,
    "shear</w>": 9029,
    "add</w>": 9030,
    "knights</w>": 9031,
    "crusaders</w>": 9032,
    "joyful</w>": 9033,
    "sil</w>": 9034,
    "kick": 9035,
    "glan": 9036,
    "adela": 9037,
    "adelaide</w>": 9038,
    "acy": 9039,
    "acyclic</w>": 9040,
    "dag</w>": 9041,
    "animated</w>": 9042,
    "soldier</w>": 9043,
    "ranks</w>": 9044,
    "alive</w>": 9045,
    "maintaining</w>": 9046,
    "toky": 9047,
    "flash</w>": 9048,
    "positively</w>": 9049,
    "dman</w>": 9050,
    "sket": 9051,
    "mines</w>": 9052,
    "functions</w>": 9053,
    "solely</w>": 9054,
    "vey</w>": 9055,
    "continent</w>": 9056,
    "affili": 9057,
    "toral</w>": 9058,
    "gill</w>": 9059,
    "interactions</w>": 9060,
    "dresses</w>": 9061,
    "jon</w>": 9062,
    "ensem": 9063,
    "wyoming</w>": 9064,
    "04</w>": 9065,
    "pene": 9066,
    "backing</w>": 9067,
    "parro": 9068,
    "fernan": 9069,
    "fernandez</w>": 9070,
    "fourteen</w>": 9071,
    "franc": 9072,
    "francis</w>": 9073,
    "myself</w>": 9074,
    "wore</w>": 9075,
    "max": 9076,
    "hungarian</w>": 9077,
    "serbs</w>": 9078,
    "shipped</w>": 9079,
    "evolved</w>": 9080,
    "scape</w>": 9081,
    "demon</w>": 9082,
    "dynamic</w>": 9083,
    "flesh</w>": 9084,
    "whatever</w>": 9085,
    "inver": 9086,
    "ambu": 9087,
    "cousin</w>": 9088,
    "profession": 9089,
    "touring</w>": 9090,
    "mixing</w>": 9091,
    "limit</w>": 9092,
    "lacking</w>": 9093,
    "abroad</w>": 9094,
    "civilians</w>": 9095,
    "bio": 9096,
    "oran": 9097,
    "characteristic</w>": 9098,
    "fires</w>": 9099,
    "tened</w>": 9100,
    "stronger</w>": 9101,
    "fewer</w>": 9102,
    "failing</w>": 9103,
    "bent</w>": 9104,
    "eing</w>": 9105,
    "broadway</w>": 9106,
    "movies</w>": 9107,
    "monkey</w>": 9108,
    "brilliant</w>": 9109,
    "mothers</w>": 9110,
    "ava</w>": 9111,
    "consoli": 9112,
    "compilation</w>": 9113,
    "morgan</w>": 9114,
    "nave</w>": 9115,
    "seats</w>": 9116,
    "solution</w>": 9117,
    "aust</w>": 9118,
    "ashore</w>": 9119,
    "beating</w>": 9120,
    "stick</w>": 9121,
    "waves</w>": 9122,
    "tenure</w>": 9123,
    "profit</w>": 9124,
    "ducted</w>": 9125,
    "mars</w>": 9126,
    "wealthy</w>": 9127,
    "berlin</w>": 9128,
    "withdrawn</w>": 9129,
    "operas</w>": 9130,
    "poets</w>": 9131,
    "unclear</w>": 9132,
    "derff": 9133,
    "derfflinger</w>": 9134,
    "archaeologists</w>": 9135,
    "dense</w>": 9136,
    "spoken</w>": 9137,
    "watson</w>": 9138,
    "marking</w>": 9139,
    "harry</w>": 9140,
    "hugh</w>": 9141,
    "strongest</w>": 9142,
    "pursuit</w>": 9143,
    "eter</w>": 9144,
    "mah": 9145,
    "volunteers</w>": 9146,
    "rushing</w>": 9147,
    "appreci": 9148,
    "dinosaurs</w>": 9149,
    "tissue</w>": 9150,
    "presbyter": 9151,
    "dioce": 9152,
    "vegetation</w>": 9153,
    "scription</w>": 9154,
    "qi</w>": 9155,
    "reaches</w>": 9156,
    "dudley</w>": 9157,
    "transmission</w>": 9158,
    "compositions</w>": 9159,
    "ji</w>": 9160,
    "hpa</w>": 9161,
    "zzi</w>": 9162,
    "wickets</w>": 9163,
    "files</w>": 9164,
    "jeremy</w>": 9165,
    "monster</w>": 9166,
    "canning</w>": 9167,
    "membrane</w>": 9168,
    "leeds</w>": 9169,
    "daydream</w>": 9170,
    "witch": 9171,
    "witchcraft</w>": 9172,
    "hawaiʻ": 9173,
    "hawaiʻi</w>": 9174,
    "christi</w>": 9175,
    "vertex</w>": 9176,
    "angelou</w>": 9177,
    "guy": 9178,
    "hnc</w>": 9179,
    "thodon</w>": 9180,
    "awa</w>": 9181,
    "identify</w>": 9182,
    "fed</w>": 9183,
    "permitted</w>": 9184,
    "interpreted</w>": 9185,
    "sei": 9186,
    "elder</w>": 9187,
    "shers</w>": 9188,
    "taste</w>": 9189,
    "canon</w>": 9190,
    "wear</w>": 9191,
    "denti": 9192,
    "half": 9193,
    "arena</w>": 9194,
    "xiii</w>": 9195,
    "physics</w>": 9196,
    "brew</w>": 9197,
    "1889</w>": 9198,
[...]
