{
  "vocab": {
    "リ": 0,
    "さ": 1,
    "洪": 2,
    "ữ": 3,
    "ᠪ": 4,
    "拳": 5,
    "陽": 6,
    "ム": 7,
    ",": 8,
    "本": 9,
    "は": 10,
    "ܗ": 11,
    "ł": 12,
    "ο": 13,
    "之": 14,
    "侗": 15,
    "ậ": 16,
    "吕": 17,
    "ᵻ": 18,
    "ι": 19,
    "ゃ": 20,
    "ც": 21,
    "स": 22,
    "ห": 23,
    "ئ": 24,
    "記": 25,
    "裁": 26,
    "0": 27,
    "–": 28,
    "ū": 29,
    "ォ": 30,
    "მ": 31,
    "ξ": 32,
    "~": 33,
    "四": 34,
    "ს": 35,
    "宮": 36,
    "ล": 37,
    "ی": 38,
    "ボ": 39,
    "ö": 40,
    "ớ": 41,
    "ჵ": 42,
    "姉": 43,
    "☉": 44,
    "セ": 45,
    "ブ": 46,
    "֤": 47,
    "알": 48,
    "光": 49,
    "ț": 50,
    "中": 51,
    "⅓": 52,
    "尾": 53,
    "玩": 54,
    "儚": 55,
    "廟": 56,
    "ფ": 57,
    "ን": 58,
    "ׁ": 59,
    "ֳ": 60,
    "ჹ": 61,
    "त": 62,
    "騎": 63,
    "国": 64,
    "م": 65,
    "º": 66,
    "ã": 67,
    "け": 68,
    "আ": 69,
    "桜": 70,
    "ノ": 71,
    "न": 72,
    "ჱ": 73,
    "あ": 74,
    "7": 75,
    "瘡": 76,
    "₹": 77,
    "今": 78,
    "越": 79,
    "ब": 80,
    "姚": 81,
    "颜": 82,
    "具": 83,
    "−": 84,
    "ǎ": 85,
    "ṅ": 86,
    "h": 87,
    "っ": 88,
    "花": 89,
    "約": 90,
    "鳥": 91,
    "再": 92,
    "ώ": 93,
    "σ": 94,
    "ョ": 95,
    "ḍ": 96,
    "र": 97,
    "き": 98,
    "ひ": 99,
    "楚": 100,
    "ط": 101,
    "ว": 102,
    "辛": 103,
    "η": 104,
    "θ": 105,
    "未": 106,
    "泗": 107,
    "覺": 108,
    "๊": 109,
    "姫": 110,
    "祈": 111,
    "�": 112,
    "首": 113,
    "风": 114,
    "ዘ": 115,
    "ナ": 116,
    "ì": 117,
    "善": 118,
    "ˈ": 119,
    "כ": 120,
    "4": 121,
    "旭": 122,
    "望": 123,
    "川": 124,
    "פ": 125,
    "ɒ": 126,
    "チ": 127,
    "ਲ": 128,
    "良": 129,
    "吴": 130,
    "ل": 131,
    "า": 132,
    "颱": 133,
    "п": 134,
    "思": 135,
    "３": 136,
    "5": 137,
    "ά": 138,
    "灼": 139,
    "ỏ": 140,
    "ה": 141,
    "제": 142,
    "ὸ": 143,
    "寺": 144,
    "ː": 145,
    "ੱ": 146,
    "ף": 147,
    "ء": 148,
    "ᠯ": 149,
    "=": 150,
    "ル": 151,
    "н": 152,
    "蘇": 153,
    "ぐ": 154,
    "³": 155,
    "წ": 156,
    "ἵ": 157,
    "ま": 158,
    "ħ": 159,
    "α": 160,
    "ⴟ": 161,
    "ち": 162,
    "ж": 163,
    "ֹ": 164,
    "殿": 165,
    "規": 166,
    "δ": 167,
    "ܕ": 168,
    "ਾ": 169,
    "़": 170,
    "关": 171,
    "三": 172,
    "ص": 173,
    "寝": 174,
    "陈": 175,
    "马": 176,
    "ĕ": 177,
    "华": 178,
    "冷": 179,
    "أ": 180,
    "〜": 181,
    "ֱ": 182,
    "¿": 183,
    "霹": 184,
    "作": 185,
    "ল": 186,
    "跳": 187,
    "ᡝ": 188,
    "膀": 189,
    "誡": 190,
    "梶": 191,
    "円": 192,
    "星": 193,
    "ˁ": 194,
    "?": 195,
    "ἀ": 196,
    "⁄": 197,
    "≠": 198,
    "კ": 199,
    "藕": 200,
    "君": 201,
    "と": 202,
    "י": 203,
    "ᡨ": 204,
    "c": 205,
    "ė": 206,
    "邦": 207,
    "宙": 208,
    "ق": 209,
    "ة": 210,
    "²": 211,
    "ت": 212,
    "ò": 213,
    "ε": 214,
    "т": 215,
    "ふ": 216,
    "兵": 217,
    "誰": 218,
    "剛": 219,
    "館": 220,
    "š": 221,
    "</w>": 222,
    "バ": 223,
    "沙": 224,
    "ם": 225,
    "ɬ": 226,
    "ย": 227,
    "ซ": 228,
    "ʲ": 229,
    "ṣ": 230,
    "名": 231,
    "少": 232,
    "酈": 233,
    "ă": 234,
    "平": 235,
    "前": 236,
    "処": 237,
    "ʂ": 238,
    "ḷ": 239,
    "ค": 240,
    "k": 241,
    "技": 242,
    "ɡ": 243,
    "☫": 244,
    "’": 245,
    "̆": 246,
    "ἑ": 247,
    "თ": 248,
    "欽": 249,
    "라": 250,
    "理": 251,
    "り": 252,
    "小": 253,
    "s": 254,
    "ゆ": 255,
    "咲": 256,
    "め": 257,
    "ğ": 258,
    "遇": 259,
    "ʋ": 260,
    "ᠠ": 261,
    "ἦ": 262,
    "闯": 263,
    "ʷ": 264,
    "タ": 265,
    "ゲ": 266,
    "謎": 267,
    "y": 268,
    "ብ": 269,
    "肖": 270,
    "ي": 271,
    "ʔ": 272,
    "ʾ": 273,
    "周": 274,
    "ז": 275,
    "ᡵ": 276,
    "ع": 277,
    "打": 278,
    "キ": 279,
    "เ": 280,
    "æ": 281,
    "楊": 282,
    "ִ": 283,
    "貴": 284,
    "み": 285,
    "അ": 286,
    "廬": 287,
    "a": 288,
    "ჶ": 289,
    "κ": 290,
    "者": 291,
    "府": 292,
    "。": 293,
    "ḥ": 294,
    "ṭ": 295,
    "ɳ": 296,
    "√": 297,
    "ェ": 298,
    "f": 299,
    "階": 300,
    "绮": 301,
    "&": 302,
    "m": 303,
    "b": 304,
    "ﻋ": 305,
    "ת": 306,
    "ჴ": 307,
    "ä": 308,
    "番": 309,
    "部": 310,
    "風": 311,
    "―": 312,
    "̃": 313,
    "澄": 314,
    "ቈ": 315,
    "ニ": 316,
    "お": 317,
    "ⴌ": 318,
    "焼": 319,
    "่": 320,
    "ด": 321,
    "ị": 322,
    "で": 323,
    "ὑ": 324,
    "ჟ": 325,
    "ዕ": 326,
    "苑": 327,
    "女": 328,
    "化": 329,
    "พ": 330,
    "а": 331,
    "ὀ": 332,
    "ň": 333,
    "ộ": 334,
    "狸": 335,
    "ǔ": 336,
    "ṃ": 337,
    "紫": 338,
    "ד": 339,
    "二": 340,
    "‑": 341,
    "ฮ": 342,
    "凰": 343,
    "空": 344,
    "г": 345,
    "砲": 346,
    "ư": 347,
    "寧": 348,
    "す": 349,
    "გ": 350,
    "ְ": 351,
    "恵": 352,
    "祠": 353,
    "こ": 354,
    "ί": 355,
    "ラ": 356,
    "局": 357,
    "ṛ": 358,
    "ß": 359,
    "塘": 360,
    "ძ": 361,
    "陳": 362,
    "연": 363,
    "″": 364,
    "ầ": 365,
    "在": 366,
    "ɐ": 367,
    "с": 368,
    "ስ": 369,
    "林": 370,
    "·": 371,
    "ხ": 372,
    "к": 373,
    "‡": 374,
    "ű": 375,
    "צ": 376,
    "柱": 377,
    "座": 378,
    "ჩ": 379,
    "د": 380,
    "'": 381,
    "澤": 382,
    "म": 383,
    "ე": 384,
    "й": 385,
    "∞": 386,
    "ṯ": 387,
    "ὰ": 388,
    "ć": 389,
    "ñ": 390,
    "宝": 391,
    "ψ": 392,
    "防": 393,
    "岳": 394,
    "ള": 395,
    "プ": 396,
    "ל": 397,
    "鋼": 398,
    "淹": 399,
    "¼": 400,
    "運": 401,
    "#": 402,
    "顯": 403,
    "ɛ": 404,
    "雲": 405,
    "榮": 406,
    "編": 407,
    "足": 408,
    "р": 409,
    "蘄": 410,
    "院": 411,
    "し": 412,
    "ഹ": 413,
    "應": 414,
    "j": 415,
    "ं": 416,
    "レ": 417,
    "囚": 418,
    "t": 419,
    "黄": 420,
    "宗": 421,
    "史": 422,
    "병": 423,
    "o": 424,
    "ʒ": 425,
    "ω": 426,
    "া": 427,
    "移": 428,
    "फ": 429,
    "}": 430,
    "う": 431,
    "琴": 432,
    "ი": 433,
    "ἐ": 434,
    "シ": 435,
    "選": 436,
    "精": 437,
    "ἁ": 438,
    "景": 439,
    "皮": 440,
    "+": 441,
    "劉": 442,
    "棘": 443,
    "云": 444,
    "檻": 445,
    "ό": 446,
    "-": 447,
    "´": 448,
    "ャ": 449,
    "ʊ": 450,
    "ⴂ": 451,
    "去": 452,
    "江": 453,
    "洛": 454,
    "♯": 455,
    "ィ": 456,
    "夫": 457,
    "보": 458,
    "子": 459,
    "|": 460,
    "i": 461,
    "沂": 462,
    "京": 463,
    "ή": 464,
    "ș": 465,
    "一": 466,
    "ह": 467,
    "(": 468,
    "อ": 469,
    "à": 470,
    "河": 471,
    "้": 472,
    "神": 473,
    "ř": 474,
    "方": 475,
    "定": 476,
    "イ": 477,
    "⋆": 478,
    "い": 479,
    "ჳ": 480,
    "ʀ": 481,
    "劇": 482,
    "ῖ": 483,
    "墙": 484,
    "ɣ": 485,
    "乙": 486,
    "織": 487,
    "例": 488,
    "ַ": 489,
    "ら": 490,
    "櫻": 491,
    "“": 492,
    "同": 493,
    "ë": 494,
    "郭": 495,
    "→": 496,
    "ע": 497,
    "来": 498,
    "π": 499,
    "ⴈ": 500,
    "ֻ": 501,
    "ų": 502,
    "州": 503,
    "ê": 504,
    "依": 505,
    "ส": 506,
    "ベ": 507,
    "و": 508,
    "µ": 509,
    "翠": 510,
    "若": 511,
    "ア": 512,
    "水": 513,
    "を": 514,
    "芽": 515,
    "ש": 516,
    "ʁ": 517,
    "彩": 518,
    "9": 519,
    "銃": 520,
    "ứ": 521,
    "≪": 522,
    "ʿ": 523,
    "ス": 524,
    "孟": 525,
    "ž": 526,
    "～": 527,
    "彌": 528,
    "ş": 529,
    "ल": 530,
    "ʼ": 531,
    "l": 532,
    "ə": 533,
    "七": 534,
    "逆": 535,
    "έ": 536,
    "ب": 537,
    "村": 538,
    "主": 539,
    "ܲ": 540,
    "ਅ": 541,
    "充": 542,
    "瓊": 543,
    "്": 544,
    "日": 545,
    "خ": 546,
    "ا": 547,
    "・": 548,
    "ง": 549,
    "韓": 550,
    "乃": 551,
    "侍": 552,
    "よ": 553,
    "過": 554,
    "つ": 555,
    "đ": 556,
    "田": 557,
    "薩": 558,
    "ḫ": 559,
    "彼": 560,
    "ȯ": 561,
    "ป": 562,
    "斯": 563,
    ".": 564,
    "হ": 565,
    "ı": 566,
    "א": 567,
    "ᡠ": 568,
    "集": 569,
    "ý": 570,
    "ჯ": 571,
    "ロ": 572,
    "б": 573,
    "園": 574,
    "ن": 575,
    "$": 576,
    "์": 577,
    "妙": 578,
    "宫": 579,
    "付": 580,
    "／": 581,
    "興": 582,
    "ó": 583,
    "ọ": 584,
    "ᡥ": 585,
    "く": 586,
    "þ": 587,
    "•": 588,
    "": 589,
    "て": 590,
    "ก": 591,
    "祚": 592,
    "國": 593,
    "ъ": 594,
    "ズ": 595,
    "籠": 596,
    "魂": 597,
    "ɜ": 598,
    "द": 599,
    "ử": 600,
    "礮": 601,
    "ワ": 602,
    "”": 603,
    "ę": 604,
    "可": 605,
    "战": 606,
    "े": 607,
    "ɾ": 608,
    "ณ": 609,
    "↑": 610,
    "‘": 611,
    "ṇ": 612,
    "坂": 613,
    "ᠰ": 614,
    "ḏ": 615,
    "ר": 616,
    "ै": 617,
    "ნ": 618,
    "×": 619,
    "家": 620,
    "士": 621,
    "ิ": 622,
    "დ": 623,
    "ჰ": 624,
    "稚": 625,
    "ず": 626,
    "囁": 627,
    "ド": 628,
    "邱": 629,
    "č": 630,
    "灵": 631,
    "≡": 632,
    "ほ": 633,
    "ś": 634,
    "ﷲ": 635,
    "瀛": 636,
    "х": 637,
    "機": 638,
    "°": 639,
    "ึ": 640,
    "̯": 641,
    "—": 642,
    "湯": 643,
    "ɢ": 644,
    "უ": 645,
    "ő": 646,
    "フ": 647,
    "百": 648,
    "\"": 649,
    "अ": 650,
    "陶": 651,
    "コ": 652,
    "昌": 653,
    "û": 654,
    "漢": 655,
    "ო": 656,
    "胤": 657,
    "龍": 658,
    "太": 659,
    "ą": 660,
    "ạ": 661,
    "ガ": 662,
    "ð": 663,
    "ח": 664,
    "ź": 665,
    "九": 666,
    "ܬ": 667,
    "̥": 668,
    "钱": 669,
    "ር": 670,
    "巳": 671,
    "्": 672,
    "畢": 673,
    "ያ": 674,
    "ā": 675,
    "1": 676,
    "​": 677,
    "ج": 678,
    "́": 679,
    "ֵ": 680,
    "ჺ": 681,
    "城": 682,
    "‐": 683,
    "%": 684,
    "ั": 685,
    "正": 686,
    "ď": 687,
    "ễ": 688,
    "υ": 689,
    "p": 690,
    "ὁ": 691,
    "ば": 692,
    "遠": 693,
    "ˑ": 694,
    "ὐ": 695,
    "ׂ": 696,
    "e": 697,
    "豫": 698,
    "式": 699,
    "ハ": 700,
    "ệ": 701,
    "g": 702,
    "ه": 703,
    "①": 704,
    "x": 705,
    "台": 706,
    "ו": 707,
    "व": 708,
    "白": 709,
    "ჸ": 710,
    "ắ": 711,
    "行": 712,
    "â": 713,
    "ù": 714,
    "γ": 715,
    "現": 716,
    "ɑ": 717,
    "ッ": 718,
    "ジ": 719,
    "れ": 720,
    "宴": 721,
    "ᠣ": 722,
    "ן": 723,
    "場": 724,
    "ũ": 725,
    "だ": 726,
    "n": 727,
    "я": 728,
    "月": 729,
    "è": 730,
    "ǝ": 731,
    "क": 732,
    "{": 733,
    "珙": 734,
    "ᠨ": 735,
    "憑": 736,
    "[": 737,
    "น": 738,
    "แ": 739,
    "政": 740,
    "ỹ": 741,
    "6": 742,
    "አ": 743,
    "8": 744,
    "♭": 745,
    "マ": 746,
    "ш": 747,
    "ु": 748,
    "ქ": 749,
    "芳": 750,
    "傳": 751,
    "橘": 752,
    "ჭ": 753,
    "ี": 754,
    "/": 755,
    "臂": 756,
    "揺": 757,
    "清": 758,
    "ᠴ": 759,
    "£": 760,
    ">": 761,
    "͍": 762,
    "±": 763,
    "灯": 764,
    "ू": 765,
    "信": 766,
    "学": 767,
    "パ": 768,
    "命": 769,
    "師": 770,
    "豪": 771,
    "ク": 772,
    "ō": 773,
    "ネ": 774,
    "火": 775,
    "西": 776,
    "下": 777,
    "ܠ": 778,
    "泉": 779,
    "北": 780,
    "ν": 781,
    "金": 782,
    "谭": 783,
    "ン": 784,
    "<": 785,
    "독": 786,
    "о": 787,
    "物": 788,
    "შ": 789,
    "春": 790,
    "ℓ": 791,
    "ダ": 792,
    ":": 793,
    "w": 794,
    "ᡴ": 795,
    "ภ": 796,
    "明": 797,
    "€": 798,
    "山": 799,
    "丙": 800,
    "립": 801,
    "羽": 802,
    "∉": 803,
    "王": 804,
    "œ": 805,
    "מ": 806,
    "狐": 807,
    "ě": 808,
    "謁": 809,
    "熱": 810,
    "^": 811,
    "ľ": 812,
    "送": 813,
    "わ": 814,
    "⚳": 815,
    "ц": 816,
    "ど": 817,
    "度": 818,
    "洲": 819,
    "李": 820,
    "宇": 821,
    "ቆ": 822,
    "ト": 823,
    "е": 824,
    "观": 825,
    "攻": 826,
    "赤": 827,
    "½": 828,
    "ấ": 829,
    "֫": 830,
    "ญ": 831,
    "3": 832,
    "å": 833,
    "動": 834,
    "〉": 835,
    "д": 836,
    "ἶ": 837,
    "鐵": 838,
    "₤": 839,
    "都": 840,
    "ذ": 841,
    "ょ": 842,
    "靂": 843,
    "ю": 844,
    "ि": 845,
    "ช": 846,
    "隊": 847,
    "応": 848,
    "真": 849,
    "た": 850,
    "ρ": 851,
    "厂": 852,
    "ט": 853,
    "ʃ": 854,
    "も": 855,
    "凤": 856,
    "恋": 857,
    "琦": 858,
    "聖": 859,
    "窓": 860,
    "ˤ": 861,
    "ग": 862,
    "¢": 863,
    "铁": 864,
    "夕": 865,
    "德": 866,
    "ฐ": 867,
    "デ": 868,
    "ⴀ": 869,
    "ቲ": 870,
    "珂": 871,
    "ไ": 872,
    "異": 873,
    "∈": 874,
    "ჲ": 875,
    "か": 876,
    "ס": 877,
    "ษ": 878,
    "放": 879,
    "ἴ": 880,
    "á": 881,
    "吳": 882,
    "ύ": 883,
    "拉": 884,
    "波": 885,
    "滿": 886,
    "泣": 887,
    "†": 888,
    "ń": 889,
    "ב": 890,
    "曦": 891,
    "إ": 892,
    "ァ": 893,
    "ზ": 894,
    "в": 895,
    "ぜ": 896,
    "ा": 897,
    "ാ": 898,
    "祖": 899,
    "ヨ": 900,
    "憶": 901,
    "ʻ": 902,
    "愛": 903,
    "и": 904,
    "天": 905,
    "﻿": 906,
    "ई": 907,
    "广": 908,
    "]": 909,
    "建": 910,
    "ī": 911,
    "ĭ": 912,
    "其": 913,
    "霖": 914,
    "趙": 915,
    "禮": 916,
    "ָ": 917,
    "′": 918,
    "グ": 919,
    "ɽ": 920,
    "モ": 921,
    "ᠸ": 922,
    "な": 923,
    "≤": 924,
    "杜": 925,
    "q": 926,
    ";": 927,
    "س": 928,
    "ק": 929,
    "錡": 930,
    "r": 931,
    "が": 932,
    "玄": 933,
    "旦": 934,
    "判": 935,
    "บ": 936,
    "ï": 937,
    "挑": 938,
    "ּ": 939,
    "ყ": 940,
    "の": 941,
    "_": 942,
    "♀": 943,
    "カ": 944,
    "為": 945,
    "衛": 946,
    "2": 947,
    "琪": 948,
    "藥": 949,
    "ვ": 950,
    "殻": 951,
    "ა": 952,
    "у": 953,
    "ả": 954,
    "ੁ": 955,
    "全": 956,
    "ศ": 957,
    "藤": 958,
    "宋": 959,
    "戦": 960,
    "ܐ": 961,
    "ô": 962,
    "鍵": 963,
    "ǣ": 964,
    "圣": 965,
    "ܵ": 966,
    "ታ": 967,
    "ż": 968,
    "ē": 969,
    "高": 970,
    "χ": 971,
    "ー": 972,
    "球": 973,
    "ɪ": 974,
    "典": 975,
    "§": 976,
    "汉": 977,
    "完": 978,
    "u": 979,
    "椎": 980,
    "з": 981,
    "ゥ": 982,
    "ơ": 983,
    "্": 984,
    "解": 985,
    "პ": 986,
    "ὶ": 987,
    "に": 988,
    "テ": 989,
    "ぎ": 990,
    "費": 991,
    "\\": 992,
    "英": 993,
    "ŋ": 994,
    "堂": 995,
    "御": 996,
    "ץ": 997,
    "d": 998,
    "人": 999,
    "⋅": 1000,
    "古": 1001,
    "ュ": 1002,
    "ç": 1003,
    "へ": 1004,
    "대": 1005,
    "庆": 1006,
    "房": 1007,
    "義": 1008,
    "ы": 1009,
    "…": 1010,
    "跡": 1011,
    "ღ": 1012,
    "還": 1013,
    "z": 1014,
    "市": 1015,
    "里": 1016,
    "ܢ": 1017,
    "ɫ": 1018,
    "守": 1019,
    "張": 1020,
    "ツ": 1021,
    "य": 1022,
    "和": 1023,
    "v": 1024,
    "μ": 1025,
    "ਹ": 1026,
    "β": 1027,
    "祭": 1028,
    "@": 1029,
    "雪": 1030,
    "ῦ": 1031,
    "〈": 1032,
    "耕": 1033,
    "φ": 1034,
    "湖": 1035,
    "誓": 1036,
    "ლ": 1037,
    "、": 1038,
    "͡": 1039,
    "母": 1040,
    "ֶ": 1041,
    "散": 1042,
    "ბ": 1043,
    "關": 1044,
    "大": 1045,
    ")": 1046,
    "錄": 1047,
    "秋": 1048,
    "რ": 1049,
    "प": 1050,
    "転": 1051,
    "懷": 1052,
    "λ": 1053,
    "ث": 1054,
    "贵": 1055,
    "ג": 1056,
    "ኖ": 1057,
    "荊": 1058,
    "ø": 1059,
    "坤": 1060,
    "¥": 1061,
    "ɔ": 1062,
    "í": 1063,
    "ტ": 1064,
    "サ": 1065,
    "ك": 1066,
    "ἰ": 1067,
    "ⴃ": 1068,
    "東": 1069,
    "„": 1070,
    "ᠵ": 1071,
    "ü": 1072,
    "∗": 1073,
    "ᡳ": 1074,
    "初": 1075,
    "ⴕ": 1076,
    "⅔": 1077,
    "ण": 1078,
    "л": 1079,
    "¡": 1080,
    "₣": 1081,
    "秀": 1082,
    "恩": 1083,
    "é": 1084,
    "ֲ": 1085,
    "็": 1086,
    "ม": 1087,
    "ヴ": 1088,
    "後": 1089,
    "ţ": 1090,
    "̇": 1091,
    "出": 1092,
    "生": 1093,
    "晋": 1094,
    "世": 1095,
    "絵": 1096,
    "成": 1097,
    "ů": 1098,
    "ܝ": 1099,
    "ร": 1100,
    "м": 1101,
    "`": 1102,
    "ˌ": 1103,
    "̍": 1104,
    "!": 1105,
    "ヘ": 1106,
    "阿": 1107,
    "ú": 1108,
    "ん": 1109,
    "ῆ": 1110,
    "נ": 1111,
    "オ": 1112,
    "î": 1113,
    "安": 1114,
    "ご": 1115,
    "ჷ": 1116,
    "扈": 1117,
    "ῥ": 1118,
    "부": 1119,
    "原": 1120,
    "立": 1121,
    "ح": 1122,
    "ف": 1123,
    "ῶ": 1124,
    "胡": 1125,
    "束": 1126,
    "願": 1127,
    "ะ": 1128,
    "ر": 1129,
    "エ": 1130,
    "ỳ": 1131,
    "*": 1132,
    "⊕": 1133,
    "": 1134,
    "ʕ": 1135,
    "჻": 1136,
    "τ": 1137,
    "є": 1138,
    "ミ": 1139,
    "ᠮ": 1140,
    "ต": 1141,
    "许": 1142,
    "ỗ": 1143,
    "堤": 1144,
    "ь": 1145,
    "野": 1146,
    "ش": 1147,
    "ς": 1148,
    "る": 1149,
    "e</w>": 1150,
    "s</w>": 1151,
    "th": 1152,
    "d</w>": 1153,
    "n</w>": 1154,
    "er": 1155,
    "the</w>": 1156,
    "t</w>": 1157,
    "in": 1158,
    "an": 1159,
    ",</w>": 1160,
    "y</w>": 1161,
    "ed</w>": 1162,
    ".</w>": 1163,
    "or": 1164,
    "ar": 1165,
    "al": 1166,
    "o</w>": 1167,
    "re": 1168,
    "f</w>": 1169,
    "ti": 1170,
    "a</w>": 1171,
    "en": 1172,
    "on": 1173,
    "of</w>": 1174,
    "and</w>": 1175,
    "er</w>": 1176,
    "g</w>": 1177,
    "on</w>": 1178,
    "in</w>": 1179,
    "@</w>": 1180,
    "ing</w>": 1181,
    "ou": 1182,
    "st": 1183,
    "to</w>": 1184,
    "as</w>": 1185,
    "es</w>": 1186,
    "ch": 1187,
    "ro": 1188,
    "at": 1189,
    "m</w>": 1190,
    "hi": 1191,
    "el": 1192,
    "si": 1193,
    "ri": 1194,
    "=</w>": 1195,
    "\"</w>": 1196,
    "al</w>": 1197,
    "at</w>": 1198,
    "an</w>": 1199,
    "li": 1200,
    "th</w>": 1201,
    "for": 1202,
    "ac": 1203,
    "st</w>": 1204,
    "am": 1205,
    "di": 1206,
    "ur": 1207,
    "co": 1208,
    "was</w>": 1209,
    "l</w>": 1210,
    "de": 1211,
    "wi": 1212,
    "ly</w>": 1213,
    "en</w>": 1214,
    "le": 1215,
    "tion</w>": 1216,
    "sh": 1217,
    "ir": 1218,
    "it": 1219,
    "se": 1220,
    "'</w>": 1221,
    "ow": 1222,
    "be": 1223,
    "ic": 1224,
    "-</w>": 1225,
    "is</w>": 1226,
    "as": 1227,
    "un": 1228,
    "le</w>": 1229,
    "k</w>": 1230,
    "con": 1231,
    "ra": 1232,
    "la": 1233,
    "ch</w>": 1234,
    "gh": 1235,
    "that</w>": 1236,
    "il": 1237,
    "ma": 1238,
    "for</w>": 1239,
    "the": 1240,
    "ve</w>": 1241,
    "su": 1242,
    "by</w>": 1243,
    "ha": 1244,
    "ol": 1245,
    "with</w>": 1246,
    "ent</w>": 1247,
    "ent": 1248,
    "0</w>": 1249,
    "vi": 1250,
    "sp": 1251,
    ")</w>": 1252,
    "(</w>": 1253,
    "com": 1254,
    "ne": 1255,
    "em": 1256,
    "op": 1257,
    "ere</w>": 1258,
    "bu": 1259,
    "pro": 1260,
    "19": 1261,
    "ag": 1262,
    "se</w>": 1263,
    "it</w>": 1264,
    "ce</w>": 1265,
    "ver": 1266,
    "or</w>": 1267,
    "ad": 1268,
    "wh": 1269,
    "ar</w>": 1270,
    "ers</w>": 1271,
    "mo": 1272,
    "lo": 1273,
    "oun": 1274,
    "ap": 1275,
    "is": 1276,
    "po": 1277,
    "ec": 1278,
    "ted</w>": 1279,
    "ab": 1280,
    "fro": 1281,
    "tion": 1282,
    "his</w>": 1283,
    "from</w>": 1284,
    "om": 1285,
    "he</w>": 1286,
    "whi": 1287,
    "ts</w>": 1288,
    "ex": 1289,
    "no": 1290,
    "ul": 1291,
    "ter</w>": 1292,
    "p</w>": 1293,
    "de</w>": 1294,
    "c</w>": 1295,
    "i</w>": 1296,
    "20": 1297,
    "ation</w>": 1298,
    "ter": 1299,
    "au": 1300,
    "par": 1301,
    "pre": 1302,
    "w</w>": 1303,
    "ru": 1304,
    "were</w>": 1305,
    "ea": 1306,
    "sc": 1307,
    "qu": 1308,
    "du": 1309,
    "ther</w>": 1310,
    "lu": 1311,
    "ds</w>": 1312,
    "1</w>": 1313,
    "ate</w>": 1314,
    "we": 1315,
    "per": 1316,
    "es": 1317,
    "bo": 1318,
    "2</w>": 1319,
    "ated</w>": 1320,
    "ver</w>": 1321,
    "5</w>": 1322,
    "ing": 1323,
    "man": 1324,
    "ta": 1325,
    "ci": 1326,
    "ear": 1327,
    "our": 1328,
    "ded</w>": 1329,
    "all</w>": 1330,
    "ff": 1331,
    "tr": 1332,
    "one</w>": 1333,
    "ame</w>": 1334,
    "ding</w>": 1335,
    "are</w>": 1336,
    "rec": 1337,
    "me": 1338,
    "had</w>": 1339,
    "3</w>": 1340,
    "ir</w>": 1341,
    "ough": 1342,
    "ld</w>": 1343,
    "which</w>": 1344,
    "wor": 1345,
    "im": 1346,
    "be</w>": 1347,
    "4</w>": 1348,
    "ay</w>": 1349,
    "af": 1350,
    "fi": 1351,
    "ally</w>": 1352,
    "te</w>": 1353,
    "tim": 1354,
    "mar": 1355,
    "6</w>": 1356,
    "fir": 1357,
    "mi": 1358,
    "ty</w>": 1359,
    "sed</w>": 1360,
    "tions</w>": 1361,
    "ong</w>": 1362,
    "gu": 1363,
    "out</w>": 1364,
    "por": 1365,
    "ge</w>": 1366,
    "so</w>": 1367,
    "oo": 1368,
    "ber</w>": 1369,
    "fe": 1370,
    "ser": 1371,
    "8</w>": 1372,
    "low": 1373,
    "pl": 1374,
    "el</w>": 1375,
    "tur": 1376,
    "its</w>": 1377,
    "inc": 1378,
    "this</w>": 1379,
    "but</w>": 1380,
    "sh</w>": 1381,
    "der": 1382,
    "ity</w>": 1383,
    "ke</w>": 1384,
    "7</w>": 1385,
    "ved</w>": 1386,
    "sion</w>": 1387,
    "ine</w>": 1388,
    "oc": 1389,
    "pe": 1390,
    "ting</w>": 1391,
    "um": 1392,
    "not</w>": 1393,
    "us</w>": 1394,
    "their</w>": 1395,
    "first</w>": 1396,
    "ies</w>": 1397,
    ";</w>": 1398,
    "tw": 1399,
    "na": 1400,
    "pla": 1401,
    "200": 1402,
    "sa": 1403,
    "te": 1404,
    "ary</w>": 1405,
    "own</w>": 1406,
    "ss</w>": 1407,
    "att": 1408,
    "ould</w>": 1409,
    "they</w>": 1410,
    "gi": 1411,
    ":</w>": 1412,
    "ran": 1413,
    "shi": 1414,
    "–</w>": 1415,
    "mu": 1416,
    "ep": 1417,
    "to": 1418,
    "ough</w>": 1419,
    "go": 1420,
    "her</w>": 1421,
    "ore</w>": 1422,
    "led</w>": 1423,
    "9</w>": 1424,
    "tic": 1425,
    "der</w>": 1426,
    "after</w>": 1427,
    "also</w>": 1428,
    "ali": 1429,
    "et</w>": 1430,
    "ment</w>": 1431,
    "stor": 1432,
    "have</w>": 1433,
    "ev": 1434,
    "other</w>": 1435,
    "ard</w>": 1436,
    "00</w>": 1437,
    "ght</w>": 1438,
    "ents</w>": 1439,
    "ound</w>": 1440,
    "pu": 1441,
    "ic</w>": 1442,
    "two</w>": 1443,
    "ni": 1444,
    "car": 1445,
    "comm": 1446,
    "fin": 1447,
    "ack</w>": 1448,
    "min": 1449,
    "duc": 1450,
    "bri": 1451,
    "cont": 1452,
    "has</w>": 1453,
    "age</w>": 1454,
    "comp": 1455,
    "been</w>": 1456,
    "gr": 1457,
    "ence</w>": 1458,
    "ph": 1459,
    "king</w>": 1460,
    "ks</w>": 1461,
    "ge": 1462,
    "ely</w>": 1463,
    "nor": 1464,
    "ous</w>": 1465,
    "who</w>": 1466,
    "x</w>": 1467,
    "ater</w>": 1468,
    "land</w>": 1469,
    "ca": 1470,
    "ori": 1471,
    "tive</w>": 1472,
    "char": 1473,
    "so": 1474,
    "18": 1475,
    "som": 1476,
    "jo": 1477,
    "tra": 1478,
    "uring</w>": 1479,
    "bi": 1480,
    "str": 1481,
    "tu": 1482,
    "new</w>": 1483,
    "ons</w>": 1484,
    "spec": 1485,
    "ei": 1486,
    "man</w>": 1487,
    "time</w>": 1488,
    "gre": 1489,
    "201": 1490,
    "gen": 1491,
    "she</w>": 1492,
    "cent": 1493,
    "inter": 1494,
    "our</w>": 1495,
    "mon": 1496,
    "when</w>": 1497,
    "ell</w>": 1498,
    "sig": 1499,
    "cre": 1500,
    "ow</w>": 1501,
    "mil": 1502,
    "ned</w>": 1503,
    "lan": 1504,
    "son</w>": 1505,
    "sou": 1506,
    "during</w>": 1507,
    "ric": 1508,
    "ju": 1509,
    "ant</w>": 1510,
    "tional</w>": 1511,
    "inclu": 1512,
    "pres": 1513,
    "gra": 1514,
    "do": 1515,
    "col": 1516,
    "pa": 1517,
    "b</w>": 1518,
    "ings</w>": 1519,
    "cl": 1520,
    "form": 1521,
    "tt": 1522,
    "more</w>": 1523,
    "ad</w>": 1524,
    "ember</w>": 1525,
    "eng": 1526,
    "play": 1527,
    "into</w>": 1528,
    "ten": 1529,
    "tic</w>": 1530,
    "way</w>": 1531,
    "pi": 1532,
    "ree</w>": 1533,
    "coun": 1534,
    "bec": 1535,
    "would</w>": 1536,
    "most</w>": 1537,
    "ace</w>": 1538,
    "da": 1539,
    "fil": 1540,
    "ked</w>": 1541,
    "ure</w>": 1542,
    "als</w>": 1543,
    "fa": 1544,
    "ber": 1545,
    "able</w>": 1546,
    "ased</w>": 1547,
    "up</w>": 1548,
    "ates</w>": 1549,
    "while</w>": 1550,
    "high": 1551,
    "sy": 1552,
    "ke": 1553,
    "cor": 1554,
    "ft</w>": 1555,
    "vel": 1556,
    "fu": 1557,
    "ses</w>": 1558,
    "est": 1559,
    "bet": 1560,
    "sti": 1561,
    "ance</w>": 1562,
    "off": 1563,
    "only</w>": 1564,
    "pri": 1565,
    "ving</w>": 1566,
    "ined</w>": 1567,
    "re</w>": 1568,
    "res</w>": 1569,
    "stru": 1570,
    "id</w>": 1571,
    "bli": 1572,
    "tor": 1573,
    "ern</w>": 1574,
    "over</w>": 1575,
    "ga": 1576,
    "ins</w>": 1577,
    "sing</w>": 1578,
    "fol": 1579,
    "ren": 1580,
    "ase</w>": 1581,
    "loc": 1582,
    "ll</w>": 1583,
    "ves</w>": 1584,
    "ps</w>": 1585,
    "kn": 1586,
    "tri": 1587,
    "sel": 1588,
    "ces</w>": 1589,
    "game</w>": 1590,
    "wri": 1591,
    "thr": 1592,
    "ari": 1593,
    "ces": 1594,
    "ties</w>": 1595,
    "les</w>": 1596,
    "ning</w>": 1597,
    "ste": 1598,
    "than</w>": 1599,
    "ho": 1600,
    "all": 1601,
    "ys</w>": 1602,
    "ited</w>": 1603,
    "vie": 1604,
    "later</w>": 1605,
    "recor": 1606,
    "lar": 1607,
    "ble</w>": 1608,
    "about</w>": 1609,
    "uni": 1610,
    "ans</w>": 1611,
    "tro": 1612,
    "red</w>": 1613,
    "ye": 1614,
    "three</w>": 1615,
    "old</w>": 1616,
    "publi": 1617,
    "ical</w>": 1618,
    "dis": 1619,
    "ween</w>": 1620,
    "ang": 1621,
    "between</w>": 1622,
    "um</w>": 1623,
    "war": 1624,
    "ason</w>": 1625,
    "bro": 1626,
    "sch": 1627,
    "dy</w>": 1628,
    "shed</w>": 1629,
    "cu": 1630,
    "ever</w>": 1631,
    "scri": 1632,
    "him</w>": 1633,
    "there</w>": 1634,
    "follow": 1635,
    "though</w>": 1636,
    "num": 1637,
    "rea": 1638,
    "some</w>": 1639,
    "vic": 1640,
    "pp": 1641,
    "he": 1642,
    "wa": 1643,
    "ship</w>": 1644,
    "gin": 1645,
    "may</w>": 1646,
    "aga": 1647,
    "day</w>": 1648,
    "end</w>": 1649,
    "ears</w>": 1650,
    "no</w>": 1651,
    "199": 1652,
    "any</w>": 1653,
    "buil": 1654,
    "can": 1655,
    "struc": 1656,
    "ms</w>": 1657,
    "produc": 1658,
    "bel": 1659,
    "amer": 1660,
    "est</w>": 1661,
    "app": 1662,
    "u</w>": 1663,
    "sur": 1664,
    "star": 1665,
    "rele": 1666,
    "fore</w>": 1667,
    "hel": 1668,
    "emp": 1669,
    "song</w>": 1670,
    "ating</w>": 1671,
    "of": 1672,
    "/</w>": 1673,
    "year</w>": 1674,
    "enti": 1675,
    "sub": 1676,
    "secon": 1677,
    "used</w>": 1678,
    "ton</w>": 1679,
    "season</w>": 1680,
    "sin": 1681,
    "such</w>": 1682,
    "made</w>": 1683,
    "sts</w>": 1684,
    "city</w>": 1685,
    "where</w>": 1686,
    "many</w>": 1687,
    "op</w>": 1688,
    "000</w>": 1689,
    "cri": 1690,
    "americ": 1691,
    "can</w>": 1692,
    "how": 1693,
    "and": 1694,
    "before</w>": 1695,
    "olo": 1696,
    "with": 1697,
    "cal": 1698,
    "ann": 1699,
    "are": 1700,
    "musi": 1701,
    "ury</w>": 1702,
    "mis": 1703,
    "gan</w>": 1704,
    "nam": 1705,
    "indi": 1706,
    "them</w>": 1707,
    "des</w>": 1708,
    "br": 1709,
    "ong": 1710,
    "arm": 1711,
    "ani": 1712,
    "cap": 1713,
    "ue</w>": 1714,
    "ations</w>": 1715,
    "gener": 1716,
    "her": 1717,
    "ters</w>": 1718,
    "posi": 1719,
    "these</w>": 1720,
    "h</w>": 1721,
    "years</w>": 1722,
    "poin": 1723,
    "mat": 1724,
    "fic": 1725,
    "ob": 1726,
    "albu": 1727,
    "fer": 1728,
    "side</w>": 1729,
    "stu": 1730,
    "state</w>": 1731,
    "well</w>": 1732,
    "ba": 1733,
    "tre": 1734,
    "national</w>": 1735,
    "world</w>": 1736,
    "series</w>": 1737,
    "sk": 1738,
    "bar": 1739,
    "ture</w>": 1740,
    "tran": 1741,
    "pen": 1742,
    "being</w>": 1743,
    "sted</w>": 1744,
    "both</w>": 1745,
    "cur": 1746,
    "ial</w>": 1747,
    "hou": 1748,
    "film</w>": 1749,
    "ed": 1750,
    "bor": 1751,
    "through</w>": 1752,
    "second</w>": 1753,
    "me</w>": 1754,
    "ying</w>": 1755,
    "war</w>": 1756,
    "vo": 1757,
    "histor": 1758,
    "pr": 1759,
    "jec": 1760,
    "win": 1761,
    "however</w>": 1762,
    "iso": 1763,
    "z</w>": 1764,
    "fe</w>": 1765,
    "then</w>": 1766,
    "work</w>": 1767,
    "sing": 1768,
    "ood</w>": 1769,
    "port</w>": 1770,
    "vision</w>": 1771,
    "known</w>": 1772,
    "cer": 1773,
    "cro": 1774,
    "direc": 1775,
    "fac": 1776,
    "tes</w>": 1777,
    "tea": 1778,
    "poli": 1779,
    "south</w>": 1780,
    "sever": 1781,
    "air": 1782,
    "inf": 1783,
    "sup": 1784,
    "tho": 1785,
    "ause</w>": 1786,
    "very</w>": 1787,
    "consi": 1788,
    "tor</w>": 1789,
    "ster</w>": 1790,
    "ling</w>": 1791,
    "ched</w>": 1792,
    "episo": 1793,
    "north</w>": 1794,
    "ven</w>": 1795,
    "lin": 1796,
    "clu": 1797,
    "offic": 1798,
    "early</w>": 1799,
    "part</w>": 1800,
    "number</w>": 1801,
    "ced</w>": 1802,
    "ement</w>": 1803,
    "album</w>": 1804,
    "devel": 1805,
    "hea": 1806,
    "tain</w>": 1807,
    "ames</w>": 1808,
    "tly</w>": 1809,
    "charac": 1810,
    "ry</w>": 1811,
    "sul": 1812,
    "pop": 1813,
    "yp": 1814,
    "batt": 1815,
    "ale</w>": 1816,
    "198": 1817,
    "ve": 1818,
    "ger": 1819,
    "four</w>": 1820,
    "joh": 1821,
    "several</w>": 1822,
    "tiv": 1823,
    "10</w>": 1824,
    "peri": 1825,
    "became</w>": 1826,
    "ssi": 1827,
    "ack": 1828,
    "ls</w>": 1829,
    "sm": 1830,
    "cam": 1831,
    "inv": 1832,
    "line</w>": 1833,
    "ck</w>": 1834,
    "tel": 1835,
    "descri": 1836,
    "oper": 1837,
    "dre": 1838,
    "under</w>": 1839,
    "united</w>": 1840,
    "soci": 1841,
    "ass</w>": 1842,
    "low</w>": 1843,
    "again": 1844,
    "against</w>": 1845,
    "including</w>": 1846,
    "comple": 1847,
    "ward</w>": 1848,
    "eu": 1849,
    "contin": 1850,
    "like</w>": 1851,
    "west</w>": 1852,
    "reg": 1853,
    "olog": 1854,
    "zed</w>": 1855,
    "dist": 1856,
    "desig": 1857,
    "chi": 1858,
    "r</w>": 1859,
    "suc": 1860,
    "ular</w>": 1861,
    "develop": 1862,
    "origin": 1863,
    "ven": 1864,
    "century</w>": 1865,
    "ws</w>": 1866,
    "—</w>": 1867,
    "boo": 1868,
    "ami": 1869,
    "nov": 1870,
    "diff": 1871,
    "har": 1872,
    "ors</w>": 1873,
    "music</w>": 1874,
    "although</w>": 1875,
    "following</w>": 1876,
    "hom": 1877,
    "bl": 1878,
    "ered</w>": 1879,
    "mp": 1880,
    "wil": 1881,
    "sen": 1882,
    "gover": 1883,
    "del": 1884,
    "ane</w>": 1885,
    "medi": 1886,
    "do</w>": 1887,
    "stern</w>": 1888,
    "lion</w>": 1889,
    "loo": 1890,
    "rema": 1891,
    "194": 1892,
    "sta": 1893,
    "dra": 1894,
    "ns</w>": 1895,
    "tow": 1896,
    "don</w>": 1897,
    "dent</w>": 1898,
    "because</w>": 1899,
    "called</w>": 1900,
    "could</w>": 1901,
    "hu": 1902,
    "episode</w>": 1903,
    "try</w>": 1904,
    "0s</w>": 1905,
    "ought</w>": 1906,
    "phi": 1907,
    "back</w>": 1908,
    "mor": 1909,
    "fre": 1910,
    "pow": 1911,
    "said</w>": 1912,
    "each</w>": 1913,
    "ten</w>": 1914,
    "act</w>": 1915,
    "ite</w>": 1916,
    "unti": 1917,
    "bed</w>": 1918,
    "began</w>": 1919,
    "assi": 1920,
    "until</w>": 1921,
    "ia</w>": 1922,
    "cha": 1923,
    "american</w>": 1924,
    "team</w>": 1925,
    "peop": 1926,
    "recei": 1927,
    "states</w>": 1928,
    "grou": 1929,
    "self</w>": 1930,
    "tish</w>": 1931,
    "set</w>": 1932,
    "retur": 1933,
    "lec": 1934,
    "you": 1935,
    "197": 1936,
    "tical</w>": 1937,
    "did</w>": 1938,
    "lation</w>": 1939,
    "am</w>": 1940,
    "une</w>": 1941,
    "196": 1942,
    "ast</w>": 1943,
    "clo": 1944,
    "bur": 1945,
    "il</w>": 1946,
    "govern": 1947,
    "feat": 1948,
    "dec": 1949,
    "cle": 1950,
    "cla": 1951,
    "since</w>": 1952,
    "ining</w>": 1953,
    "mem": 1954,
    "sol": 1955,
    "ful</w>": 1956,
    "ini": 1957,
    "area</w>": 1958,
    "same</w>": 1959,
    "ley</w>": 1960,
    "succes": 1961,
    "found</w>": 1962,
    "off</w>": 1963,
    "people</w>": 1964,
    "life</w>": 1965,
    "ous": 1966,
    "wee": 1967,
    "exp": 1968,
    "fiel": 1969,
    "maj": 1970,
    "cra": 1971,
    "if</w>": 1972,
    "eg": 1973,
    "long</w>": 1974,
    "val": 1975,
    "released</w>": 1976,
    "out": 1977,
    "use</w>": 1978,
    "around</w>": 1979,
    "ig": 1980,
    "pt": 1981,
    "v</w>": 1982,
    "times</w>": 1983,
    "appear": 1984,
    "cep": 1985,
    "ball</w>": 1986,
    "elec": 1987,
    "high</w>": 1988,
    "dered</w>": 1989,
    "come</w>": 1990,
    "along</w>": 1991,
    "wal": 1992,
    "20</w>": 1993,
    "den": 1994,
    "la</w>": 1995,
    "30</w>": 1996,
    "plac": 1997,
    "dge</w>": 1998,
    "under": 1999,
    "down</w>": 2000,
    "fami": 2001,
    "dom": 2002,
    "river</w>": 2003,
    "up": 2004,
    "ches</w>": 2005,
    "form</w>": 2006,
    "stan": 2007,
    "ner</w>": 2008,
    "chri": 2009,
    "kil": 2010,
    "care": 2011,
    "tics</w>": 2012,
    "shor": 2013,
    "dition</w>": 2014,
    "five</w>": 2015,
    "continu": 2016,
    "over": 2017,
    "fun": 2018,
    "vil": 2019,
    "chur": 2020,
    "ful": 2021,
    "195": 2022,
    "ii</w>": 2023,
    "men</w>": 2024,
    "ess</w>": 2025,
    "cal</w>": 2026,
    "john</w>": 2027,
    "british</w>": 2028,
    "thern</w>": 2029,
    "ised</w>": 2030,
    "fur": 2031,
    "ffec": 2032,
    "what</w>": 2033,
    "versi": 2034,
    "sec": 2035,
    "hal": 2036,
    "ine": 2037,
    "million</w>": 2038,
    "augu": 2039,
    "ented</w>": 2040,
    "ird</w>": 2041,
    "play</w>": 2042,
    "another</w>": 2043,
    "ron": 2044,
    "spon": 2045,
    "austr": 2046,
    "ili": 2047,
    "you</w>": 2048,
    "cul": 2049,
    "construc": 2050,
    "light</w>": 2051,
    "12</w>": 2052,
    "tal</w>": 2053,
    "mc": 2054,
    "formed</w>": 2055,
    "fri": 2056,
    "resul": 2057,
    "large</w>": 2058,
    "best</w>": 2059,
    "road</w>": 2060,
    "ade</w>": 2061,
    "my</w>": 2062,
    "ler</w>": 2063,
    "chil": 2064,
    "sept": 2065,
    "vari": 2066,
    "company</w>": 2067,
    "september</w>": 2068,
    "ments</w>": 2069,
    "gro": 2070,
    "vir": 2071,
    "son": 2072,
    "jan": 2073,
    "km</w>": 2074,
    "contro": 2075,
    "too": 2076,
    "ently</w>": 2077,
    "cour": 2078,
    "fran": 2079,
    "australi": 2080,
    "plan": 2081,
    "17": 2082,
    "now</w>": 2083,
    "games</w>": 2084,
    "spor": 2085,
    "yed</w>": 2086,
    "pas": 2087,
    "ple</w>": 2088,
    "def": 2089,
    "tit": 2090,
    "ory</w>": 2091,
    "15</w>": 2092,
    "ker</w>": 2093,
    "bers</w>": 2094,
    "stem</w>": 2095,
    "due</w>": 2096,
    "cel": 2097,
    "chan": 2098,
    "august</w>": 2099,
    "%</w>": 2100,
    "50</w>": 2101,
    "final</w>": 2102,
    "ath": 2103,
    "$</w>": 2104,
    "sive</w>": 2105,
    "even</w>": 2106,
    "da</w>": 2107,
    "ce": 2108,
    "incre": 2109,
    "species</w>": 2110,
    "den</w>": 2111,
    "public</w>": 2112,
    "wat": 2113,
    "ban": 2114,
    "provi": 2115,
    "port": 2116,
    "field</w>": 2117,
    "appro": 2118,
    "we</w>": 2119,
    "ards</w>": 2120,
    "ef": 2121,
    "typ": 2122,
    "history</w>": 2123,
    "ze</w>": 2124,
    "inten": 2125,
    "org": 2126,
    "tary</w>": 2127,
    "deci": 2128,
    "trac": 2129,
    "will</w>": 2130,
    "ships</w>": 2131,
    "arly</w>": 2132,
    "leag": 2133,
    "sequ": 2134,
    "sci": 2135,
    "euro": 2136,
    "fied</w>": 2137,
    "ged</w>": 2138,
    "new": 2139,
    "dy": 2140,
    "rela": 2141,
    "lead": 2142,
    "adv": 2143,
    "lim": 2144,
    "june</w>": 2145,
    "received</w>": 2146,
    "ately</w>": 2147,
    "group</w>": 2148,
    "apri": 2149,
    "stre": 2150,
    "town</w>": 2151,
    "16": 2152,
    "wn</w>": 2153,
    "ta</w>": 2154,
    "sion": 2155,
    "place</w>": 2156,
    "cau": 2157,
    "hur": 2158,
    "fel": 2159,
    "sum": 2160,
    "home</w>": 2161,
    "east</w>": 2162,
    "took</w>": 2163,
    "dam": 2164,
    "moun": 2165,
    "ger</w>": 2166,
    "family</w>": 2167,
    "system</w>": 2168,
    "april</w>": 2169,
    "church</w>": 2170,
    "squ": 2171,
    "less</w>": 2172,
    "ther": 2173,
    "hor": 2174,
    "respon": 2175,
    "white</w>": 2176,
    "vide": 2177,
    "lic": 2178,
    "sis</w>": 2179,
    "193": 2180,
    "va": 2181,
    "accor": 2182,
    "revie": 2183,
    "ool</w>": 2184,
    "yor": 2185,
    "if": 2186,
    "single</w>": 2187,
    "fl": 2188,
    "much</w>": 2189,
    "name</w>": 2190,
    "stri": 2191,
    "six</w>": 2192,
    "ath</w>": 2193,
    "dr": 2194,
    "cover": 2195,
    "moved</w>": 2196,
    "inst": 2197,
    "described</w>": 2198,
    "government</w>": 2199,
    "house</w>": 2200,
    "gar": 2201,
    "ened</w>": 2202,
    "wro": 2203,
    "late</w>": 2204,
    "within</w>": 2205,
    "wrote</w>": 2206,
    "ice</w>": 2207,
    "cham": 2208,
    "named</w>": 2209,
    "major</w>": 2210,
    "water</w>": 2211,
    "foo": 2212,
    "based</w>": 2213,
    "spo": 2214,
    "differ": 2215,
    "school</w>": 2216,
    "vol": 2217,
    "18</w>": 2218,
    "octo": 2219,
    "11</w>": 2220,
    "october</w>": 2221,
    "tru": 2222,
    "]</w>": 2223,
    "bru": 2224,
    "ken</w>": 2225,
    "[</w>": 2226,
    "reli": 2227,
    "storm</w>": 2228,
    "who": 2229,
    "general</w>": 2230,
    "posed</w>": 2231,
    "kes</w>": 2232,
    "played</w>": 2233,
    "je": 2234,
    "sting</w>": 2235,
    "14</w>": 2236,
    "position</w>": 2237,
    "regi": 2238,
    "bra": 2239,
    "ground</w>": 2240,
    "just</w>": 2241,
    "league</w>": 2242,
    "show</w>": 2243,
    "hy": 2244,
    "leg": 2245,
    "beli": 2246,
    "july</w>": 2247,
    "uary</w>": 2248,
    "ology</w>": 2249,
    "pit": 2250,
    "original</w>": 2251,
    "built</w>": 2252,
    "servic": 2253,
    "won</w>": 2254,
    "book</w>": 2255,
    "visi": 2256,
    "york</w>": 2257,
    "those</w>": 2258,
    "desp": 2259,
    "dic": 2260,
    "mag": 2261,
    "according</w>": 2262,
    "left</w>": 2263,
    "main</w>": 2264,
    "near</w>": 2265,
    "some": 2266,
    "tory</w>": 2267,
    "16</w>": 2268,
    "od</w>": 2269,
    "per</w>": 2270,
    "nat": 2271,
    "ams</w>": 2272,
    "ina</w>": 2273,
    "25</w>": 2274,
    "rou": 2275,
    "hol": 2276,
    "bre": 2277,
    "cy</w>": 2278,
    "end": 2279,
    "ported</w>": 2280,
    "mer": 2281,
    "auth": 2282,
    "video</w>": 2283,
    "ements</w>": 2284,
    "thing</w>": 2285,
    "simil": 2286,
    "bil": 2287,
    "division</w>": 2288,
    "march</w>": 2289,
    "pic": 2290,
    "stra": 2291,
    "january</w>": 2292,
    "third</w>": 2293,
    "last</w>": 2294,
    "record</w>": 2295,
    "ti</w>": 2296,
    "included</w>": 2297,
    "na</w>": 2298,
    "prob": 2299,
    "previ": 2300,
    "attemp": 2301,
    "death</w>": 2302,
    "song": 2303,
    "trans": 2304,
    "pur": 2305,
    "pical</w>": 2306,
    "ching</w>": 2307,
    "bs</w>": 2308,
    "abli": 2309,
    "small</w>": 2310,
    "cou": 2311,
    "ens</w>": 2312,
    "establi": 2313,
    "ously</w>": 2314,
    "ject</w>": 2315,
    "pat": 2316,
    "manag": 2317,
    "army</w>": 2318,
    "requ": 2319,
    "nex": 2320,
    "december</w>": 2321,
    "november</w>": 2322,
    "track</w>": 2323,
    "character</w>": 2324,
    "ats</w>": 2325,
    "ism</w>": 2326,
    "ess": 2327,
    "arti": 2328,
    "ord": 2329,
    "pe</w>": 2330,
    "13</w>": 2331,
    "id": 2332,
    "ired</w>": 2333,
    "lea": 2334,
    "cy": 2335,
    "cho": 2336,
    "dom</w>": 2337,
    "vy</w>": 2338,
    "ness</w>": 2339,
    "scor": 2340,
    "top</w>": 2341,
    "tten</w>": 2342,
    "power</w>": 2343,
    "band</w>": 2344,
    "mili": 2345,
    "ly": 2346,
    "head</w>": 2347,
    "universi": 2348,
    "wom": 2349,
    "fla": 2350,
    "tan": 2351,
    "ines</w>": 2352,
    "ire</w>": 2353,
    "studi": 2354,
    "ian</w>": 2355,
    "make</w>": 2356,
    "next</w>": 2357,
    "ended</w>": 2358,
    "roy": 2359,
    "tropical</w>": 2360,
    "effec": 2361,
    "version</w>": 2362,
    "val</w>": 2363,
    "awar": 2364,
    "us": 2365,
    "served</w>": 2366,
    "ph</w>": 2367,
    "thers</w>": 2368,
    "ures</w>": 2369,
    "sty": 2370,
    "point</w>": 2371,
    "initi": 2372,
    "han": 2373,
    "sug": 2374,
    "club</w>": 2375,
    "issu": 2376,
    "hun": 2377,
    "doc": 2378,
    "player</w>": 2379,
    "2010</w>": 2380,
    "still</w>": 2381,
    "star</w>": 2382,
    "read": 2383,
    "dro": 2384,
    "ital</w>": 2385,
    "often</w>": 2386,
    "career</w>": 2387,
    "role</w>": 2388,
    "ign</w>": 2389,
    "dest": 2390,
    "island</w>": 2391,
    "ected</w>": 2392,
    "ribu": 2393,
    "story</w>": 2394,
    "youn": 2395,
    "site</w>": 2396,
    "uns</w>": 2397,
    "gest</w>": 2398,
    "wol": 2399,
    "ka": 2400,
    "fle": 2401,
    "ried</w>": 2402,
    "ences</w>": 2403,
    "ening</w>": 2404,
    "vel</w>": 2405,
    "possi": 2406,
    "england</w>": 2407,
    "arch": 2408,
    "ko": 2409,
    "ef</w>": 2410,
    "hurric": 2411,
    "among</w>": 2412,
    "german</w>": 2413,
    "love</w>": 2414,
    "champi": 2415,
    "tele": 2416,
    "university</w>": 2417,
    "great</w>": 2418,
    "songs</w>": 2419,
    "ot</w>": 2420,
    "lon": 2421,
    "bal": 2422,
    "bir": 2423,
    "2008</w>": 2424,
    "mul": 2425,
    "pra": 2426,
    "written</w>": 2427,
    "building</w>": 2428,
    "stitu": 2429,
    "17</w>": 2430,
    "100</w>": 2431,
    "hum": 2432,
    "ston</w>": 2433,
    "fini": 2434,
    "ross</w>": 2435,
    "gran": 2436,
    "forman": 2437,
    "19</w>": 2438,
    "tors</w>": 2439,
    "2009</w>": 2440,
    "ality</w>": 2441,
    "tively</w>": 2442,
    "head": 2443,
    "ths</w>": 2444,
    "gl": 2445,
    "ety</w>": 2446,
    "ham": 2447,
    "chang": 2448,
    "allow": 2449,
    "further</w>": 2450,
    "days</w>": 2451,
    "win</w>": 2452,
    "without</w>": 2453,
    "black</w>": 2454,
    "prin": 2455,
    "production</w>": 2456,
    "wing</w>": 2457,
    "performan": 2458,
    "compe": 2459,
    "ttle</w>": 2460,
    "disp": 2461,
    "dou": 2462,
    "considered</w>": 2463,
    "hon": 2464,
    "again</w>": 2465,
    "tici": 2466,
    "dence</w>": 2467,
    "partic": 2468,
    "presi": 2469,
    "ese</w>": 2470,
    "wan": 2471,
    "go</w>": 2472,
    "feder": 2473,
    "dri": 2474,
    "ages</w>": 2475,
    "mini": 2476,
    "county</w>": 2477,
    "exam": 2478,
    "eight</w>": 2479,
    "prote": 2480,
    "associ": 2481,
    "21</w>": 2482,
    "moder": 2483,
    "local</w>": 2484,
    "et": 2485,
    "held</w>": 2486,
    "order</w>": 2487,
    "centr": 2488,
    "continued</w>": 2489,
    "repres": 2490,
    "former</w>": 2491,
    "iled</w>": 2492,
    "success": 2493,
    "sco": 2494,
    "hin": 2495,
    "force</w>": 2496,
    "half</w>": 2497,
    "release</w>": 2498,
    "mer</w>": 2499,
    "recorded</w>": 2500,
    "sal": 2501,
    "placed</w>": 2502,
    "period</w>": 2503,
    "came</w>": 2504,
    "ck": 2505,
    "nu": 2506,
    "park</w>": 2507,
    "having</w>": 2508,
    "pol": 2509,
    "ring</w>": 2510,
    "speci": 2511,
    "lish</w>": 2512,
    "western</w>": 2513,
    "popu": 2514,
    "brea": 2515,
    "scen": 2516,
    "&</w>": 2517,
    "ligh": 2518,
    "ound": 2519,
    "os</w>": 2520,
    "sem": 2521,
    "mid": 2522,
    "ol</w>": 2523,
    "military</w>": 2524,
    "tex": 2525,
    "action</w>": 2526,
    "fes": 2527,
    "ony</w>": 2528,
    "comman": 2529,
    "import": 2530,
    "take</w>": 2531,
    "art</w>": 2532,
    "cru": 2533,
    "quar": 2534,
    "met": 2535,
    "pal": 2536,
    "published</w>": 2537,
    "hurricane</w>": 2538,
    "tation</w>": 2539,
    "don": 2540,
    "different</w>": 2541,
    "tin</w>": 2542,
    "oli": 2543,
    "dow": 2544,
    "support</w>": 2545,
    "my": 2546,
    "ep</w>": 2547,
    "ster": 2548,
    "ator</w>": 2549,
    "construction</w>": 2550,
    "bert</w>": 2551,
    "show": 2552,
    "abili": 2553,
    "equ": 2554,
    "occur": 2555,
    "become</w>": 2556,
    "ant": 2557,
    "development</w>": 2558,
    "2007</w>": 2559,
    "ek</w>": 2560,
    "40</w>": 2561,
    "radi": 2562,
    "depen": 2563,
    "ide": 2564,
    "similar</w>": 2565,
    "signed</w>": 2566,
    "ney</w>": 2567,
    "few</w>": 2568,
    "iri": 2569,
    "bas": 2570,
    "body</w>": 2571,
    "cas": 2572,
    "fren": 2573,
    "influ": 2574,
    "els</w>": 2575,
    "23</w>": 2576,
    "tball</w>": 2577,
    "eved</w>": 2578,
    "collec": 2579,
    "father</w>": 2580,
    "willi": 2581,
    "ult</w>": 2582,
    "ford</w>": 2583,
    "run</w>": 2584,
    "men": 2585,
    "co</w>": 2586,
    "air</w>": 2587,
    "ops</w>": 2588,
    "battali": 2589,
    "ja": 2590,
    "country</w>": 2591,
    "little</w>": 2592,
    "get</w>": 2593,
    "22</w>": 2594,
    "using</w>": 2595,
    "hear": 2596,
    "face</w>": 2597,
    "pos": 2598,
    "roo": 2599,
    "writing</w>": 2600,
    "cat": 2601,
    "28</w>": 2602,
    "board</w>": 2603,
    "mation</w>": 2604,
    "route</w>": 2605,
    "person": 2606,
    "short</w>": 2607,
    "common</w>": 2608,
    "refer": 2609,
    "pho": 2610,
    "brig": 2611,
    "ead</w>": 2612,
    "english</w>": 2613,
    "fron": 2614,
    "sions</w>": 2615,
    "febru": 2616,
    "february</w>": 2617,
    "cial</w>": 2618,
    "resi": 2619,
    "exten": 2620,
    "scrip": 2621,
    "10": 2622,
    "ges</w>": 2623,
    "ach</w>": 2624,
    "ways</w>": 2625,
    "despite</w>": 2626,
    "through": 2627,
    "live</w>": 2628,
    "international</w>": 2629,
    "members</w>": 2630,
    "claim": 2631,
    "produced</w>": 2632,
    "service</w>": 2633,
    "throughout</w>": 2634,
    "ually</w>": 2635,
    "comb": 2636,
    "poe": 2637,
    "invol": 2638,
    "24</w>": 2639,
    "prot": 2640,
    "26</w>": 2641,
    "plo": 2642,
    "gave</w>": 2643,
    "ss": 2644,
    "whe": 2645,
    "main": 2646,
    "ham</w>": 2647,
    "sor": 2648,
    "childre": 2649,
    "lost</w>": 2650,
    "children</w>": 2651,
    "lat": 2652,
    "television</w>": 2653,
    "away</w>": 2654,
    "given</w>": 2655,
    "french</w>": 2656,
    "san": 2657,
    "style</w>": 2658,
    "2011</w>": 2659,
    "fort</w>": 2660,
    "ours</w>": 2661,
    "ics</w>": 2662,
    "bit": 2663,
    "making</w>": 2664,
    "signi": 2665,
    "stated</w>": 2666,
    "2012</w>": 2667,
    "once</w>": 2668,
    "arri": 2669,
    "mari": 2670,
    "how</w>": 2671,
    "2006</w>": 2672,
    "ental</w>": 2673,
    "aged</w>": 2674,
    "ka</w>": 2675,
    "covered</w>": 2676,
    "fire</w>": 2677,
    "stat": 2678,
    "tech": 2679,
    "decl": 2680,
    "went</w>": 2681,
    "forces</w>": 2682,
    "ki": 2683,
    "include</w>": 2684,
    "bac": 2685,
    "190": 2686,
    "tained</w>": 2687,
    "battle</w>": 2688,
    "him": 2689,
    "agre": 2690,
    "nings</w>": 2691,
    "central</w>": 2692,
    "ems</w>": 2693,
    "edi": 2694,
    "tal": 2695,
    "ick</w>": 2696,
    "title</w>": 2697,
    "ones</w>": 2698,
    "right</w>": 2699,
    "anim": 2700,
    "ped</w>": 2701,
    "ery</w>": 2702,
    "change</w>": 2703,
    "never</w>": 2704,
    "ect</w>": 2705,
    "ering</w>": 2706,
    "returned</w>": 2707,
    "ured</w>": 2708,
    "shing</w>": 2709,
    "mm</w>": 2710,
    "ise</w>": 2711,
    "arch</w>": 2712,
    "exi": 2713,
    "cess</w>": 2714,
    "fem": 2715,
    "xim": 2716,
    "ben": 2717,
    "geor": 2718,
    "reco": 2719,
    "wea": 2720,
    "range</w>": 2721,
    "ditional</w>": 2722,
    "lies</w>": 2723,
    "dings</w>": 2724,
    "evi": 2725,
    "stone</w>": 2726,
    "ably</w>": 2727,
    "southern</w>": 2728,
    "northern</w>": 2729,
    "2013</w>": 2730,
    "intro": 2731,
    "27</w>": 2732,
    "campa": 2733,
    "que": 2734,
    "king": 2735,
    "see</w>": 2736,
    "serv": 2737,
    "seen</w>": 2738,
    "works</w>": 2739,
    "across</w>": 2740,
    "pan": 2741,
    "ur</w>": 2742,
    "jap": 2743,
    "med</w>": 2744,
    "sent</w>": 2745,
    "blu": 2746,
    "ural</w>": 2747,
    "defe": 2748,
    "rac": 2749,
    "ey</w>": 2750,
    "gs</w>": 2751,
    "cast</w>": 2752,
    "event": 2753,
    "signific": 2754,
    "died</w>": 2755,
    "bb": 2756,
    "non</w>": 2757,
    "total</w>": 2758,
    "highway</w>": 2759,
    "ana</w>": 2760,
    "developed</w>": 2761,
    "duced</w>": 2762,
    "sses</w>": 2763,
    "feet</w>": 2764,
    "13": 2765,
    "view</w>": 2766,
    "located</w>": 2767,
    "control</w>": 2768,
    "suff": 2769,
    "craft</w>": 2770,
    "tting</w>": 2771,
    "design</w>": 2772,
    "disc": 2773,
    "ogra": 2774,
    "instead</w>": 2775,
    "president</w>": 2776,
    "lands</w>": 2777,
    "bridge</w>": 2778,
    "emper": 2779,
    "é</w>": 2780,
    "seven</w>": 2781,
    "aly": 2782,
    "good</w>": 2783,
    "15": 2784,
    "week</w>": 2785,
    "attack</w>": 2786,
    "upon</w>": 2787,
    "indu": 2788,
    "ington</w>": 2789,
    "night</w>": 2790,
    "coming</w>": 2791,
    "sugge": 2792,
    "court</w>": 2793,
    "oni": 2794,
    "ny</w>": 2795,
    "attac": 2796,
    "nec": 2797,
    "classi": 2798,
    "champion": 2799,
    "reached</w>": 2800,
    "sour": 2801,
    "young</w>": 2802,
    "open</w>": 2803,
    "usu": 2804,
    "commun": 2805,
    "terri": 2806,
    "modern</w>": 2807,
    "bili": 2808,
    "dol": 2809,
    "ne</w>": 2810,
    "que</w>": 2811,
    "guit": 2812,
    "ire": 2813,
    "stry</w>": 2814,
    "concer": 2815,
    "ounded</w>": 2816,
    "organi": 2817,
    "announ": 2818,
    "sea</w>": 2819,
    "dar": 2820,
    "alls</w>": 2821,
    "lead</w>": 2822,
    "population</w>": 2823,
    "appe": 2824,
    "29</w>": 2825,
    "lan</w>": 2826,
    "part": 2827,
    "fif": 2828,
    "result</w>": 2829,
    "ority</w>": 2830,
    "royal</w>": 2831,
    "eastern</w>": 2832,
    "noted</w>": 2833,
    "thought</w>": 2834,
    "established</w>": 2835,
    "fo": 2836,
    "born</w>": 2837,
    "station</w>": 2838,
    "pped</w>": 2839,
    "asi": 2840,
    "wit": 2841,
    "dents</w>": 2842,
    "himself</w>": 2843,
    "reported</w>": 2844,
    "!</w>": 2845,
    "ri</w>": 2846,
    "full</w>": 2847,
    "back": 2848,
    "hen": 2849,
    "center</w>": 2850,
    "performance</w>": 2851,
    "tour</w>": 2852,
    "acti": 2853,
    "match</w>": 2854,
    "spe": 2855,
    "ual</w>": 2856,
    "ific</w>": 2857,
    "battalion</w>": 2858,
    "ounds</w>": 2859,
    "earli": 2860,
    "felt</w>": 2861,
    "cir": 2862,
    "abo": 2863,
    "davi": 2864,
    "sla": 2865,
    "miles</w>": 2866,
    "ze": 2867,
    "america</w>": 2868,
    "gal": 2869,
    "sure</w>": 2870,
    "connec": 2871,
    "christi": 2872,
    "ever": 2873,
    "mal": 2874,
    "jen": 2875,
    "ute</w>": 2876,
    "atlan": 2877,
    "areas</w>": 2878,
    "villa": 2879,
    "gam": 2880,
    "key</w>": 2881,
    "should</w>": 2882,
    "london</w>": 2883,
    "australia</w>": 2884,
    "ada</w>": 2885,
    "important</w>": 2886,
    "promo": 2887,
    "row</w>": 2888,
    "ders</w>": 2889,
    "toge": 2890,
    "simp": 2891,
    "four": 2892,
    "together</w>": 2893,
    "too</w>": 2894,
    "va</w>": 2895,
    "date</w>": 2896,
    "igh": 2897,
    "god</w>": 2898,
    "brigade</w>": 2899,
    "pac": 2900,
    "human</w>": 2901,
    "rock</w>": 2902,
    "60</w>": 2903,
    "wel": 2904,
    "formation</w>": 2905,
    "bran": 2906,
    "curren": 2907,
    "ants</w>": 2908,
    "players</w>": 2909,
    "bat": 2910,
    "north": 2911,
    "189": 2912,
    "ba</w>": 2913,
    "class</w>": 2914,
    "civi": 2915,
    "ends</w>": 2916,
    "pea": 2917,
    "various</w>": 2918,
    "appeared</w>": 2919,
    "caused</w>": 2920,
    "tori": 2921,
    "political</w>": 2922,
    "experi": 2923,
    "eventually</w>": 2924,
    "super": 2925,
    "ll": 2926,
    "tains</w>": 2927,
    "sett": 2928,
    "ici": 2929,
    "kin": 2930,
    "tian</w>": 2931,
    "project</w>": 2932,
    "afric": 2933,
    "street</w>": 2934,
    "previous</w>": 2935,
    "others</w>": 2936,
    "ability</w>": 2937,
    "mary</w>": 2938,
    "competi": 2939,
    "era</w>": 2940,
    "fav": 2941,
    "int</w>": 2942,
    "tt</w>": 2943,
    "defen": 2944,
    "ram": 2945,
    "phy</w>": 2946,
    "football</w>": 2947,
    "events</w>": 2948,
    "ron</w>": 2949,
    "return</w>": 2950,
    "ref": 2951,
    "sil": 2952,
    "bon": 2953,
    "regim": 2954,
    "strong</w>": 2955,
    "pression</w>": 2956,
    "zation</w>": 2957,
    "run": 2958,
    "ularly</w>": 2959,
    "itted</w>": 2960,
    "termin": 2961,
    "ket</w>": 2962,
    "ological</w>": 2963,
    "compar": 2964,
    "level</w>": 2965,
    "award</w>": 2966,
    "broad": 2967,
    "dem": 2968,
    "wood</w>": 2969,
    "argu": 2970,
    "tial</w>": 2971,
    "med": 2972,
    "characters</w>": 2973,
    "taken</w>": 2974,
    "ago</w>": 2975,
    "religi": 2976,
    "nom": 2977,
    "rest</w>": 2978,
    "performed</w>": 2979,
    "aver": 2980,
    "mix": 2981,
    "audi": 2982,
    "tar": 2983,
    "read</w>": 2984,
    "sun": 2985,
    "cept</w>": 2986,
    "commis": 2987,
    "ination</w>": 2988,
    "phy": 2989,
    "ically</w>": 2990,
    "critics</w>": 2991,
    "mean": 2992,
    "gun</w>": 2993,
    "party</w>": 2994,
    "tural</w>": 2995,
    "months</w>": 2996,
    "does</w>": 2997,
    "ama</w>": 2998,
    "remained</w>": 2999,
    "kingdom</w>": 3000,
    "started</w>": 3001,
    "australian</w>": 3002,
    "2005</w>": 3003,
    "lower</w>": 3004,
    "campaign</w>": 3005,
    "cop": 3006,
    "mac": 3007,
    "added</w>": 3008,
    "women</w>": 3009,
    "points</w>": 3010,
    "originally</w>": 3011,
    "gaz": 3012,
    "survi": 3013,
    "created</w>": 3014,
    "nar": 3015,
    "james</w>": 3016,
    "estim": 3017,
    "present</w>": 3018,
    "killed</w>": 3019,
    "nia</w>": 3020,
    "press</w>": 3021,
    "completed</w>": 3022,
    "80</w>": 3023,
    "lum": 3024,
    "missou": 3025,
    "list</w>": 3026,
    "popular</w>": 3027,
    "guitar</w>": 3028,
    "sa</w>": 3029,
    "dian</w>": 3030,
    "kly</w>": 3031,
    "ming</w>": 3032,
    "syn": 3033,
    "jour": 3034,
    "law</w>": 3035,
    "commer": 3036,
    "every</w>": 3037,
    "impro": 3038,
    "fully</w>": 3039,
    "bly</w>": 3040,
    "ssed</w>": 3041,
    "dylan</w>": 3042,
    "mother</w>": 3043,
    "region</w>": 3044,
    "chart</w>": 3045,
    "search</w>": 3046,
    "ape</w>": 3047,
    "diffic": 3048,
    "tioned</w>": 3049,
    "j</w>": 3050,
    "thre": 3051,
    "im</w>": 3052,
    "yon": 3053,
    "indepen": 3054,
    "possible</w>": 3055,
    "hind</w>": 3056,
    "success</w>": 3057,
    "vement</w>": 3058,
    "successful</w>": 3059,
    "them": 3060,
    "case</w>": 3061,
    "tou": 3062,
    "recog": 3063,
    "clear</w>": 3064,
    "move</w>": 3065,
    "respec": 3066,
    "table</w>": 3067,
    "ative</w>": 3068,
    "au</w>": 3069,
    "lo</w>": 3070,
    "ils</w>": 3071,
    "gg": 3072,
    "indivi": 3073,
    "individu": 3074,
    "lated</w>": 3075,
    "tures</w>": 3076,
    "announced</w>": 3077,
    "wide</w>": 3078,
    "william</w>": 3079,
    "secu": 3080,
    "ple": 3081,
    "voc": 3082,
    "nal</w>": 3083,
    "ya</w>": 3084,
    "sar": 3085,
    "ireland</w>": 3086,
    "dle</w>": 3087,
    "least</w>": 3088,
    "ection</w>": 3089,
    "relation": 3090,
    "mach": 3091,
    "guns</w>": 3092,
    "2004</w>": 3093,
    "mas": 3094,
    "sters</w>": 3095,
    "’</w>": 3096,
    "put</w>": 3097,
    "langu": 3098,
    "gin</w>": 3099,
    "opened</w>": 3100,
    "appoin": 3101,
    "followed</w>": 3102,
    "saw</w>": 3103,
    "example</w>": 3104,
    "features</w>": 3105,
    "decided</w>": 3106,
    "behind</w>": 3107,
    "almost</w>": 3108,
    "mark</w>": 3109,
    "woo": 3110,
    "stars</w>": 3111,
    "empor": 3112,
    "plat": 3113,
    "kers</w>": 3114,
    "ey": 3115,
    "2003</w>": 3116,
    "native</w>": 3117,
    "lake</w>": 3118,
    "europe</w>": 3119,
    "working</w>": 3120,
    "union</w>": 3121,
    "tour": 3122,
    "meas": 3123,
    "section</w>": 3124,
    "ution</w>": 3125,
    "member</w>": 3126,
    "lock</w>": 3127,
    "cent</w>": 3128,
    "bes</w>": 3129,
    "proble": 3130,
    "lines</w>": 3131,
    "structure</w>": 3132,
    "12": 3133,
    "fourth</w>": 3134,
    "addition</w>": 3135,
    "ty": 3136,
    "aircraft</w>": 3137,
    "either</w>": 3138,
    "sha": 3139,
    "scre": 3140,
    "ean</w>": 3141,
    "playing</w>": 3142,
    "director</w>": 3143,
    "novel</w>": 3144,
    "kar": 3145,
    "lam": 3146,
    "shar": 3147,
    "subsequ": 3148,
    "rather</w>": 3149,
    "leng": 3150,
    "enced</w>": 3151,
    "tom": 3152,
    "identi": 3153,
    "long": 3154,
    "wife</w>": 3155,
    "coast</w>": 3156,
    "mi</w>": 3157,
    "she": 3158,
    "bility</w>": 3159,
    "leading</w>": 3160,
    "magaz": 3161,
    "tis": 3162,
    "awards</w>": 3163,
    "sym": 3164,
    "type</w>": 3165,
    "dly</w>": 3166,
    "micha": 3167,
    "damage</w>": 3168,
    "elements</w>": 3169,
    "separ": 3170,
    "generally</w>": 3171,
    "roman": 3172,
    "hero</w>": 3173,
    "kan": 3174,
    "mur": 3175,
    "front</w>": 3176,
    "tual</w>": 3177,
    "beyon": 3178,
    "met</w>": 3179,
    "sam": 3180,
    "fall</w>": 3181,
    "domin": 3182,
    "close</w>": 3183,
    "mater": 3184,
    "soon</w>": 3185,
    "free": 3186,
    "real</w>": 3187,
    "ances</w>": 3188,
    "ra</w>": 3189,
    "athle": 3190,
    "ament</w>": 3191,
    "transpor": 3192,
    "records</w>": 3193,
    "eded</w>": 3194,
    "summer</w>": 3195,
    "here</w>": 3196,
    "vers": 3197,
    "dru": 3198,
    "aw": 3199,
    "ature</w>": 3200,
    "ators</w>": 3201,
    "towards</w>": 3202,
    "writer</w>": 3203,
    "ques": 3204,
    "cup</w>": 3205,
    "brown</w>": 3206,
    "busin": 3207,
    "fleet</w>": 3208,
    "bow": 3209,
    "jack": 3210,
    "down": 3211,
    "championship</w>": 3212,
    "stage</w>": 3213,
    "stand": 3214,
    "thom": 3215,
    "organ": 3216,
    "2014</w>": 3217,
    "alth</w>": 3218,
    "special</w>": 3219,
    "forms</w>": 3220,
    "ending</w>": 3221,
    "31</w>": 3222,
    "1st</w>": 3223,
    "gir": 3224,
    "nine</w>": 3225,
    "mid</w>": 3226,
    "post</w>": 3227,
    "foc": 3228,
    "sli": 3229,
    "room</w>": 3230,
    "gy</w>": 3231,
    "physi": 3232,
    "2015</w>": 3233,
    "brought</w>": 3234,
    "race</w>": 3235,
    "forced</w>": 3236,
    "believed</w>": 3237,
    "achi": 3238,
    "che": 3239,
    "sional</w>": 3240,
    "designed</w>": 3241,
    "recording</w>": 3242,
    "tv</w>": 3243,
    "pper</w>": 3244,
    "sold</w>": 3245,
    "var": 3246,
    "ki</w>": 3247,
    "directed</w>": 3248,
    "dies</w>": 3249,
    "mex": 3250,
    "heavy</w>": 3251,
    "ghts</w>": 3252,
    "david</w>": 3253,
    "rul": 3254,
    "refu": 3255,
    "ols</w>": 3256,
    "above</w>": 3257,
    "lik": 3258,
    "going</w>": 3259,
    "ets</w>": 3260,
    "outside</w>": 3261,
    "engine": 3262,
    "provided</w>": 3263,
    "claimed</w>": 3264,
    "ass": 3265,
    "pul": 3266,
    "nd</w>": 3267,
    "ential</w>": 3268,
    "weeks</w>": 3269,
    "europe": 3270,
    "view": 3271,
    "jer": 3272,
    "travel": 3273,
    "appearance</w>": 3274,
    "scored</w>": 3275,
    "li</w>": 3276,
    "°</w>": 3277,
    "wanted</w>": 3278,
    "188": 3279,
    "rail": 3280,
    "start</w>": 3281,
    "ga</w>": 3282,
    "secre": 3283,
    "help</w>": 3284,
    "destro": 3285,
    "2nd</w>": 3286,
    "ai</w>": 3287,
    "grand</w>": 3288,
    "conclu": 3289,
    "lor": 3290,
    "ready</w>": 3291,
    "hop": 3292,
    "rich": 3293,
    "net": 3294,
    "insp": 3295,
    "aper</w>": 3296,
    "robert</w>": 3297,
    "chap": 3298,
    "tured</w>": 3299,
    "200</w>": 3300,
    "lied</w>": 3301,
    "worked</w>": 3302,
    "thus</w>": 3303,
    "let</w>": 3304,
    "significant</w>": 3305,
    "adm": 3306,
    "usually</w>": 3307,
    "uses</w>": 3308,
    "increas": 3309,
    "yard</w>": 3310,
    "colle": 3311,
    "gold</w>": 3312,
    "office</w>": 3313,
    "jects</w>": 3314,
    "christ": 3315,
    "ars</w>": 3316,
    "ries</w>": 3317,
    "allowed</w>": 3318,
    "supp": 3319,
    "indic": 3320,
    "educ": 3321,
    "din": 3322,
    "anti": 3323,
    "186": 3324,
    "mel": 3325,
    "ha</w>": 3326,
    "roman</w>": 3327,
    "emplo": 3328,
    "finished</w>": 3329,
    "prepar": 3330,
    "joined</w>": 3331,
    "jennings</w>": 3332,
    "operations</w>": 3333,
    "parts</w>": 3334,
    "particularly</w>": 3335,
    "ib": 3336,
    "great": 3337,
    "techn": 3338,
    "find</w>": 3339,
    "via</w>": 3340,
    "hall</w>": 3341,
    "far": 3342,
    "thin": 3343,
    "mexic": 3344,
    "nation</w>": 3345,
    "vai": 3346,
    "ight</w>": 3347,
    "positive</w>": 3348,
    "initially</w>": 3349,
    "demo": 3350,
    "squad": 3351,
    "far</w>": 3352,
    "tain": 3353,
    "econ": 3354,
    "econom": 3355,
    "operation</w>": 3356,
    "deta": 3357,
    "official</w>": 3358,
    "pain": 3359,
    "tives</w>": 3360,
    "70</w>": 3361,
    "esc": 3362,
    "zz": 3363,
    "earlier</w>": 3364,
    "john": 3365,
    "aca": 3366,
    "michael</w>": 3367,
    "ox": 3368,
    "sen</w>": 3369,
    "bul": 3370,
    "liter": 3371,
    "free</w>": 3372,
    "archa": 3373,
    "recep": 3374,
    "cali": 3375,
    "augh": 3376,
    "ton": 3377,
    "cover</w>": 3378,
    "floo": 3379,
    "european</w>": 3380,
    "500</w>": 3381,
    "winds</w>": 3382,
    "george</w>": 3383,
    "laun": 3384,
    "45</w>": 3385,
    "happ": 3386,
    "lear": 3387,
    "offici": 3388,
    "tivity</w>": 3389,
    "commit": 3390,
    "ologi": 3391,
    "san</w>": 3392,
    "ff</w>": 3393,
    "opening</w>": 3394,
    "alter": 3395,
    "magazine</w>": 3396,
    "2001</w>": 3397,
    "saf": 3398,
    "space</w>": 3399,
    "reve": 3400,
    "france</w>": 3401,
    "eli": 3402,
    "media</w>": 3403,
    "victory</w>": 3404,
    "evidence</w>": 3405,
    "top": 3406,
    "blue</w>": 3407,
    "village</w>": 3408,
    "bom": 3409,
    "tin": 3410,
    "vers</w>": 3411,
    "treat": 3412,
    "ima": 3413,
    "chel": 3414,
    "featured</w>": 3415,
    "ma</w>": 3416,
    "stant</w>": 3417,
    "process</w>": 3418,
    "enter": 3419,
    "185": 3420,
    "accoun": 3421,
    "lab": 3422,
    "chic": 3423,
    "vin": 3424,
    "mph</w>": 3425,
    "six": 3426,
    "ners</w>": 3427,
    "attempt</w>": 3428,
    "previously</w>": 3429,
    "ken": 3430,
    "study</w>": 3431,
    "ior</w>": 3432,
    "cing</w>": 3433,
    "verse</w>": 3434,
    "recogni": 3435,
    "oly": 3436,
    "begin": 3437,
    "month</w>": 3438,
    "hill</w>": 3439,
    "base</w>": 3440,
    "tionally</w>": 3441,
    "colon": 3442,
    "flori": 3443,
    "navy</w>": 3444,
    "cil</w>": 3445,
    "birds</w>": 3446,
    "standing</w>": 3447,
    "buildings</w>": 3448,
    "equi": 3449,
    "association</w>": 3450,
    "event</w>": 3451,
    "average</w>": 3452,
    "yl": 3453,
    "gram</w>": 3454,
    "largest</w>": 3455,
    "lou": 3456,
    "tract</w>": 3457,
    "pau": 3458,
    "teen</w>": 3459,
    "infan": 3460,
    "acy</w>": 3461,
    "rest": 3462,
    "passed</w>": 3463,
    "parli": 3464,
    "female</w>": 3465,
    "serve</w>": 3466,
    "lable</w>": 3467,
    "colum": 3468,
    "spok": 3469,
    "natural</w>": 3470,
    "florida</w>": 3471,
    "func": 3472,
    "whom</w>": 3473,
    "saur": 3474,
    "portra": 3475,
    "conduc": 3476,
    "replaced</w>": 3477,
    "sound</w>": 3478,
    "saying</w>": 3479,
    "avai": 3480,
    "review</w>": 3481,
    "middle</w>": 3482,
    "taking</w>": 3483,
    "tter</w>": 3484,
    "manager</w>": 3485,
    "relationship</w>": 3486,
    "figh": 3487,
    "cle</w>": 3488,
    "cycl": 3489,
    "distric": 3490,
    "word</w>": 3491,
    "radio</w>": 3492,
    "archae": 3493,
    "ingly</w>": 3494,
    "involved</w>": 3495,
    "increased</w>": 3496,
    "give</w>": 3497,
    "temp": 3498,
    "expan": 3499,
    "atory</w>": 3500,
    "pressed</w>": 3501,
    "aller</w>": 3502,
    "sometimes</w>": 3503,
    "institu": 3504,
    "round</w>": 3505,
    "sex": 3506,
    "archit": 3507,
    "theat": 3508,
    "cher</w>": 3509,
    "spea": 3510,
    "shot</w>": 3511,
    "profes": 3512,
    "rang": 3513,
    "19th</w>": 3514,
    "society</w>": 3515,
    "college</w>": 3516,
    "atlantic</w>": 3517,
    "accep": 3518,
    "mans</w>": 3519,
    "specially</w>": 3520,
    "know": 3521,
    "sn": 3522,
    "earth</w>": 3523,
    "infantry</w>": 3524,
    "thomas</w>": 3525,
    "vels</w>": 3526,
    "regar": 3527,
    "cross</w>": 3528,
    "council</w>": 3529,
    "bacter": 3530,
    "cana": 3531,
    "fication</w>": 3532,
    "swe": 3533,
    "duce</w>": 3534,
    "expla": 3535,
    "amoun": 3536,
    "ula</w>": 3537,
    "critical</w>": 3538,
    "plan</w>": 3539,
    "law": 3540,
    "imp": 3541,
    "premi": 3542,
    "limited</w>": 3543,
    "beginning</w>": 3544,
    "ville</w>": 3545,
    "exec": 3546,
    "goal</w>": 3547,
    "daugh": 3548,
    "repor": 3549,
    "size</w>": 3550,
    "moving</w>": 3551,
    "plu": 3552,
    "gram": 3553,
    "90</w>": 3554,
    "ples</w>": 3555,
    "loss</w>": 3556,
    "ut": 3557,
    "canada</w>": 3558,
    "eve</w>": 3559,
    "manu": 3560,
    "priv": 3561,
    "hosp": 3562,
    "2002</w>": 3563,
    "estimated</w>": 3564,
    "ama": 3565,
    "ditions</w>": 3566,
    "stren": 3567,
    "complete</w>": 3568,
    "length</w>": 3569,
    "character": 3570,
    "muse": 3571,
    "sho": 3572,
    "big</w>": 3573,
    "ticip": 3574,
    "hours</w>": 3575,
    "alling</w>": 3576,
    "related</w>": 3577,
    "situ": 3578,
    "praised</w>": 3579,
    "indian</w>": 3580,
    "occu": 3581,
    "anese</w>": 3582,
    "units</w>": 3583,
    "troops</w>": 3584,
    "75</w>": 3585,
    "fr": 3586,
    "yo": 3587,
    "wolves</w>": 3588,
    "congre": 3589,
    "poem</w>": 3590,
    "comes</w>": 3591,
    "sey</w>": 3592,
    "creek</w>": 3593,
    "old": 3594,
    "lic</w>": 3595,
    "mission</w>": 3596,
    "ored</w>": 3597,
    "idea</w>": 3598,
    "ssion</w>": 3599,
    "suppor": 3600,
    "call</w>": 3601,
    "affec": 3602,
    "see": 3603,
    "ym": 3604,
    "reception</w>": 3605,
    "deli": 3606,
    "asons</w>": 3607,
    "coa": 3608,
    "changes</w>": 3609,
    "highest</w>": 3610,
    "suggested</w>": 3611,
    "scot": 3612,
    "yer</w>": 3613,
    "yards</w>": 3614,
    "introduced</w>": 3615,
    "vest": 3616,
    "additional</w>": 3617,
    "sible</w>": 3618,
    "must</w>": 3619,
    "enough</w>": 3620,
    "lac": 3621,
    "wales</w>": 3622,
    "aff": 3623,
    "shoo": 3624,
    "liber": 3625,
    "cess": 3626,
    "ributed</w>": 3627,
    "term</w>": 3628,
    "streng": 3629,
    "community</w>": 3630,
    "soldi": 3631,
    "listed</w>": 3632,
    "ata</w>": 3633,
    "pon": 3634,
    "christian</w>": 3635,
    "gri": 3636,
    "command</w>": 3637,
    "scene</w>": 3638,
    "4th</w>": 3639,
    "cr": 3640,
    "actions</w>": 3641,
    "dam</w>": 3642,
    "eding</w>": 3643,
    "scho": 3644,
    "ues</w>": 3645,
    "reviews</w>": 3646,
    "stly</w>": 3647,
    "available</w>": 3648,
    "occa": 3649,
    "conf": 3650,
    "sac": 3651,
    "frequ": 3652,
    "lau": 3653,
    "woman</w>": 3654,
    "issue</w>": 3655,
    "chem": 3656,
    "ference</w>": 3657,
    "business</w>": 3658,
    "itself</w>": 3659,
    "ream</w>": 3660,
    "wolf</w>": 3661,
    "ece</w>": 3662,
    "prev": 3663,
    "after": 3664,
    "nature</w>": 3665,
    "credi": 3666,
    "revol": 3667,
    "alist</w>": 3668,
    "required</w>": 3669,
    "training</w>": 3670,
    "films</w>": 3671,
    "election</w>": 3672,
    "erous</w>": 3673,
    "inj": 3674,
    "turned</w>": 3675,
    "social</w>": 3676,
    "immedi": 3677,
    "ania</w>": 3678,
    "spokane</w>": 3679,
    "japanese</w>": 3680,
    "tee</w>": 3681,
    "depression</w>": 3682,
    "wall</w>": 3683,
    "commercial</w>": 3684,
    "crew</w>": 3685,
    "industry</w>": 3686,
    "appear</w>": 3687,
    "olymp": 3688,
    "nest</w>": 3689,
    "entire</w>": 3690,
    "pacific</w>": 3691,
    "depic": 3692,
    "theast</w>": 3693,
    "tons</w>": 3694,
    "sky": 3695,
    "emporary</w>": 3696,
    "displa": 3697,
    "paul</w>": 3698,
    "squadron</w>": 3699,
    "anci": 3700,
    "kel": 3701,
    "told</w>": 3702,
    "approxim": 3703,
    "research</w>": 3704,
    "vier</w>": 3705,
    "today</w>": 3706,
    "thy</w>": 3707,
    "metres</w>": 3708,
    "ner": 3709,
    "especially</w>": 3710,
    "awarded</w>": 3711,
    "hand</w>": 3712,
    "land": 3713,
    "accomp": 3714,
    "tournam": 3715,
    "background</w>": 3716,
    "utes</w>": 3717,
    "ared</w>": 3718,
    "plot</w>": 3719,
    "regular</w>": 3720,
    "civil</w>": 3721,
    "police</w>": 3722,
    "rol": 3723,
    "zing</w>": 3724,
    "language</w>": 3725,
    "notes</w>": 3726,
    "gue</w>": 3727,
    "whose</w>": 3728,
    "test</w>": 3729,
    "religious</w>": 3730,
    "tries</w>": 3731,
    "forward</w>": 3732,
    "might</w>": 3733,
    "lations</w>": 3734,
    "iting</w>": 3735,
    "sons</w>": 3736,
    "£</w>": 3737,
    "active</w>": 3738,
    "mixed</w>": 3739,
    "2000</w>": 3740,
    "entary</w>": 3741,
    "lyric": 3742,
    "thro": 3743,
    "spent</w>": 3744,
    "likely</w>": 3745,
    "35</w>": 3746,
    "numbers</w>": 3747,
    "labor": 3748,
    "pil": 3749,
    "gor": 3750,
    "jord": 3751,
    "len": 3752,
    "smi": 3753,
    "sw": 3754,
    "better</w>": 3755,
    "esti": 3756,
    "appointed</w>": 3757,
    "food</w>": 3758,
    "multi": 3759,
    "acqu": 3760,
    "staf": 3761,
    "musical</w>": 3762,
    "assem": 3763,
    "remains</w>": 3764,
    "asked</w>": 3765,
    "regiment</w>": 3766,
    "nearly</w>": 3767,
    "fifth</w>": 3768,
    "95</w>": 3769,
    "wish</w>": 3770,
    "represent": 3771,
    "already</w>": 3772,
    "studio</w>": 3773,
    "bay</w>": 3774,
    "gradu": 3775,
    "aled</w>": 3776,
    "water": 3777,
    "friends</w>": 3778,
    "friend</w>": 3779,
    "hit</w>": 3780,
    "cain</w>": 3781,
    "stories</w>": 3782,
    "ades</w>": 3783,
    "ai": 3784,
    "program</w>": 3785,
    "jordan</w>": 3786,
    "hand": 3787,
    "henry</w>": 3788,
    "quic": 3789,
    "depart": 3790,
    "prior</w>": 3791,
    "larger</w>": 3792,
    "ping</w>": 3793,
    "carey</w>": 3794,
    "step": 3795,
    "ester</w>": 3796,
    "wards</w>": 3797,
    "iii</w>": 3798,
    "van</w>": 3799,
    "probably</w>": 3800,
    "bit</w>": 3801,
    "marked</w>": 3802,
    "ena</w>": 3803,
    "ssing</w>": 3804,
    "gate</w>": 3805,
    "certain</w>": 3806,
    "shows</w>": 3807,
    "child</w>": 3808,
    "fru": 3809,
    "tis</w>": 3810,
    "gation</w>": 3811,
    "itali": 3812,
    "dise": 3813,
    "proper": 3814,
    "anti</w>": 3815,
    "soli": 3816,
    "offen": 3817,
    "shop</w>": 3818,
    "location</w>": 3819,
    "fact</w>": 3820,
    "rd</w>": 3821,
    "district</w>": 3822,
    "gn": 3823,
    "discovered</w>": 3824,
    "metho": 3825,
    "ordered</w>": 3826,
    "docum": 3827,
    "reti": 3828,
    "gins</w>": 3829,
    "medal</w>": 3830,
    "?</w>": 3831,
    "museum</w>": 3832,
    "flo": 3833,
    "ray</w>": 3834,
    "sity</w>": 3835,
    "adap": 3836,
    "kets</w>": 3837,
    "ran</w>": 3838,
    "transi": 3839,
    "scra": 3840,
    "territory</w>": 3841,
    "fig": 3842,
    "califor": 3843,
    "inci": 3844,
    "approximately</w>": 3845,
    "commission": 3846,
    "187": 3847,
    "pool</w>": 3848,
    "tom</w>": 3849,
    "movement</w>": 3850,
    "always</w>": 3851,
    "proposed</w>": 3852,
    "staff</w>": 3853,
    "chicago</w>": 3854,
    "changed</w>": 3855,
    "syl": 3856,
    "mccain</w>": 3857,
    "bloo": 3858,
    "any": 3859,
    "india</w>": 3860,
    "scul": 3861,
    "chall": 3862,
    "bill": 3863,
    "ald</w>": 3864,
    "anna</w>": 3865,
    "taining</w>": 3866,
    "overall</w>": 3867,
    "tically</w>": 3868,
    "boy</w>": 3869,
    "angel": 3870,
    "failed</w>": 3871,
    "36</w>": 3872,
    "money</w>": 3873,
    "eds</w>": 3874,
    "gil": 3875,
    "38</w>": 3876,
    "mod": 3877,
    "cations</w>": 3878,
    "wheel": 3879,
    "ris": 3880,
    "federer</w>": 3881,
    "ests</w>": 3882,
    "commander</w>": 3883,
    "ferred</w>": 3884,
    "captain</w>": 3885,
    "winning</w>": 3886,
    "observ": 3887,
    "every": 3888,
    "brother</w>": 3889,
    "cause</w>": 3890,
    "goals</w>": 3891,
    "tower</w>": 3892,
    "department</w>": 3893,
    "science</w>": 3894,
    "inated</w>": 3895,
    "pressure</w>": 3896,
    "arab": 3897,
    "groups</w>": 3898,
    "past</w>": 3899,
    "dium</w>": 3900,
    "ca</w>": 3901,
    "selves</w>": 3902,
    "latter</w>": 3903,
    "remaining</w>": 3904,
    "exper": 3905,
    "living</w>": 3906,
    "constructed</w>": 3907,
    "emer": 3908,
    "analy": 3909,
    "sun</w>": 3910,
    "mental</w>": 3911,
    "square</w>": 3912,
    "private</w>": 3913,
    "cut</w>": 3914,
    "future</w>": 3915,
    "sky</w>": 3916,
    "capital</w>": 3917,
    "wid": 3918,
    "cast": 3919,
    "larg": 3920,
    "admini": 3921,
    "includes</w>": 3922,
    "south": 3923,
    "quarters</w>": 3924,
    "hold</w>": 3925,
    "ultim": 3926,
    "books</w>": 3927,
    "michi": 3928,
    "decision</w>": 3929,
    "canadian</w>": 3930,
    "adop": 3931,
    "mexico</w>": 3932,
    "near": 3933,
    "parliament</w>": 3934,
    "feature</w>": 3935,
    "names</w>": 3936,
    "execu": 3937,
    "got</w>": 3938,
    "complex</w>": 3939,
    "surface</w>": 3940,
    "running</w>": 3941,
    "interest</w>": 3942,
    "horse</w>": 3943,
    "person</w>": 3944,
    "material</w>": 3945,
    "tery</w>": 3946,
    "ads</w>": 3947,
    "male</w>": 3948,
    "norm": 3949,
    "mass</w>": 3950,
    "flight</w>": 3951,
    "egyp": 3952,
    "forest</w>": 3953,
    "viet": 3954,
    "episodes</w>": 3955,
    "particular</w>": 3956,
    "3rd</w>": 3957,
    "surr": 3958,
    "biogra": 3959,
    "ily</w>": 3960,
    "particip": 3961,
    "camp": 3962,
    "charles</w>": 3963,
    "town": 3964,
    "experience</w>": 3965,
    "upper</w>": 3966,
    "princi": 3967,
    "184": 3968,
    "ano</w>": 3969,
    "arrived</w>": 3970,
    "ac</w>": 3971,
    "effects</w>": 3972,
    "formula</w>": 3973,
    "virgin": 3974,
    "agreed</w>": 3975,
    "pass": 3976,
    "married</w>": 3977,
    "habit": 3978,
    "los</w>": 3979,
    "gh</w>": 3980,
    "defeated</w>": 3981,
    "voice</w>": 3982,
    "ero": 3983,
    "california</w>": 3984,
    "compu": 3985,
    "tech</w>": 3986,
    "africa</w>": 3987,
    "occurred</w>": 3988,
    "appears</w>": 3989,
    "viol": 3990,
    "mann</w>": 3991,
    "constitu": 3992,
    "runs</w>": 3993,
    "yu": 3994,
    "dated</w>": 3995,
    "za</w>": 3996,
    "ban</w>": 3997,
    "current</w>": 3998,
    "ander": 3999,
    "cele": 4000,
    "pping</w>": 4001,
    "damaged</w>": 4002,
    "sus</w>": 4003,
    "your</w>": 4004,
    "daughter</w>": 4005,
    "gene": 4006,
    "becoming</w>": 4007,
    "tun": 4008,
    "committee</w>": 4009,
    "britain</w>": 4010,
    "movi": 4011,
    "minor</w>": 4012,
    "ious</w>": 4013,
    "themselves</w>": 4014,
    "stance</w>": 4015,
    "effect</w>": 4016,
    "architec": 4017,
    "health</w>": 4018,
    "divi": 4019,
    "personal</w>": 4020,
    "news</w>": 4021,
    "allow</w>": 4022,
    "glo": 4023,
    "virginia</w>": 4024,
    "zeal": 4025,
    "saurus</w>": 4026,
    "problems</w>": 4027,
    "ption</w>": 4028,
    "debut</w>": 4029,
    "conference</w>": 4030,
    "expl": 4031,
    "quickly</w>": 4032,
    "smaller</w>": 4033,
    "finally</w>": 4034,
    "twi": 4035,
    "32</w>": 4036,
    "tually</w>": 4037,
    "hot</w>": 4038,
    "carried</w>": 4039,
    "provide</w>": 4040,
    "gui": 4041,
    "largely</w>": 4042,
    "competition</w>": 4043,
    "gla": 4044,
    "chine": 4045,
    "michigan</w>": 4046,
    "difficult</w>": 4047,
    "intel": 4048,
    "temper": 4049,
    "network</w>": 4050,
    "intended</w>": 4051,
    "gen</w>": 4052,
    "rapi": 4053,
    "mountain</w>": 4054,
    "education</w>": 4055,
    "pa</w>": 4056,
    "subsequently</w>": 4057,
    "bar</w>": 4058,
    "irish</w>": 4059,
    "mostly</w>": 4060,
    "cs</w>": 4061,
    "bill</w>": 4062,
    "ency</w>": 4063,
    "chinese</w>": 4064,
    "increase</w>": 4065,
    "lar</w>": 4066,
    "alized</w>": 4067,
    "response</w>": 4068,
    "pec": 4069,
    "ases</w>": 4070,
    "chief</w>": 4071,
    "base": 4072,
    "positions</w>": 4073,
    "yan": 4074,
    "script</w>": 4075,
    "shes</w>": 4076,
    "shortly</w>": 4077,
    "jected</w>": 4078,
    "uk</w>": 4079,
    "20th</w>": 4080,
    "cli": 4081,
    "sop": 4082,
    "source</w>": 4083,
    "supported</w>": 4084,
    "missouri</w>": 4085,
    "ky": 4086,
    "progre": 4087,
    "ami</w>": 4088,
    "authori": 4089,
    "sim": 4090,
    "teams</w>": 4091,
    "deb": 4092,
    "defin": 4093,
    "tia</w>": 4094,
    "nations</w>": 4095,
    "purch": 4096,
    "wind</w>": 4097,
    "billboard</w>": 4098,
    "primary</w>": 4099,
    "planet</w>": 4100,
    "ounding</w>": 4101,
    "jac": 4102,
    "ranked</w>": 4103,
    "shel": 4104,
    "gul": 4105,
    "33</w>": 4106,
    "double</w>": 4107,
    "flag</w>": 4108,
    "desi": 4109,
    "culture</w>": 4110,
    "theme</w>": 4111,
    "assigned</w>": 4112,
    "lived</w>": 4113,
    "longer</w>": 4114,
    "mun": 4115,
    "nel</w>": 4116,
    "contract</w>": 4117,
    "greatest</w>": 4118,
    "sources</w>": 4119,
    "emperor</w>": 4120,
    "cell</w>": 4121,
    "chron": 4122,
    "turn</w>": 4123,
    "eig": 4124,
    "soldiers</w>": 4125,
    "oned</w>": 4126,
    "spac": 4127,
    "ap</w>": 4128,
    "clar": 4129,
    "traff": 4130,
    "kh": 4131,
    "prof": 4132,
    "review": 4133,
    "aring</w>": 4134,
    "done</w>": 4135,
    "direct</w>": 4136,
    "determin": 4137,
    "mou": 4138,
    "ock</w>": 4139,
    "milli": 4140,
    "students</w>": 4141,
    "compared</w>": 4142,
    "trade</w>": 4143,
    "silver</w>": 4144,
    "contra": 4145,
    "lack</w>": 4146,
    "anish</w>": 4147,
    "gative</w>": 4148,
    "actor</w>": 4149,
    "pose</w>": 4150,
    "14": 4151,
    "captured</w>": 4152,
    "influence</w>": 4153,
    "contains</w>": 4154,
    "score</w>": 4155,
    "traffic</w>": 4156,
    "bing</w>": 4157,
    "somer": 4158,
    "governor</w>": 4159,
    "course</w>": 4160,
    "crow": 4161,
    "riage</w>": 4162,
    "envir": 4163,
    "electr": 4164,
    "japan</w>": 4165,
    "tracks</w>": 4166,
    "ku": 4167,
    "jackson</w>": 4168,
    "tered</w>": 4169,
    "minutes</w>": 4170,
    "1995</w>": 4171,
    "tac": 4172,
    "things</w>": 4173,
    "schol": 4174,
    "deep</w>": 4175,
    "did": 4176,
    "isra": 4177,
    "unit</w>": 4178,
    "thir": 4179,
    "entered</w>": 4180,
    "greater</w>": 4181,
    "scienti": 4182,
    "enty</w>": 4183,
    "newsp": 4184,
    "perf": 4185,
    "know</w>": 4186,
    "fish</w>": 4187,
    "texas</w>": 4188,
    "eless</w>": 4189,
    "ancient</w>": 4190,
    "smith</w>": 4191,
    "draw</w>": 4192,
    "collection</w>": 4193,
    "professional</w>": 4194,
    "cm</w>": 4195,
    "onom": 4196,
    "terms</w>": 4197,
    "di</w>": 4198,
    "whether</w>": 4199,
    "cric": 4200,
    "destroyed</w>": 4201,
    "richard</w>": 4202,
    "mounted</w>": 4203,
    "services</w>": 4204,
    "polish</w>": 4205,
    "ener": 4206,
    "create</w>": 4207,
    "popul": 4208,
    "bin": 4209,
    "illu": 4210,
    "tings</w>": 4211,
    "break</w>": 4212,
    "vice</w>": 4213,
    "+</w>": 4214,
    "shown</w>": 4215,
    "1999</w>": 4216,
    "associated</w>": 4217,
    "mic": 4218,
    "stein</w>": 4219,
    "poor</w>": 4220,
    "yet</w>": 4221,
    "honor</w>": 4222,
    "ention</w>": 4223,
    "centre</w>": 4224,
    "nis</w>": 4225,
    "empire</w>": 4226,
    "majority</w>": 4227,
    "sequence</w>": 4228,
    "winter</w>": 4229,
    "pair</w>": 4230,
    "activity</w>": 4231,
    "amed</w>": 4232,
    "wash": 4233,
    "reflec": 4234,
    "red": 4235,
    "environ": 4236,
    "div": 4237,
    "visu": 4238,
    "row": 4239,
    "pass</w>": 4240,
    "independent</w>": 4241,
    "cum": 4242,
    "status</w>": 4243,
    "information</w>": 4244,
    "writers</w>": 4245,
    "graphi": 4246,
    "fy</w>": 4247,
    "bud": 4248,
    "officers</w>": 4249,
    "rat": 4250,
    "jun": 4251,
    "tric</w>": 4252,
    "speed</w>": 4253,
    "eth": 4254,
    "37</w>": 4255,
    "imag": 4256,
    "temple</w>": 4257,
    "airport</w>": 4258,
    "hus": 4259,
    "cé</w>": 4260,
    "cathe": 4261,
    "flow": 4262,
    "onal</w>": 4263,
    "leaving</w>": 4264,
    "venue</w>": 4265,
    "brew</w>": 4266,
    "enth</w>": 4267,
    "referred</w>": 4268,
    "inside</w>": 4269,
    "sev": 4270,
    "victori": 4271,
    "sto": 4272,
    "ita</w>": 4273,
    "attacks</w>": 4274,
    "legis": 4275,
    "conven": 4276,
    "posse": 4277,
    "irs</w>": 4278,
    "6th</w>": 4279,
    "stration</w>": 4280,
    "ie</w>": 4281,
    "shire</w>": 4282,
    "investi": 4283,
    "control": 4284,
    "whole</w>": 4285,
    "traditional</w>": 4286,
    "sent": 4287,
    "pre</w>": 4288,
    "conflic": 4289,
    "morning</w>": 4290,
    "peter</w>": 4291,
    "leave</w>": 4292,
    "dig": 4293,
    "facili": 4294,
    "saint</w>": 4295,
    "broadcast</w>": 4296,
    "russi": 4297,
    "ising</w>": 4298,
    "inspired</w>": 4299,
    "starting</w>": 4300,
    "historical</w>": 4301,
    "ah</w>": 4302,
    "manch": 4303,
    "enon</w>": 4304,
    "oldham</w>": 4305,
    "something</w>": 4306,
    "true</w>": 4307,
    "fer</w>": 4308,
    "headquarters</w>": 4309,
    "makes</w>": 4310,
    "rate</w>": 4311,
    "eigh": 4312,
    "tch</w>": 4313,
    "earned</w>": 4314,
    "catho": 4315,
    "dead</w>": 4316,
    "germany</w>": 4317,
    "tel</w>": 4318,
    "chel</w>": 4319,
    "zealand</w>": 4320,
    "ume</w>": 4321,
    "distinc": 4322,
    "rity</w>": 4323,
    "below</w>": 4324,
    "hebrew</w>": 4325,
    "vinc": 4326,
    "cathedr": 4327,
    "poten": 4328,
    "eign</w>": 4329,
    "amount</w>": 4330,
    "singles</w>": 4331,
    "scenes</w>": 4332,
    "rison</w>": 4333,
    "spiri": 4334,
    "ist</w>": 4335,
    "artist</w>": 4336,
    "pag": 4337,
    "bc</w>": 4338,
    "lot</w>": 4339,
    "swi": 4340,
    "selected</w>": 4341,
    "washington</w>": 4342,
    "raised</w>": 4343,
    "tournament</w>": 4344,
    "fighting</w>": 4345,
    "sound": 4346,
    "valley</w>": 4347,
    "foot</w>": 4348,
    "hood</w>": 4349,
    "bia</w>": 4350,
    "report</w>": 4351,
    "aries</w>": 4352,
    "gol": 4353,
    "bird</w>": 4354,
    "maxim": 4355,
    "repe": 4356,
    "revi": 4357,
    "ested</w>": 4358,
    "ica</w>": 4359,
    "acade": 4360,
    "disease</w>": 4361,
    "duction</w>": 4362,
    "olivier</w>": 4363,
    "edition</w>": 4364,
    "individual</w>": 4365,
    "lyrics</w>": 4366,
    "dv": 4367,
    "wood": 4368,
    "stand</w>": 4369,
    "variety</w>": 4370,
    "nes": 4371,
    "av": 4372,
    "consider": 4373,
    "beyoncé</w>": 4374,
    "aband": 4375,
    "plans</w>": 4376,
    "extr": 4377,
    "os": 4378,
    "1998</w>": 4379,
    "latin</w>": 4380,
    "ment": 4381,
    "percent</w>": 4382,
    "johnson</w>": 4383,
    "chor": 4384,
    "dance</w>": 4385,
    "contemporary</w>": 4386,
    "freeway</w>": 4387,
    "jin</w>": 4388,
    "enem": 4389,
    "armed</w>": 4390,
    "rick</w>": 4391,
    "west": 4392,
    "sley</w>": 4393,
    "peak</w>": 4394,
    "gent": 4395,
    "5th</w>": 4396,
    "vely</w>": 4397,
    "eting</w>": 4398,
    "alo": 4399,
    "lers</w>": 4400,
    "arian</w>": 4401,
    "sat": 4402,
    "chann": 4403,
    "car</w>": 4404,
    "takes</w>": 4405,
    "there": 4406,
    "incor": 4407,
    "critic": 4408,
    "sister</w>": 4409,
    "minute</w>": 4410,
    "republic</w>": 4411,
    "cyclone</w>": 4412,
    "giving</w>": 4413,
    "federal</w>": 4414,
    "knowle": 4415,
    "design": 4416,
    "numerous</w>": 4417,
    "legal</w>": 4418,
    "1996</w>": 4419,
    "extre": 4420,
    "observed</w>": 4421,
    "marriage</w>": 4422,
    "super</w>": 4423,
    "attrac": 4424,
    "tters</w>": 4425,
    "beau": 4426,
    "initial</w>": 4427,
    "ales</w>": 4428,
    "ens": 4429,
    "log": 4430,
    "ak</w>": 4431,
    "commented</w>": 4432,
    "communi": 4433,
    "jam": 4434,
    "piece</w>": 4435,
    "schools</w>": 4436,
    "closed</w>": 4437,
    "bank</w>": 4438,
    "ld": 4439,
    "deal</w>": 4440,
    "kan</w>": 4441,
    "bodies</w>": 4442,
    "newton</w>": 4443,
    "itian</w>": 4444,
    "kno": 4445,
    "iling</w>": 4446,
    "conver": 4447,
    "dun": 4448,
    "green</w>": 4449,
    "finan": 4450,
    "helped</w>": 4451,
    "sports</w>": 4452,
    "immediately</w>": 4453,
    "94</w>": 4454,
    "producer</w>": 4455,
    "cathedral</w>": 4456,
    "higher</w>": 4457,
    "mit": 4458,
    "dest</w>": 4459,
    "7th</w>": 4460,
    "heart</w>": 4461,
    "bol": 4462,
    "practi": 4463,
    "ocean</w>": 4464,
    "oured</w>": 4465,
    "justi": 4466,
    "mont</w>": 4467,
    "directly</w>": 4468,
    "removed</w>": 4469,
    "sense</w>": 4470,
    "anies</w>": 4471,
    "activi": 4472,
    "levels</w>": 4473,
    "dicated</w>": 4474,
    "found": 4475,
    "xon</w>": 4476,
    "explo": 4477,
    "ix</w>": 4478,
    "300</w>": 4479,
    "pole</w>": 4480,
    "hard</w>": 4481,
    "ex</w>": 4482,
    "presented</w>": 4483,
    "ea</w>": 4484,
    "corps</w>": 4485,
    "ain</w>": 4486,
    "look</w>": 4487,
    "singer</w>": 4488,
    "sixth</w>": 4489,
    "pal</w>": 4490,
    "public": 4491,
    "launched</w>": 4492,
    "39</w>": 4493,
    "fans</w>": 4494,
    "forming</w>": 4495,
    "annual</w>": 4496,
    "power": 4497,
    "albums</w>": 4498,
    "marine</w>": 4499,
    "minister</w>": 4500,
    "jewish</w>": 4501,
    "studies</w>": 4502,
    "preci": 4503,
    "istic</w>": 4504,
    "photo": 4505,
    "acting</w>": 4506,
    "dan": 4507,
    "1993</w>": 4508,
    "surve": 4509,
    "lig": 4510,
    "interview</w>": 4511,
    "ashi": 4512,
    "appearances</w>": 4513,
    "sides</w>": 4514,
    "issued</w>": 4515,
    "zes</w>": 4516,
    "queen</w>": 4517,
    "academy</w>": 4518,
    "neigh": 4519,
    "categ": 4520,
    "festiv": 4521,
    "avo": 4522,
    "wheeler</w>": 4523,
    "instru": 4524,
    "alled</w>": 4525,
    "advan": 4526,
    "suffered</w>": 4527,
    "daily</w>": 4528,
    "may": 4529,
    "2016</w>": 4530,
    "kor": 4531,
    "meeting</w>": 4532,
    "machine</w>": 4533,
    "bacteria</w>": 4534,
    "standard</w>": 4535,
    "needed</w>": 4536,
    "web": 4537,
    "planned</w>": 4538,
    "com</w>": 4539,
    "tories</w>": 4540,
    "spring</w>": 4541,
    "ext": 4542,
    "clos": 4543,
    "antly</w>": 4544,
    "spanish</w>": 4545,
    "worth</w>": 4546,
    "sty</w>": 4547,
    "inte": 4548,
    "discus": 4549,
    "by": 4550,
    "attacked</w>": 4551,
    "produce</w>": 4552,
    "meaning</w>": 4553,
    "defeat</w>": 4554,
    "flu": 4555,
    "trees</w>": 4556,
    "shore</w>": 4557,
    "stating</w>": 4558,
    "onto</w>": 4559,
    "rep": 4560,
    "come": 4561,
    "energy</w>": 4562,
    "kit": 4563,
    "hoo": 4564,
    "game": 4565,
    "sas</w>": 4566,
    "companies</w>": 4567,
    "conducted</w>": 4568,
    "eye</w>": 4569,
    "quali": 4570,
    "aped</w>": 4571,
    "sets</w>": 4572,
    "box</w>": 4573,
    "sad": 4574,
    "clim": 4575,
    "say</w>": 4576,
    "really</w>": 4577,
    "typically</w>": 4578,
    "respectively</w>": 4579,
    "dark</w>": 4580,
    "ado</w>": 4581,
    "ith</w>": 4582,
    "image</w>": 4583,
    "yel": 4584,
    "ro</w>": 4585,
    "forts</w>": 4586,
    "smo": 4587,
    "doub": 4588,
    "alty</w>": 4589,
    "means</w>": 4590,
    "reduced</w>": 4591,
    "croa": 4592,
    "coura": 4593,
    "think</w>": 4594,
    "cost</w>": 4595,
    "castle</w>": 4596,
    "pursu": 4597,
    "mas</w>": 4598,
    "rights</w>": 4599,
    "organis": 4600,
    "reach</w>": 4601,
    "400</w>": 4602,
    "rule</w>": 4603,
    "rely</w>": 4604,
    "conditions</w>": 4605,
    "techni": 4606,
    "nearby</w>": 4607,
    "fell</w>": 4608,
    "designated</w>": 4609,
    "black": 4610,
    "unable</w>": 4611,
    "hospital</w>": 4612,
    "mathe": 4613,
    "matic</w>": 4614,
    "cin": 4615,
    "composed</w>": 4616,
    "wa</w>": 4617,
    "asy</w>": 4618,
    "1997</w>": 4619,
    "amm": 4620,
    "arms</w>": 4621,
    "elected</w>": 4622,
    "sir</w>": 4623,
    "countries</w>": 4624,
    "ame": 4625,
    "lady</w>": 4626,
    "theatre</w>": 4627,
    "ingu": 4628,
    "grow": 4629,
    "fam": 4630,
    "critici": 4631,
    "extended</w>": 4632,
    "boat</w>": 4633,
    "pin": 4634,
    "emo": 4635,
    "fra": 4636,
    "carol": 4637,
    "onic</w>": 4638,
    "houses</w>": 4639,
    "gian</w>": 4640,
    "<</w>": 4641,
    "wise</w>": 4642,
    "lian</w>": 4643,
    "looking</w>": 4644,
    "build</w>": 4645,
    "jack</w>": 4646,
    "tol": 4647,
    "zo": 4648,
    "stop</w>": 4649,
    "portion</w>": 4650,
    "specific</w>": 4651,
    "distance</w>": 4652,
    "expected</w>": 4653,
    "ry": 4654,
    "tations</w>": 4655,
    "attention</w>": 4656,
    "promin": 4657,
    "movie</w>": 4658,
    "responsible</w>": 4659,
    "mad": 4660,
    "rachel</w>": 4661,
    "necess": 4662,
    "11": 4663,
    "girl</w>": 4664,
    "orial</w>": 4665,
    "drew</w>": 4666,
    "dna</w>": 4667,
    "coach</w>": 4668,
    "pop</w>": 4669,
    "question</w>": 4670,
    "ble": 4671,
    "motion</w>": 4672,
    "edge</w>": 4673,
    "settle": 4674,
    "bishop</w>": 4675,
    "market</w>": 4676,
    "elev": 4677,
    "approa": 4678,
    "minne": 4679,
    "flan": 4680,
    "write</w>": 4681,
    "twenty</w>": 4682,
    "ak": 4683,
    "recent</w>": 4684,
    "viet</w>": 4685,
    "scient": 4686,
    "></w>": 4687,
    "hawa": 4688,
    "arts</w>": 4689,
    "hour</w>": 4690,
    "inches</w>": 4691,
    "ging</w>": 4692,
    "du</w>": 4693,
    "entertain": 4694,
    "gods</w>": 4695,
    "jum": 4696,
    "master</w>": 4697,
    "types</w>": 4698,
    "enjo": 4699,
    "attempted</w>": 4700,
    "43</w>": 4701,
    "ylor</w>": 4702,
    "bloc": 4703,
    "rup": 4704,
    "copies</w>": 4705,
    "paraly": 4706,
    "need</w>": 4707,
    "continue</w>": 4708,
    "aware</w>": 4709,
    "non": 4710,
    "ay": 4711,
    "beha": 4712,
    "performances</w>": 4713,
    "micro": 4714,
    "bus": 4715,
    "officer</w>": 4716,
    "send</w>": 4717,
    "presence</w>": 4718,
    "resulted</w>": 4719,
    "oms</w>": 4720,
    "attempts</w>": 4721,
    "weight</w>": 4722,
    "birth</w>": 4723,
    "ordin": 4724,
    "figure</w>": 4725,
    "nucle": 4726,
    "fox</w>": 4727,
    "issues</w>": 4728,
    "1986</w>": 4729,
    "mile</w>": 4730,
    "ifa</w>": 4731,
    "claim</w>": 4732,
    "cultural</w>": 4733,
    "foun": 4734,
    "audience</w>": 4735,
    "camp</w>": 4736,
    "highly</w>": 4737,
    "confir": 4738,
    "parents</w>": 4739,
    "elli": 4740,
    "concert</w>": 4741,
    "1992</w>": 4742,
    "blood</w>": 4743,
    "kind</w>": 4744,
    "cab": 4745,
    "baby</w>": 4746,
    "ill</w>": 4747,
    "em</w>": 4748,
    "offered</w>": 4749,
    "alle": 4750,
    "feel": 4751,
    "stop": 4752,
    "rein": 4753,
    "sex</w>": 4754,
    "rhy": 4755,
    "words</w>": 4756,
    "susta": 4757,
    "villa</w>": 4758,
    "combat</w>": 4759,
    "medical</w>": 4760,
    "34</w>": 4761,
    "account</w>": 4762,
    "48</w>": 4763,
    "cad": 4764,
    "aling</w>": 4765,
    "penn": 4766,
    "certi": 4767,
    "deri": 4768,
    "q</w>": 4769,
    "advent": 4770,
    "hou</w>": 4771,
    "separate</w>": 4772,
    "hands</w>": 4773,
    "66</w>": 4774,
    "adver": 4775,
    "bury</w>": 4776,
    "abu": 4777,
    "management</w>": 4778,
    "bla": 4779,
    "advance</w>": 4780,
    "baseball</w>": 4781,
    "die</w>": 4782,
    "treaty</w>": 4783,
    "refused</w>": 4784,
    "miami</w>": 4785,
    "dang": 4786,
    "advant": 4787,
    "faced</w>": 4788,
    "subject</w>": 4789,
    "dges</w>": 4790,
    "47</w>": 4791,
    "places</w>": 4792,
    "author</w>": 4793,
    "andre": 4794,
    "servation</w>": 4795,
    "patter": 4796,
    "value</w>": 4797,
    "allowing</w>": 4798,
    "taylor</w>": 4799,
    "appar": 4800,
    "cerem": 4801,
    "cruis": 4802,
    "cities</w>": 4803,
    "quarter</w>": 4804,
    "sher</w>": 4805,
    "leader</w>": 4806,
    "poly": 4807,
    "titled</w>": 4808,
    "situation</w>": 4809,
    "enter</w>": 4810,
    "favor": 4811,
    "tili": 4812,
    "strat": 4813,
    "torpe": 4814,
    "meant</w>": 4815,
    "lightly</w>": 4816,
    "artic": 4817,
    "restor": 4818,
    "african</w>": 4819,
    "genus</w>": 4820,
    "industri": 4821,
    "nuclear</w>": 4822,
    "44</w>": 4823,
    "organization</w>": 4824,
    "begins</w>": 4825,
    "sylv": 4826,
    "monum": 4827,
    "doms</w>": 4828,
    "conte": 4829,
    "finals</w>": 4830,
    "somerset</w>": 4831,
    "zhou</w>": 4832,
    "expe": 4833,
    "thick</w>": 4834,
    "9th</w>": 4835,
    "dor": 4836,
    "rain</w>": 4837,
    "defense</w>": 4838,
    "humans</w>": 4839,
    "55</w>": 4840,
    "tude</w>": 4841,
    "ids</w>": 4842,
    "impact</w>": 4843,
    "ía</w>": 4844,
    "tana</w>": 4845,
    "growth</w>": 4846,
    "combined</w>": 4847,
    "owned</w>": 4848,
    "quality</w>": 4849,
    "founded</w>": 4850,
    "accepted</w>": 4851,
    "fiction</w>": 4852,
    "ali</w>": 4853,
    "sper": 4854,
    "ill": 4855,
    "physical</w>": 4856,
    "rise</w>": 4857,
    "weak": 4858,
    "husband</w>": 4859,
    "china</w>": 4860,
    "galvest": 4861,
    "skyscra": 4862,
    "mount</w>": 4863,
    "sign</w>": 4864,
    "ational</w>": 4865,
    "degre": 4866,
    "comedy</w>": 4867,
    "figu": 4868,
    "serves</w>": 4869,
    "scientology</w>": 4870,
    "proteins</w>": 4871,
    "spee": 4872,
    "asses</w>": 4873,
    "vehi": 4874,
    "artill": 4875,
    "care</w>": 4876,
    "thous": 4877,
    "kra": 4878,
    "vic</w>": 4879,
    "communic": 4880,
    "anderson</w>": 4881,
    "farm": 4882,
    "contribu": 4883,
    "1991</w>": 4884,
    "aging</w>": 4885,
    "cole</w>": 4886,
    "portu": 4887,
    "galveston</w>": 4888,
    "haifa</w>": 4889,
    "authority</w>": 4890,
    "widely</w>": 4891,
    "guar": 4892,
    "northwest</w>": 4893,
    "fted</w>": 4894,
    "zon": 4895,
    "neu": 4896,
    "cer</w>": 4897,
    "tradition</w>": 4898,
    "behavi": 4899,
    "practice</w>": 4900,
    "ung</w>": 4901,
    "festival</w>": 4902,
    "dur": 4903,
    "branch</w>": 4904,
    "rical</w>": 4905,
    "artillery</w>": 4906,
    "burg</w>": 4907,
    "ories</w>": 4908,
    "ere": 4909,
    "italian</w>": 4910,
    "actually</w>": 4911,
    "demon": 4912,
    "resol": 4913,
    "fa</w>": 4914,
    "powers</w>": 4915,
    "concluded</w>": 4916,
    "senate</w>": 4917,
    "bound</w>": 4918,
    "brad": 4919,
    "concept</w>": 4920,
    "color</w>": 4921,
    "featuring</w>": 4922,
    "sic</w>": 4923,
    "naval</w>": 4924,
    "sian</w>": 4925,
    "seasons</w>": 4926,
    "calling</w>": 4927,
    "lights</w>": 4928,
    "prince</w>": 4929,
    "kenne": 4930,
    "ambi": 4931,
    "soundtrack</w>": 4932,
    "nic": 4933,
    "vit": 4934,
    "ax": 4935,
    "assembly</w>": 4936,
    "missoula</w>": 4937,
    "domitian</w>": 4938,
    "battle": 4939,
    "financial</w>": 4940,
    "entertainment</w>": 4941,
    "figures</w>": 4942,
    "ception</w>": 4943,
    "metal</w>": 4944,
    "berg</w>": 4945,
    "wave</w>": 4946,
    "ois</w>": 4947,
    "xenon</w>": 4948,
    "serving</w>": 4949,
    "divided</w>": 4950,
    "incorpor": 4951,
    "stems</w>": 4952,
    "real": 4953,
    "maximum</w>": 4954,
    "41</w>": 4955,
    "sylvania</w>": 4956,
    "screen</w>": 4957,
    "animals</w>": 4958,
    "theory</w>": 4959,
    "weather</w>": 4960,
    "stal</w>": 4961,
    "m2</w>": 4962,
    "cricket</w>": 4963,
    "revealed</w>": 4964,
    "mr</w>": 4965,
    "missed</w>": 4966,
    "tress</w>": 4967,
    "dson</w>": 4968,
    "argued</w>": 4969,
    "residents</w>": 4970,
    "follow</w>": 4971,
    "stay</w>": 4972,
    "showed</w>": 4973,
    "chris</w>": 4974,
    "want</w>": 4975,
    "sales</w>": 4976,
    "zer</w>": 4977,
    "interpre": 4978,
    "tely</w>": 4979,
    "iron</w>": 4980,
    "scale</w>": 4981,
    "commissioned</w>": 4982,
    "ski</w>": 4983,
    "program": 4984,
    "ologist</w>": 4985,
    "ang</w>": 4986,
    "says</w>": 4987,
    "northeast</w>": 4988,
    "franc": 4989,
    "aly</w>": 4990,
    "ingui": 4991,
    "approach</w>": 4992,
    "ko</w>": 4993,
    "arity</w>": 4994,
    "dvd</w>": 4995,
    "efforts</w>": 4996,
    "shment</w>": 4997,
    "historic</w>": 4998,
    "was": 4999,
    "tax": 5000,
    "angeles</w>": 5001,
    "minneso": 5002,
    "minnesota</w>": 5003,
    "ino</w>": 5004,
    "cases</w>": 5005,
    "kap": 5006,
    "provin": 5007,
    "lane</w>": 5008,
    "burn</w>": 5009,
    "rock": 5010,
    "declared</w>": 5011,
    "gas</w>": 5012,
    "qua": 5013,
    "protein</w>": 5014,
    "ized</w>": 5015,
    "sumed</w>": 5016,
    "sphere</w>": 5017,
    "opport": 5018,
    "economic</w>": 5019,
    "nash</w>": 5020,
    "managed</w>": 5021,
    "51</w>": 5022,
    "astr": 5023,
    "inch</w>": 5024,
    "plays</w>": 5025,
    "reign</w>": 5026,
    "leg</w>": 5027,
    "casu": 5028,
    "montana</w>": 5029,
    "paralymp": 5030,
    "difficul": 5031,
    "shift</w>": 5032,
    "gained</w>": 5033,
    "continues</w>": 5034,
    "1994</w>": 5035,
    "ght": 5036,
    "christmas</w>": 5037,
    "tail</w>": 5038,
    "reports</w>": 5039,
    "65</w>": 5040,
    "represented</w>": 5041,
    "border</w>": 5042,
    "minim": 5043,
    "offensive</w>": 5044,
    "adopted</w>": 5045,
    "beyond</w>": 5046,
    "evol": 5047,
    "older</w>": 5048,
    "pun": 5049,
    "newspaper</w>": 5050,
    "dia</w>": 5051,
    "foreign</w>": 5052,
    "keep</w>": 5053,
    "dic</w>": 5054,
    "letters</w>": 5055,
    "therefore</w>": 5056,
    "paper</w>": 5057,
    "broken</w>": 5058,
    "resc": 5059,
    "access</w>": 5060,
    "scoring</w>": 5061,
    "channel</w>": 5062,
    "nam</w>": 5063,
    "za": 5064,
    "cells</w>": 5065,
    "dress</w>": 5066,
    "tts</w>": 5067,
    "rin": 5068,
    "bowl</w>": 5069,
    "fal": 5070,
    "peace</w>": 5071,
    "ities</w>": 5072,
    "dougl": 5073,
    "ultimately</w>": 5074,
    "53</w>": 5075,
    "edward</w>": 5076,
    "mainly</w>": 5077,
    "pel": 5078,
    "strength</w>": 5079,
    "hil": 5080,
    "mix</w>": 5081,
    "negative</w>": 5082,
    "drawn</w>": 5083,
    "ricul": 5084,
    "piano</w>": 5085,
    "rose": 5086,
    "liver": 5087,
    "weap": 5088,
    "doing</w>": 5089,
    "list": 5090,
    "lord</w>": 5091,
    "description</w>": 5092,
    "islands</w>": 5093,
    "oes</w>": 5094,
    "heavi": 5095,
    "det": 5096,
    "olympic</w>": 5097,
    "dr</w>": 5098,
    "mine</w>": 5099,
    "prevent</w>": 5100,
    "safe</w>": 5101,
    "officials</w>": 5102,
    "moore</w>": 5103,
    "currently</w>": 5104,
    "pennsylvania</w>": 5105,
    "assa": 5106,
    "powerful</w>": 5107,
    "heavily</w>": 5108,
    "along": 5109,
    "sia</w>": 5110,
    "sexual</w>": 5111,
    "ceeded</w>": 5112,
    "vocals</w>": 5113,
    "toward</w>": 5114,
    "rare</w>": 5115,
    "resulting</w>": 5116,
    "anth": 5117,
    "mart</w>": 5118,
    "liverpool</w>": 5119,
    "fow": 5120,
    "property</w>": 5121,
    "64</w>": 5122,
    "paid</w>": 5123,
    "alice</w>": 5124,
    "matches</w>": 5125,
    "strugg": 5126,
    "travel</w>": 5127,
    "struck</w>": 5128,
    "describes</w>": 5129,
    "insul": 5130,
    "180": 5131,
    "slightly</w>": 5132,
    "congress</w>": 5133,
    "bery</w>": 5134,
    "distribu": 5135,
    "themes</w>": 5136,
    "douglas</w>": 5137,
    "perman": 5138,
    "completely</w>": 5139,
    "guard</w>": 5140,
    "influenced</w>": 5141,
    "sport</w>": 5142,
    "relatively</w>": 5143,
    "bus</w>": 5144,
    "ditionally</w>": 5145,
    "happy</w>": 5146,
    "carolina</w>": 5147,
    "use": 5148,
    "peaked</w>": 5149,
    "dale</w>": 5150,
    "follows</w>": 5151,
    "alongside</w>": 5152,
    "remain</w>": 5153,
    "kep": 5154,
    "begin</w>": 5155,
    "tionary</w>": 5156,
    "trial</w>": 5157,
    "ano": 5158,
    "security</w>": 5159,
    "charge</w>": 5160,
    "sites</w>": 5161,
    "alone</w>": 5162,
    "lin</w>": 5163,
    "beer</w>": 5164,
    "text</w>": 5165,
    "cles</w>": 5166,
    "twice</w>": 5167,
    "railway</w>": 5168,
    "expressed</w>": 5169,
    "flying</w>": 5170,
    "61</w>": 5171,
    "condoms</w>": 5172,
    "affected</w>": 5173,
    "artists</w>": 5174,
    "necessary</w>": 5175,
    "broo": 5176,
    "roads</w>": 5177,
    "bell</w>": 5178,
    "0th</w>": 5179,
    "domes": 5180,
    "promis": 5181,
    "story": 5182,
    "increasing</w>": 5183,
    "catholic</w>": 5184,
    "beach</w>": 5185,
    "athletes</w>": 5186,
    "workers</w>": 5187,
    "nixon</w>": 5188,
    "link</w>": 5189,
    "strated</w>": 5190,
    "proved</w>": 5191,
    "transferred</w>": 5192,
    "except</w>": 5193,
    "rif": 5194,
    "8th</w>": 5195,
    "alties</w>": 5196,
    "46</w>": 5197,
    "rich</w>": 5198,
    "admir": 5199,
    "42</w>": 5200,
    "focus</w>": 5201,
    "prac": 5202,
    "avi": 5203,
    "transport</w>": 5204,
    "marily</w>": 5205,
    "aired</w>": 5206,
    "work": 5207,
    "infall</w>": 5208,
    "potential</w>": 5209,
    "becomes</w>": 5210,
    "mechan": 5211,
    "reason</w>": 5212,
    "visual</w>": 5213,
    "96</w>": 5214,
    "jose": 5215,
    "literature</w>": 5216,
    "wick</w>": 5217,
    "ull</w>": 5218,
    "model</w>": 5219,
    "ker": 5220,
    "core</w>": 5221,
    "dden</w>": 5222,
    "empha": 5223,
    "thea": 5224,
    "kilom": 5225,
    "hotel</w>": 5226,
    "nba</w>": 5227,
    "wic": 5228,
    "gray</w>": 5229,
    "kept</w>": 5230,
    "ror</w>": 5231,
    "exclu": 5232,
    "direction</w>": 5233,
    "organized</w>": 5234,
    "results</w>": 5235,
    "18th</w>": 5236,
    "paris</w>": 5237,
    "nel": 5238,
    "deck</w>": 5239,
    "kic": 5240,
    "iss": 5241,
    "cav": 5242,
    "burns</w>": 5243,
    "interchange</w>": 5244,
    "imper": 5245,
    "multiple</w>": 5246,
    "specim": 5247,
    "activities</w>": 5248,
    "attended</w>": 5249,
    "house": 5250,
    "draft</w>": 5251,
    "stic": 5252,
    "enting</w>": 5253,
    "eces</w>": 5254,
    "commission</w>": 5255,
    "ridge</w>": 5256,
    "touch": 5257,
    "expen": 5258,
    "officially</w>": 5259,
    "fight</w>": 5260,
    "cited</w>": 5261,
    "hem": 5262,
    "nit": 5263,
    "1941</w>": 5264,
    "individuals</w>": 5265,
    "urban</w>": 5266,
    "aded</w>": 5267,
    "tan</w>": 5268,
    "dary</w>": 5269,
    "rar": 5270,
    "cannot</w>": 5271,
    "dred</w>": 5272,
    "tage</w>": 5273,
    "manchester</w>": 5274,
    "explor": 5275,
    "eag": 5276,
    "ians</w>": 5277,
    "defence</w>": 5278,
    "structures</w>": 5279,
    "stadium</w>": 5280,
    "gadi": 5281,
    "expon": 5282,
    "alkan</w>": 5283,
    "effort</w>": 5284,
    "systems</w>": 5285,
    "emed</w>": 5286,
    "meet</w>": 5287,
    "1940</w>": 5288,
    "rose</w>": 5289,
    "analysis</w>": 5290,
    "encoun": 5291,
    "1990</w>": 5292,
    "letter</w>": 5293,
    "camer": 5294,
    "wy": 5295,
    "scotland</w>": 5296,
    "creation</w>": 5297,
    "unknown</w>": 5298,
    "encoura": 5299,
    "bal</w>": 5300,
    "fly</w>": 5301,
    "objec": 5302,
    "primarily</w>": 5303,
    "opposed</w>": 5304,
    "lewi": 5305,
    "perfect</w>": 5306,
    "ón</w>": 5307,
    "cen": 5308,
    "job</w>": 5309,
    "michel": 5310,
    "stic</w>": 5311,
    "visited</w>": 5312,
    "pap": 5313,
    "pine</w>": 5314,
    "roles</w>": 5315,
    "han</w>": 5316,
    "advi": 5317,
    "experim": 5318,
    "vietnam</w>": 5319,
    "comic</w>": 5320,
    "exhi": 5321,
    "1970</w>": 5322,
    "collabor": 5323,
    "coo": 5324,
    "drama</w>": 5325,
    "1980s</w>": 5326,
    "distingui": 5327,
    "views</w>": 5328,
    "ott": 5329,
    "visit</w>": 5330,
    "lie</w>": 5331,
    "sle": 5332,
    "mir": 5333,
    "gene</w>": 5334,
    "israel</w>": 5335,
    "rainfall</w>": 5336,
    "versions</w>": 5337,
    "unlike</w>": 5338,
    "net</w>": 5339,
    "determined</w>": 5340,
    "believ": 5341,
    "critic</w>": 5342,
    "49</w>": 5343,
    "fan": 5344,
    "dep": 5345,
    "85</w>": 5346,
    "height</w>": 5347,
    "teenth</w>": 5348,
    "relief</w>": 5349,
    "gar</w>": 5350,
    "notable</w>": 5351,
    "−</w>": 5352,
    "tintin</w>": 5353,
    "enemy</w>": 5354,
    "chosen</w>": 5355,
    "manufac": 5356,
    "loy": 5357,
    "1987</w>": 5358,
    "capture</w>": 5359,
    "dd</w>": 5360,
    "broke</w>": 5361,
    "possibly</w>": 5362,
    "phili": 5363,
    "where": 5364,
    "agricul": 5365,
    "opini": 5366,
    "occur</w>": 5367,
    "holds</w>": 5368,
    "achieved</w>": 5369,
    "contrac": 5370,
    "aman": 5371,
    "charts</w>": 5372,
    "returning</w>": 5373,
    "serious</w>": 5374,
    "lee</w>": 5375,
    "stal": 5376,
    "technology</w>": 5377,
    "mes</w>": 5378,
    "aria</w>": 5379,
    "ssions</w>": 5380,
    "ric</w>": 5381,
    "composition</w>": 5382,
    "feel</w>": 5383,
    "foundation</w>": 5384,
    "mosley</w>": 5385,
    "busch</w>": 5386,
    "grams</w>": 5387,
    "simply</w>": 5388,
    "600</w>": 5389,
    "tried</w>": 5390,
    "matter</w>": 5391,
    "zer": 5392,
    "shape</w>": 5393,
    "si</w>": 5394,
    "visions</w>": 5395,
    "vac": 5396,
    "studios</w>": 5397,
    "bad": 5398,
    "un</w>": 5399,
    "nes</w>": 5400,
    "boats</w>": 5401,
    "trou": 5402,
    "believe</w>": 5403,
    "laid</w>": 5404,
    "lewis</w>": 5405,
    "mey": 5406,
    "chen</w>": 5407,
    "secret</w>": 5408,
    "tially</w>": 5409,
    "grade</w>": 5410,
    "kings</w>": 5411,
    "recomm": 5412,
    "retired</w>": 5413,
    "homes</w>": 5414,
    "unity</w>": 5415,
    "bot": 5416,
    "correc": 5417,
    "kg</w>": 5418,
    "projects</w>": 5419,
    "recognized</w>": 5420,
    "singing</w>": 5421,
    "aer": 5422,
    "intellig": 5423,
    "actors</w>": 5424,
    "viewers</w>": 5425,
    "producers</w>": 5426,
    "frank</w>": 5427,
    "flooding</w>": 5428,
    "thunder": 5429,
    "ernest</w>": 5430,
    "fowler</w>": 5431,
    "tas": 5432,
    "data</w>": 5433,
    "volume</w>": 5434,
    "conflict</w>": 5435,
    "disco": 5436,
    "poetry</w>": 5437,
    "keep": 5438,
    "dedicated</w>": 5439,
    "railroad</w>": 5440,
    "grew</w>": 5441,
    "hundred</w>": 5442,
    "fts</w>": 5443,
    "ny": 5444,
    "má": 5445,
    "prime</w>": 5446,
    "desc": 5447,
    "criticized</w>": 5448,
    "executive</w>": 5449,
    "pay</w>": 5450,
    "reaching</w>": 5451,
    "fail": 5452,
    "bour": 5453,
    "cies</w>": 5454,
    "defined</w>": 5455,
    "flow</w>": 5456,
    "dential</w>": 5457,
    "bou": 5458,
    "borough</w>": 5459,
    "fant": 5460,
    "pment</w>": 5461,
    "post": 5462,
    "decor": 5463,
    "acted</w>": 5464,
    "mentioned</w>": 5465,
    "animal</w>": 5466,
    "constan": 5467,
    "titles</w>": 5468,
    "guil": 5469,
    "drive</w>": 5470,
    "zy</w>": 5471,
    "ketball</w>": 5472,
    "computer</w>": 5473,
    "kes": 5474,
    "content</w>": 5475,
    "advantage</w>": 5476,
    "lives</w>": 5477,
    "mess": 5478,
    "aid</w>": 5479,
    "knowledge</w>": 5480,
    "joseph</w>": 5481,
    "rear</w>": 5482,
    "eld</w>": 5483,
    "fying</w>": 5484,
    "basis</w>": 5485,
    "mouth</w>": 5486,
    "78</w>": 5487,
    "slow": 5488,
    "occup": 5489,
    "150</w>": 5490,
    "alex": 5491,
    "ara</w>": 5492,
    "strong": 5493,
    "greek</w>": 5494,
    "promoted</w>": 5495,
    "lap": 5496,
    "growing</w>": 5497,
    "institute</w>": 5498,
    "quez</w>": 5499,
    "prison": 5500,
    "leaders</w>": 5501,
    "cold</w>": 5502,
    "tar</w>": 5503,
    "virus</w>": 5504,
    "soviet</w>": 5505,
    "breeding</w>": 5506,
    "granted</w>": 5507,
    "abandoned</w>": 5508,
    "1988</w>": 5509,
    "females</w>": 5510,
    "colo": 5511,
    "host</w>": 5512,
    "restric": 5513,
    "subsequent</w>": 5514,
    "connected</w>": 5515,
    "gers</w>": 5516,
    "stan</w>": 5517,
    "symbo": 5518,
    "causing</w>": 5519,
    "earth": 5520,
    "meanwhile</w>": 5521,
    "dollar</w>": 5522,
    "goo": 5523,
    "defensive</w>": 5524,
    "hanna</w>": 5525,
    "smart</w>": 5526,
    "musc": 5527,
    "lit</w>": 5528,
    "accu": 5529,
    "orders</w>": 5530,
    "passing</w>": 5531,
    "agreement</w>": 5532,
    "fit": 5533,
    "door</w>": 5534,
    "entran": 5535,
    "surrounding</w>": 5536,
    "sively</w>": 5537,
    "sal</w>": 5538,
    "hl</w>": 5539,
    "pir": 5540,
    "aggre": 5541,
    "filming</w>": 5542,
    "stations</w>": 5543,
    "ulated</w>": 5544,
    "oughly</w>": 5545,
    "onist</w>": 5546,
    "garc": 5547,
    "garcía</w>": 5548,
    "journ": 5549,
    "authorities</w>": 5550,
    "earliest</w>": 5551,
    "tribu": 5552,
    "less": 5553,
    "senior</w>": 5554,
    "strateg": 5555,
    "heli": 5556,
    "modi": 5557,
    "ottom": 5558,
    "golden</w>": 5559,
    "opera</w>": 5560,
    "digital</w>": 5561,
    "antim": 5562,
    "independence</w>": 5563,
    "spi": 5564,
    "elim": 5565,
    "function</w>": 5566,
    "usual</w>": 5567,
    "sched": 5568,
    "schedul": 5569,
    "couple</w>": 5570,
    "hip</w>": 5571,
    "engineer</w>": 5572,
    "pitched</w>": 5573,
    "rejected</w>": 5574,
    "successfully</w>": 5575,
    "pied</w>": 5576,
    "photogra": 5577,
    "hei": 5578,
    "famous</w>": 5579,
    "musici": 5580,
    "importance</w>": 5581,
    "rebel": 5582,
    "tices</w>": 5583,
    "argent": 5584,
    "fields</w>": 5585,
    "destroy": 5586,
    "tree</w>": 5587,
    "historian</w>": 5588,
    "pup": 5589,
    "bun": 5590,
    "stoc": 5591,
    "laire</w>": 5592,
    "ria</w>": 5593,
    "commonly</w>": 5594,
    "walls</w>": 5595,
    "spread</w>": 5596,
    "note</w>": 5597,
    "1985</w>": 5598,
    "prominent</w>": 5599,
    "males</w>": 5600,
    "sher": 5601,
    "phase</w>": 5602,
    "auto": 5603,
    "twel": 5604,
    "tment</w>": 5605,
    "lay</w>": 5606,
    "buried</w>": 5607,
    "increasingly</w>": 5608,
    "claims</w>": 5609,
    "eth</w>": 5610,
    "explained</w>": 5611,
    "basketball</w>": 5612,
    "illin": 5613,
    "helm</w>": 5614,
    "volun": 5615,
    "mium</w>": 5616,
    "vements</w>": 5617,
    "administration</w>": 5618,
    "ste</w>": 5619,
    "memorial</w>": 5620,
    "astic</w>": 5621,
    "che</w>": 5622,
    "contrast</w>": 5623,
    "debu": 5624,
    "student</w>": 5625,
    "regarded</w>": 5626,
    "noise</w>": 5627,
    "dates</w>": 5628,
    "spain</w>": 5629,
    "rug": 5630,
    "unique</w>": 5631,
    "kansas</w>": 5632,
    "tenant</w>": 5633,
    "nur": 5634,
    "1944</w>": 5635,
    "beat</w>": 5636,
    "seconds</w>": 5637,
    "ts": 5638,
    "astronom": 5639,
    "supporting</w>": 5640,
    "stood</w>": 5641,
    "reading</w>": 5642,
    "frequently</w>": 5643,
    "mit</w>": 5644,
    "weekly</w>": 5645,
    "replac": 5646,
    "killing</w>": 5647,
    "oppon": 5648,
    "recon": 5649,
    "inva": 5650,
    "williams</w>": 5651,
    "md</w>": 5652,
    "bellaire</w>": 5653,
    "synthe": 5654,
    "haps</w>": 5655,
    "battery</w>": 5656,
    "54</w>": 5657,
    "equipment</w>": 5658,
    "prise</w>": 5659,
    "correspon": 5660,
    "mathema": 5661,
    "regions</w>": 5662,
    "adverti": 5663,
    "sculp": 5664,
    "susp": 5665,
    "bbc</w>": 5666,
    "intensity</w>": 5667,
    "pers</w>": 5668,
    "oper</w>": 5669,
    "cadmium</w>": 5670,
    "már": 5671,
    "márquez</w>": 5672,
    "atta": 5673,
    "onym": 5674,
    "nor</w>": 5675,
    "supply</w>": 5676,
    "deplo": 5677,
    "56</w>": 5678,
    "sought</w>": 5679,
    "sionally</w>": 5680,
    "1939</w>": 5681,
    "1960s</w>": 5682,
    "generation</w>": 5683,
    "ahead</w>": 5684,
    "dj": 5685,
    "populations</w>": 5686,
    "imperial</w>": 5687,
    "perhaps</w>": 5688,
    "oil</w>": 5689,
    "carri": 5690,
    "ate": 5691,
    "publication</w>": 5692,
    "nego": 5693,
    "negoti": 5694,
    "consecu": 5695,
    "losing</w>": 5696,
    "dropped</w>": 5697,
    "shu": 5698,
    "72</w>": 5699,
    "naz": 5700,
    "fix": 5701,
    "athens</w>": 5702,
    "circu": 5703,
    "81</w>": 5704,
    "thu": 5705,
    "protection</w>": 5706,
    "gary</w>": 5707,
    "tess": 5708,
    "acts</w>": 5709,
    "philo": 5710,
    "tell</w>": 5711,
    "republi": 5712,
    "arrang": 5713,
    "nh</w>": 5714,
    "genes</w>": 5715,
    "method</w>": 5716,
    "recently</w>": 5717,
    "operated</w>": 5718,
    "lieu": 5719,
    "threat": 5720,
    "fications</w>": 5721,
    "identified</w>": 5722,
    "secretary</w>": 5723,
    "tie</w>": 5724,
    "neutr": 5725,
    "ky</w>": 5726,
    "advanced</w>": 5727,
    "ideas</w>": 5728,
    "predic": 5729,
    "journey</w>": 5730,
    "bring</w>": 5731,
    "bio": 5732,
    "ella</w>": 5733,
    "viewed</w>": 5734,
    "itable</w>": 5735,
    "transfer</w>": 5736,
    "save</w>": 5737,
    "aspec": 5738,
    "join</w>": 5739,
    "mond</w>": 5740,
    "actress</w>": 5741,
    "domestic</w>": 5742,
    "1964</w>": 5743,
    "contain</w>": 5744,
    "yellow</w>": 5745,
    "philosop": 5746,
    "rolling</w>": 5747,
    "fruit</w>": 5748,
    "reference</w>": 5749,
    "settlement</w>": 5750,
    "inger</w>": 5751,
    "containing</w>": 5752,
    "younger</w>": 5753,
    "1942</w>": 5754,
    "52</w>": 5755,
    "brief": 5756,
    "wild</w>": 5757,
    "isi": 5758,
    "consecutive</w>": 5759,
    "consist": 5760,
    "controlled</w>": 5761,
    "easi": 5762,
    "seven": 5763,
    "maintained</w>": 5764,
    "pieces</w>": 5765,
    "wo": 5766,
    "category</w>": 5767,
    "excav": 5768,
    "casualties</w>": 5769,
    "colony</w>": 5770,
    "remo": 5771,
    "citi": 5772,
    "consisted</w>": 5773,
    "lars</w>": 5774,
    "choice</w>": 5775,
    "shaped</w>": 5776,
    "outer</w>": 5777,
    "stro": 5778,
    "pred": 5779,
    "centu": 5780,
    "grand": 5781,
    "element</w>": 5782,
    "celebr": 5783,
    "glades</w>": 5784,
    "chronic": 5785,
    "problem</w>": 5786,
    "79</w>": 5787,
    "phia</w>": 5788,
    "gun": 5789,
    "voted</w>": 5790,
    "eral</w>": 5791,
    "suggests</w>": 5792,
    "ish</w>": 5793,
    "62</w>": 5794,
    "boston</w>": 5795,
    "76</w>": 5796,
    "stence</w>": 5797,
    "tton</w>": 5798,
    "inner</w>": 5799,
    "wounded</w>": 5800,
    "escape</w>": 5801,
    "wed": 5802,
    "images</w>": 5803,
    "nasty</w>": 5804,
    "severe</w>": 5805,
    "amy</w>": 5806,
    "asi</w>": 5807,
    "parall": 5808,
    "sized</w>": 5809,
    "zone</w>": 5810,
    "confirmed</w>": 5811,
    "nothing</w>": 5812,
    "nie</w>": 5813,
    "avenue</w>": 5814,
    "1989</w>": 5815,
    "fired</w>": 5816,
    "ris</w>": 5817,
    "sm</w>": 5818,
    "tren": 5819,
    "bond</w>": 5820,
    "setting</w>": 5821,
    "stances</w>": 5822,
    "headed</w>": 5823,
    "bad</w>": 5824,
    "townsend</w>": 5825,
    "night": 5826,
    "aire</w>": 5827,
    "vis</w>": 5828,
    "asia</w>": 5829,
    "iny</w>": 5830,
    "rome</w>": 5831,
    "condom</w>": 5832,
    "suffici": 5833,
    "lieutenant</w>": 5834,
    "anny</w>": 5835,
    "1960</w>": 5836,
    "allen</w>": 5837,
    "kill</w>": 5838,
    "gall": 5839,
    "jupit": 5840,
    "contained</w>": 5841,
    "shooting</w>": 5842,
    "fast</w>": 5843,
    "tte</w>": 5844,
    "duke</w>": 5845,
    "counter": 5846,
    "landing</w>": 5847,
    "regarding</w>": 5848,
    "acci": 5849,
    "policy</w>": 5850,
    "ves": 5851,
    "premier</w>": 5852,
    "meyer": 5853,
    "hope</w>": 5854,
    "kakap": 5855,
    "line": 5856,
    "heard</w>": 5857,
    "simple</w>": 5858,
    "employed</w>": 5859,
    "entrance</w>": 5860,
    "discovery</w>": 5861,
    "herself</w>": 5862,
    "fic</w>": 5863,
    "color": 5864,
    "thri": 5865,
    "mike</w>": 5866,
    "waters</w>": 5867,
    "princ": 5868,
    "fashi": 5869,
    "secondary</w>": 5870,
    "religion</w>": 5871,
    "bles</w>": 5872,
    "moment</w>": 5873,
    "adult</w>": 5874,
    "entirely</w>": 5875,
    "finding</w>": 5876,
    "beth</w>": 5877,
    "nominated</w>": 5878,
    "decre": 5879,
    "russian</w>": 5880,
    "baker</w>": 5881,
    "kakapo</w>": 5882,
    "swit": 5883,
    "cei": 5884,
    "challeng": 5885,
    "victoria</w>": 5886,
    "prey</w>": 5887,
    "cardin": 5888,
    "bob</w>": 5889,
    "#</w>": 5890,
    "italy</w>": 5891,
    "hair</w>": 5892,
    "dog</w>": 5893,
    "rub": 5894,
    "cus</w>": 5895,
    "bid</w>": 5896,
    "rence</w>": 5897,
    "sin</w>": 5898,
    "eva</w>": 5899,
    "campus</w>": 5900,
    "rosebery</w>": 5901,
    "chmann</w>": 5902,
    "kur": 5903,
    "seg": 5904,
    "website</w>": 5905,
    "improved</w>": 5906,
    "americans</w>": 5907,
    "newly</w>": 5908,
    "cell": 5909,
    "nei": 5910,
    "occupied</w>": 5911,
    "phila": 5912,
    "van": 5913,
    "pum": 5914,
    "stea": 5915,
    "gives</w>": 5916,
    "1984</w>": 5917,
    "mario</w>": 5918,
    "gain</w>": 5919,
    "passes</w>": 5920,
    "sr</w>": 5921,
    "avoid</w>": 5922,
    "selling</w>": 5923,
    "walpole</w>": 5924,
    "fame</w>": 5925,
    "shiva</w>": 5926,
    "1990s</w>": 5927,
    "why</w>": 5928,
    "horses</w>": 5929,
    "ottoman</w>": 5930,
    "gameplay</w>": 5931,
    "onymous</w>": 5932,
    "supre": 5933,
    "stered</w>": 5934,
    "families</w>": 5935,
    "eyes</w>": 5936,
    "receive</w>": 5937,
    "philadel": 5938,
    "philadelphia</w>": 5939,
    "cks</w>": 5940,
    "normal</w>": 5941,
    "treatment</w>": 5942,
    "mind</w>": 5943,
    "chose</w>": 5944,
    "ership</w>": 5945,
    "posing</w>": 5946,
    "perio": 5947,
    "filled</w>": 5948,
    "answ": 5949,
    "dissi": 5950,
    "alab": 5951,
    "demic</w>": 5952,
    "seems</w>": 5953,
    "assive</w>": 5954,
    "ody</w>": 5955,
    "gration</w>": 5956,
    "illinois</w>": 5957,
    "tessa</w>": 5958,
    "nicole</w>": 5959,
    "finkel": 5960,
    "finkelstein</w>": 5961,
    "yue</w>": 5962,
    "meyerbeer</w>": 5963,
    "everglades</w>": 5964,
    "playstation</w>": 5965,
    "voic": 5966,
    "ranged</w>": 5967,
    "aspects</w>": 5968,
    "citiz": 5969,
    "bron": 5970,
    "1918</w>": 5971,
    "seas</w>": 5972,
    "personnel</w>": 5973,
    "stones</w>": 5974,
    "depar": 5975,
    "gated</w>": 5976,
    "vocal</w>": 5977,
    "bered</w>": 5978,
    "93</w>": 5979,
    "contact</w>": 5980,
    "kennedy</w>": 5981,
    "max</w>": 5982,
    "corpor": 5983,
    "experienced</w>": 5984,
    "roughly</w>": 5985,
    "republican</w>": 5986,
    "mill</w>": 5987,
    "eichmann</w>": 5988,
    "perform</w>": 5989,
    "revolution</w>": 5990,
    "alists</w>": 5991,
    "extensive</w>": 5992,
    "turing</w>": 5993,
    "libr": 5994,
    "biography</w>": 5995,
    "exer": 5996,
    "roll</w>": 5997,
    "participated</w>": 5998,
    "thor": 5999,
    "bottom</w>": 6000,
    "nin": 6001,
    "jupiter</w>": 6002,
    "repu": 6003,
    "rem": 6004,
    "resta": 6005,
    "restaur": 6006,
    "seventh</w>": 6007,
    "offer</w>": 6008,
    "tem": 6009,
    "1972</w>": 6010,
    "risk</w>": 6011,
    "hms</w>": 6012,
    "dani": 6013,
    "promotion</w>": 6014,
    "solo</w>": 6015,
    "ji": 6016,
    "develop</w>": 6017,
    "andrew</w>": 6018,
    "murder</w>": 6019,
    "asure</w>": 6020,
    "guest</w>": 6021,
    "share</w>": 6022,
    "spot</w>": 6023,
    "istics</w>": 6024,
    "objects</w>": 6025,
    "shu</w>": 6026,
    "heads</w>": 6027,
    "ae</w>": 6028,
    "1970s</w>": 6029,
    "fur</w>": 6030,
    "falls</w>": 6031,
    "ced": 6032,
    "km2</w>": 6033,
    "learned</w>": 6034,
    "sl": 6035,
    "phil": 6036,
    "spar": 6037,
    "quite</w>": 6038,
    "aba</w>": 6039,
    "hawai": 6040,
    "never": 6041,
    "model": 6042,
    "deter": 6043,
    "slow</w>": 6044,
    "calcul": 6045,
    "torial</w>": 6046,
    "asing</w>": 6047,
    "vul": 6048,
    "legen": 6049,
    "cool</w>": 6050,
    "collected</w>": 6051,
    "eval</w>": 6052,
    "debuted</w>": 6053,
    "jur": 6054,
    "oma": 6055,
    "rugby</w>": 6056,
    "braathens</w>": 6057,
    "mohave</w>": 6058,
    "speech</w>": 6059,
    "downtown</w>": 6060,
    "ach": 6061,
    "marks</w>": 6062,
    "glass</w>": 6063,
    "faces</w>": 6064,
    "inging</w>": 6065,
    "closely</w>": 6066,
    "agent</w>": 6067,
    "phoen": 6068,
    "carry</w>": 6069,
    "voy": 6070,
    "torpedo</w>": 6071,
    "turre": 6072,
    "death": 6073,
    "truth</w>": 6074,
    "mortal</w>": 6075,
    "stel": 6076,
    "championships</w>": 6077,
    "simul": 6078,
    "hydro": 6079,
    "1947</w>": 6080,
    "temperature</w>": 6081,
    "antimony</w>": 6082,
    "tle</w>": 6083,
    "hi</w>": 6084,
    "occurs</w>": 6085,
    "creating</w>": 6086,
    "criticism</w>": 6087,
    "life": 6088,
    "attor": 6089,
    "dering</w>": 6090,
    "promp": 6091,
    "prepared</w>": 6092,
    "train</w>": 6093,
    "box": 6094,
    "plant</w>": 6095,
    "1968</w>": 6096,
    "wealth</w>": 6097,
    "int": 6098,
    "one": 6099,
    "sustained</w>": 6100,
    "additionally</w>": 6101,
    "propos": 6102,
    "centuries</w>": 6103,
    "sections</w>": 6104,
    "700</w>": 6105,
    "failure</w>": 6106,
    "consul": 6107,
    "ene</w>": 6108,
    "resem": 6109,
    "allows</w>": 6110,
    "crown</w>": 6111,
    "survey</w>": 6112,
    "oxford</w>": 6113,
    "guide</w>": 6114,
    "mountains</w>": 6115,
    "reaction</w>": 6116,
    "finds</w>": 6117,
    "portugu": 6118,
    "tre</w>": 6119,
    "alism</w>": 6120,
    "vin</w>": 6121,
    "gham</w>": 6122,
    "scully</w>": 6123,
    "rying</w>": 6124,
    "other": 6125,
    "extra</w>": 6126,
    "sequences</w>": 6127,
    "67</w>": 6128,
    "girls</w>": 6129,
    "arily</w>": 6130,
    "deliver": 6131,
    "declined</w>": 6132,
    "province</w>": 6133,
    "transportation</w>": 6134,
    "bitt</w>": 6135,
    "portuguese</w>": 6136,
    "achiev": 6137,
    "invasion</w>": 6138,
    "rating</w>": 6139,
    "armoured</w>": 6140,
    "canal</w>": 6141,
    "expanded</w>": 6142,
    "fellow</w>": 6143,
    "ku</w>": 6144,
    "58</w>": 6145,
    "colonel</w>": 6146,
    "condition</w>": 6147,
    "principal</w>": 6148,
    "molec": 6149,
    "injury</w>": 6150,
    "clubs</w>": 6151,
    "deman": 6152,
    "valent</w>": 6153,
    "significantly</w>": 6154,
    "degree</w>": 6155,
    "itation</w>": 6156,
    "neighbor": 6157,
    "mani": 6158,
    "existing</w>": 6159,
    "1950s</w>": 6160,
    "ash": 6161,
    "cap</w>": 6162,
    "legi": 6163,
    "typical</w>": 6164,
    "cement</w>": 6165,
    "path</w>": 6166,
    "intensi": 6167,
    "mary": 6168,
    "amp": 6169,
    "deni": 6170,
    "floor</w>": 6171,
    "wind": 6172,
    "rey</w>": 6173,
    "mark": 6174,
    "71</w>": 6175,
    "gets</w>": 6176,
    "diag": 6177,
    "dynasty</w>": 6178,
    "scheduled</w>": 6179,
    "writes</w>": 6180,
    "fey</w>": 6181,
    "dissip": 6182,
    "trip</w>": 6183,
    "stable</w>": 6184,
    "welsh</w>": 6185,
    "doctor</w>": 6186,
    "expres": 6187,
    "91</w>": 6188,
    "69</w>": 6189,
    "purchased</w>": 6190,
    "yment</w>": 6191,
    "tells</w>": 6192,
    "starts</w>": 6193,
    "adding</w>": 6194,
    "pher</w>": 6195,
    "protected</w>": 6196,
    "800</w>": 6197,
    "nan": 6198,
    "fat": 6199,
    "len</w>": 6200,
    "cardi": 6201,
    "inations</w>": 6202,
    "faith</w>": 6203,
    "didn</w>": 6204,
    "compla": 6205,
    "zi": 6206,
    "ction</w>": 6207,
    "display</w>": 6208,
    "1930</w>": 6209,
    "pes</w>": 6210,
    "archaeological</w>": 6211,
    "anda</w>": 6212,
    "timore</w>": 6213,
    "oda": 6214,
    "varan": 6215,
    "mogadi": 6216,
    "grant</w>": 6217,
    "bass</w>": 6218,
    "sibility</w>": 6219,
    "supreme</w>": 6220,
    "chemical</w>": 6221,
    "ites</w>": 6222,
    "qui": 6223,
    "world": 6224,
    "producing</w>": 6225,
    "rese": 6226,
    "steve</w>": 6227,
    "dged</w>": 6228,
    "ski": 6229,
    "1981</w>": 6230,
    "scottish</w>": 6231,
    "hen</w>": 6232,
    "1914</w>": 6233,
    "reasons</w>": 6234,
    "phs</w>": 6235,
    "drama": 6236,
    "occasionally</w>": 6237,
    "architecture</w>": 6238,
    "effective</w>": 6239,
    "collap": 6240,
    "von</w>": 6241,
    "lication</w>": 6242,
    "rho": 6243,
    "ults</w>": 6244,
    "wilhelm</w>": 6245,
    "vow": 6246,
    "volunte": 6247,
    "bn</w>": 6248,
    "lb</w>": 6249,
    "enath": 6250,
    "popularity</w>": 6251,
    "request</w>": 6252,
    "briefly</w>": 6253,
    "prize</w>": 6254,
    "semi</w>": 6255,
    "atmo": 6256,
    "chapel</w>": 6257,
    "genetic</w>": 6258,
    "threat</w>": 6259,
    "brothers</w>": 6260,
    "bie</w>": 6261,
    "express</w>": 6262,
    "mont": 6263,
    "rules</w>": 6264,
    "dal": 6265,
    "folk</w>": 6266,
    "journal</w>": 6267,
    "medieval</w>": 6268,
    "jim</w>": 6269,
    "volcan": 6270,
    "poet</w>": 6271,
    "enathus</w>": 6272,
    "dumont</w>": 6273,
    "varanasi</w>": 6274,
    "fan</w>": 6275,
    "goes</w>": 6276,
    "legacy</w>": 6277,
    "rapidly</w>": 6278,
    "poses</w>": 6279,
    "consists</w>": 6280,
    "wr": 6281,
    "scription</w>": 6282,
    "hang": 6283,
    "economy</w>": 6284,
    "uss</w>": 6285,
    "navi": 6286,
    "attle</w>": 6287,
    "bound": 6288,
    "dry</w>": 6289,
    "facilities</w>": 6290,
    "theastern</w>": 6291,
    "brow": 6292,
    "sau": 6293,
    "juli": 6294,
    "ison</w>": 6295,
    "gie</w>": 6296,
    "herit": 6297,
    "contributed</w>": 6298,
    "semi": 6299,
    "arrival</w>": 6300,
    "olympics</w>": 6301,
    "underground</w>": 6302,
    "profess": 6303,
    "southeast</w>": 6304,
    "nesbitt</w>": 6305,
    "shi</w>": 6306,
    "su</w>": 6307,
    "surren": 6308,
    "acu": 6309,
    "shell</w>": 6310,
    "bited</w>": 6311,
    "worldwide</w>": 6312,
    "angle</w>": 6313,
    "straight</w>": 6314,
    "tied</w>": 6315,
    "expansion</w>": 6316,
    "stages</w>": 6317,
    "aska</w>": 6318,
    "sand": 6319,
    "laws</w>": 6320,
    "assault</w>": 6321,
    "allied</w>": 6322,
    "ective</w>": 6323,
    "ography</w>": 6324,
    "disa": 6325,
    "rated</w>": 6326,
    "decade</w>": 6327,
    "drum</w>": 6328,
    "od": 6329,
    "intelligence</w>": 6330,
    "issance</w>": 6331,
    "covering</w>": 6332,
    "tall</w>": 6333,
    "dream</w>": 6334,
    "1974</w>": 6335,
    "05</w>": 6336,
    "haven</w>": 6337,
    "baltimore</w>": 6338,
    "justice</w>": 6339,
    "sarnia</w>": 6340,
    "odaenathus</w>": 6341,
    "gradually</w>": 6342,
    "acres</w>": 6343,
    "budget</w>": 6344,
    "missi": 6345,
    "neither</w>": 6346,
    "evening</w>": 6347,
    "friend": 6348,
    "distribution</w>": 6349,
    "trying</w>": 6350,
    "17th</w>": 6351,
    "vi</w>": 6352,
    "graphic</w>": 6353,
    "ez</w>": 6354,
    "miss</w>": 6355,
    "asian</w>": 6356,
    "gus</w>": 6357,
    "dish</w>": 6358,
    "gal</w>": 6359,
    "candi": 6360,
    "alabama</w>": 6361,
    "1945</w>": 6362,
    "naissance</w>": 6363,
    "ceremony</w>": 6364,
    "martin</w>": 6365,
    "brac": 6366,
    "crazy</w>": 6367,
    "gates</w>": 6368,
    "peninsul": 6369,
    "ren</w>": 6370,
    "gordon</w>": 6371,
    "palest": 6372,
    "chains</w>": 6373,
    "article</w>": 6374,
    "vehicles</w>": 6375,
    "57</w>": 6376,
    "airs</w>": 6377,
    "1916</w>": 6378,
    "tter": 6379,
    "skin</w>": 6380,
    "thic</w>": 6381,
    "rooms</w>": 6382,
    "existence</w>": 6383,
    "fun</w>": 6384,
    "deaths</w>": 6385,
    "ficial</w>": 6386,
    "dynam": 6387,
    "fically</w>": 6388,
    "massive</w>": 6389,
    "harmon": 6390,
    "stream</w>": 6391,
    "estate</w>": 6392,
    "chol": 6393,
    "watch": 6394,
    "keswick</w>": 6395,
    "losses</w>": 6396,
    "zu": 6397,
    "purpose</w>": 6398,
    "expedition</w>": 6399,
    "zations</w>": 6400,
    "decades</w>": 6401,
    "1919</w>": 6402,
    "regional</w>": 6403,
    "assistant</w>": 6404,
    "session</w>": 6405,
    "alternative</w>": 6406,
    "knots</w>": 6407,
    "lay": 6408,
    "satis": 6409,
    "hat": 6410,
    "billion</w>": 6411,
    "dating</w>": 6412,
    "buff": 6413,
    "represent</w>": 6414,
    "similarly</w>": 6415,
    "quo": 6416,
    "beat": 6417,
    "surviv": 6418,
    "63</w>": 6419,
    "omaha</w>": 6420,
    "rail</w>": 6421,
    "mogadishu</w>": 6422,
    "ario</w>": 6423,
    "engine</w>": 6424,
    "arth": 6425,
    "permanent</w>": 6426,
    "inity</w>": 6427,
    "struction</w>": 6428,
    "ram</w>": 6429,
    "1950</w>": 6430,
    "conservation</w>": 6431,
    "nation": 6432,
    "depth</w>": 6433,
    "locations</w>": 6434,
    "inspir": 6435,
    "lywood</w>": 6436,
    "crete</w>": 6437,
    "pilot</w>": 6438,
    "safety</w>": 6439,
    "tane": 6440,
    "calls</w>": 6441,
    "francis": 6442,
    "items</w>": 6443,
    "filmed</w>": 6444,
    "clou": 6445,
    "boys</w>": 6446,
    "poland</w>": 6447,
    "ho</w>": 6448,
    "helms</w>": 6449,
    "mr": 6450,
    "pike</w>": 6451,
    "appeal</w>": 6452,
    "fought</w>": 6453,
    "details</w>": 6454,
    "watch</w>": 6455,
    "oldest</w>": 6456,
    "attorney</w>": 6457,
    "classified</w>": 6458,
    "hired</w>": 6459,
    "ya": 6460,
    "dean</w>": 6461,
    "sign": 6462,
    "convinc": 6463,
    "brief</w>": 6464,
    "brian</w>": 6465,
    "egyptian</w>": 6466,
    "applied</w>": 6467,
    "fit</w>": 6468,
    "introduction</w>": 6469,
    "proce": 6470,
    "anything</w>": 6471,
    "inde": 6472,
    "kir": 6473,
    "hair": 6474,
    "programs</w>": 6475,
    "ques</w>": 6476,
    "snow</w>": 6477,
    "patri": 6478,
    "fred</w>": 6479,
    "southwest</w>": 6480,
    "kovic</w>": 6481,
    "battalions</w>": 6482,
    "rihanna</w>": 6483,
    "bab": 6484,
    "belong": 6485,
    "77</w>": 6486,
    "acquired</w>": 6487,
    "1930s</w>": 6488,
    "dela": 6489,
    "bits</w>": 6490,
    "xi": 6491,
    "ship": 6492,
    "59</w>": 6493,
    "psy": 6494,
    "crime</w>": 6495,
    "defini": 6496,
    "lap</w>": 6497,
    "insi": 6498,
    "classic</w>": 6499,
    "gli": 6500,
    "eff": 6501,
    "landfall</w>": 6502,
    "1982</w>": 6503,
    "indiana</w>": 6504,
    "innings</w>": 6505,
    "16th</w>": 6506,
    "anz": 6507,
    "bibli": 6508,
    "wrest": 6509,
    "focused</w>": 6510,
    "arthur</w>": 6511,
    "thirty</w>": 6512,
    "bled</w>": 6513,
    "wis": 6514,
    "austri": 6515,
    "coal</w>": 6516,
    "seeing</w>": 6517,
    "89</w>": 6518,
    "appearing</w>": 6519,
    "til": 6520,
    "twelve</w>": 6521,
    "whereas</w>": 6522,
    "drawing</w>": 6523,
    "widesp": 6524,
    "widespread</w>": 6525,
    "prosper": 6526,
    "bon</w>": 6527,
    "literary</w>": 6528,
    "editor</w>": 6529,
    "holding</w>": 6530,
    "lasted</w>": 6531,
    "authors</w>": 6532,
    "dan</w>": 6533,
    "convo": 6534,
    "1967</w>": 6535,
    "donna</w>": 6536,
    "adams</w>": 6537,
    "dows</w>": 6538,
    "speaking</w>": 6539,
    "enjoyed</w>": 6540,
    "graph</w>": 6541,
    "superi": 6542,
    "chapter</w>": 6543,
    "covers</w>": 6544,
    "youth</w>": 6545,
    "1952</w>": 6546,
    "kish</w>": 6547,
    "seat</w>": 6548,
    "columbia</w>": 6549,
    "rhyth": 6550,
    "confu": 6551,
    "reali": 6552,
    "ises</w>": 6553,
    "ands</w>": 6554,
    "rever": 6555,
    "treated</w>": 6556,
    "isol": 6557,
    "classification</w>": 6558,
    "possibility</w>": 6559,
    "cia</w>": 6560,
    "incident</w>": 6561,
    "apple": 6562,
    "ode</w>": 6563,
    "innis</w>": 6564,
    "ceres</w>": 6565,
    "perón</w>": 6566,
    "weapons</w>": 6567,
    "rian</w>": 6568,
    "shou": 6569,
    "fantasy</w>": 6570,
    "mitted</w>": 6571,
    "fair": 6572,
    "tau": 6573,
    "not": 6574,
    "eighth</w>": 6575,
    "palace</w>": 6576,
    "thi": 6577,
    "grounds</w>": 6578,
    "kin</w>": 6579,
    "86</w>": 6580,
    "embar": 6581,
    "68</w>": 6582,
    "meter</w>": 6583,
    "deities</w>": 6584,
    "ologists</w>": 6585,
    "prosperity</w>": 6586,
    "ola</w>": 6587,
    "engaged</w>": 6588,
    "enz": 6589,
    "day": 6590,
    "mean</w>": 6591,
    "serva": 6592,
    "harb": 6593,
    "quake</w>": 6594,
    "1980</w>": 6595,
    "peninsula</w>": 6596,
    "barrow</w>": 6597,
    "rious</w>": 6598,
    "igu": 6599,
    "exist</w>": 6600,
    "citing</w>": 6601,
    "earl</w>": 6602,
    "inder</w>": 6603,
    "1946</w>": 6604,
    "tam": 6605,
    "industrial</w>": 6606,
    "haw": 6607,
    "greg": 6608,
    "munici": 6609,
    "croatia</w>": 6610,
    "characteristics</w>": 6611,
    "maintain</w>": 6612,
    "basic</w>": 6613,
    "nas": 6614,
    "opinion</w>": 6615,
    "dollars</w>": 6616,
    "weakened</w>": 6617,
    "tled</w>": 6618,
    "kare</w>": 6619,
    "turns</w>": 6620,
    "reality</w>": 6621,
    "asse": 6622,
    "technical</w>": 6623,
    "funding</w>": 6624,
    "charter</w>": 6625,
    "habitat</w>": 6626,
    "finish</w>": 6627,
    "performing</w>": 6628,
    "posite</w>": 6629,
    "efs</w>": 6630,
    "environment</w>": 6631,
    "bat</w>": 6632,
    "object</w>": 6633,
    "describing</w>": 6634,
    "farm</w>": 6635,
    "races</w>": 6636,
    "titude</w>": 6637,
    "drop</w>": 6638,
    "assin": 6639,
    "candidate</w>": 6640,
    "bean</w>": 6641,
    "sert</w>": 6642,
    "etres</w>": 6643,
    "anne</w>": 6644,
    "dc</w>": 6645,
    "begun</w>": 6646,
    "settlers</w>": 6647,
    "andy</w>": 6648,
    "kong</w>": 6649,
    "lun": 6650,
    "poems</w>": 6651,
    "typho": 6652,
    "mccall</w>": 6653,
    "anonymous</w>": 6654,
    "entry</w>": 6655,
    "load</w>": 6656,
    "evacu": 6657,
    "20s</w>": 6658,
    "planning</w>": 6659,
    "louis</w>": 6660,
    "gulf</w>": 6661,
    "entering</w>": 6662,
    "breaking</w>": 6663,
    "clin": 6664,
    "reserve</w>": 6665,
    "hai": 6666,
    "slowly</w>": 6667,
    "turning</w>": 6668,
    "eness</w>": 6669,
    "rarely</w>": 6670,
    "cally</w>": 6671,
    "accompani": 6672,
    "accompanied</w>": 6673,
    "opposition</w>": 6674,
    "erup": 6675,
    "longest</w>": 6676,
    "monument</w>": 6677,
    "tty</w>": 6678,
    "basin</w>": 6679,
    "slam</w>": 6680,
    "1969</w>": 6681,
    "politics</w>": 6682,
    "gab": 6683,
    "extrem": 6684,
    "hamels</w>": 6685,
    "compos": 6686,
    "moves</w>": 6687,
    "abilities</w>": 6688,
    "chance</w>": 6689,
    "pairs</w>": 6690,
    "electric</w>": 6691,
    "1943</w>": 6692,
    "bet</w>": 6693,
    "bands</w>": 6694,
    "spir": 6695,
    "developing</w>": 6696,
    "stopped</w>": 6697,
    "credited</w>": 6698,
    "pope</w>": 6699,
    "reci": 6700,
    "human": 6701,
    "sta</w>": 6702,
    "god": 6703,
    "dden": 6704,
    "abor": 6705,
    "1956</w>": 6706,
    "assassin": 6707,
    "fea": 6708,
    "novels</w>": 6709,
    "tim</w>": 6710,
    "walk</w>": 6711,
    "ope</w>": 6712,
    "portrayed</w>": 6713,
    "yn": 6714,
    "routes</w>": 6715,
    "*</w>": 6716,
    "isbn</w>": 6717,
    "paralympic</w>": 6718,
    "torres</w>": 6719,
    "missions</w>": 6720,
    "responded</w>": 6721,
    "tile</w>": 6722,
    "churches</w>": 6723,
    "leaves</w>": 6724,
    "suit</w>": 6725,
    "engineering</w>": 6726,
    "mes": 6727,
    "99</w>": 6728,
    "tz": 6729,
    "confes": 6730,
    "narra": 6731,
    "carib": 6732,
    "aj": 6733,
    "eland</w>": 6734,
    "1975</w>": 6735,
    "hop</w>": 6736,
    "windows</w>": 6737,
    "biblical</w>": 6738,
    "djed": 6739,
    "djedkare</w>": 6740,
    "getting</w>": 6741,
    "arranged</w>": 6742,
    "library</w>": 6743,
    "gone</w>": 6744,
    "teaching</w>": 6745,
    "receiving</w>": 6746,
    "cher": 6747,
    "opportunity</w>": 6748,
    "weigh": 6749,
    "transit</w>": 6750,
    "92</w>": 6751,
    "rural</w>": 6752,
    "visible</w>": 6753,
    "ports</w>": 6754,
    "ander</w>": 6755,
    "98</w>": 6756,
    "benef": 6757,
    "marines</w>": 6758,
    "eagle</w>": 6759,
    "classical</w>": 6760,
    "bush</w>": 6761,
    "kilometres</w>": 6762,
    "watched</w>": 6763,
    "chro": 6764,
    "lings</w>": 6765,
    "1965</w>": 6766,
    "conv": 6767,
    "extremely</w>": 6768,
    "1976</w>": 6769,
    "tav": 6770,
    "atop": 6771,
    "oslo</w>": 6772,
    "cake</w>": 6773,
    "touchdown</w>": 6774,
    "difficulty</w>": 6775,
    "changing</w>": 6776,
    "consisting</w>": 6777,
    "acity</w>": 6778,
    "store</w>": 6779,
    "denied</w>": 6780,
    "hau": 6781,
    "sort</w>": 6782,
    "cured</w>": 6783,
    "1936</w>": 6784,
    "plants</w>": 6785,
    "indicated</w>": 6786,
    "blo": 6787,
    "towers</w>": 6788,
    "succeeded</w>": 6789,
    "thousands</w>": 6790,
    "knew</w>": 6791,
    "univers": 6792,
    "establish</w>": 6793,
    "utili": 6794,
    "hard": 6795,
    "patro": 6796,
    "accur": 6797,
    "joint</w>": 6798,
    "sie": 6799,
    "provides</w>": 6800,
    "reviewers</w>": 6801,
    "gé</w>": 6802,
    "pregn": 6803,
    "sor</w>": 6804,
    "zz</w>": 6805,
    "mobi": 6806,
    "alan</w>": 6807,
    "skyscrapers</w>": 6808,
    "ou</w>": 6809,
    "tz</w>": 6810,
    "substan": 6811,
    "12th</w>": 6812,
    "remainder</w>": 6813,
    "wings</w>": 6814,
    "picture</w>": 6815,
    "soft</w>": 6816,
    "combination</w>": 6817,
    "missing</w>": 6818,
    "apart</w>": 6819,
    "passeng": 6820,
    "break": 6821,
    "steel</w>": 6822,
    "everything</w>": 6823,
    "distur": 6824,
    "cem": 6825,
    "mau": 6826,
    "concrete</w>": 6827,
    "ech": 6828,
    "casting</w>": 6829,
    "lisa</w>": 6830,
    "champion</w>": 6831,
    "nc</w>": 6832,
    "applewhite</w>": 6833,
    "spective</w>": 6834,
    "compon": 6835,
    "noting</w>": 6836,
    "umes</w>": 6837,
    "shall</w>": 6838,
    "aug": 6839,
    "valry</w>": 6840,
    "rising</w>": 6841,
    "interior</w>": 6842,
    "1973</w>": 6843,
    "tum": 6844,
    "natur": 6845,
    "studied</w>": 6846,
    "jones</w>": 6847,
    "1953</w>": 6848,
    "1957</w>": 6849,
    "enge</w>": 6850,
    "exchange</w>": 6851,
    "frame</w>": 6852,
    "divisions</w>": 6853,
    "key": 6854,
    "dg": 6855,
    "anni": 6856,
    "74</w>": 6857,
    "braz": 6858,
    "sector</w>": 6859,
    "dutch</w>": 6860,
    "jane</w>": 6861,
    "moon</w>": 6862,
    "sman</w>": 6863,
    "meters</w>": 6864,
    "01</w>": 6865,
    "madonna</w>": 6866,
    "maryland</w>": 6867,
    "cambridge</w>": 6868,
    "electronic</w>": 6869,
    "inland</w>": 6870,
    "mush": 6871,
    "code</w>": 6872,
    "cancel": 6873,
    "liberal</w>": 6874,
    "recru": 6875,
    "rum": 6876,
    "proces": 6877,
    "converted</w>": 6878,
    "establishment</w>": 6879,
    "reb": 6880,
    "holi": 6881,
    "plain</w>": 6882,
    "common": 6883,
    "vote</w>": 6884,
    "bringing</w>": 6885,
    "hollywood</w>": 6886,
    "funds</w>": 6887,
    "alo</w>": 6888,
    "distinguished</w>": 6889,
    "identity</w>": 6890,
    "atures</w>": 6891,
    "entation</w>": 6892,
    "persi": 6893,
    "providing</w>": 6894,
    "specifically</w>": 6895,
    "cratic</w>": 6896,
    "wars</w>": 6897,
    "senator</w>": 6898,
    "survived</w>": 6899,
    "format</w>": 6900,
    "daniel</w>": 6901,
    "af</w>": 6902,
    "warri": 6903,
    "scripts</w>": 6904,
    "1977</w>": 6905,
    "westward</w>": 6906,
    "juni": 6907,
    "dominated</w>": 6908,
    "boy": 6909,
    "dock</w>": 6910,
    "bce</w>": 6911,
    "remn": 6912,
    "crossing</w>": 6913,
    "storms</w>": 6914,
    "mobile</w>": 6915,
    "lev": 6916,
    "dolph": 6917,
    "brosn": 6918,
    "brosnan</w>": 6919,
    "vietnam": 6920,
    "irat": 6921,
    "rel": 6922,
    "crimin": 6923,
    "attached</w>": 6924,
    "feeling</w>": 6925,
    "distinct</w>": 6926,
    "conqu": 6927,
    "invited</w>": 6928,
    "mise</w>": 6929,
    "1915</w>": 6930,
    "challenge</w>": 6931,
    "rows</w>": 6932,
    "caught</w>": 6933,
    "archi": 6934,
    "82</w>": 6935,
    "choo": 6936,
    "towns</w>": 6937,
    "absor": 6938,
    "oning</w>": 6939,
    "approved</w>": 6940,
    "technique</w>": 6941,
    "caribbean</w>": 6942,
    "coastal</w>": 6943,
    "campaig": 6944,
    "apes</w>": 6945,
    "jump</w>": 6946,
    "blin</w>": 6947,
    "arc": 6948,
    "cardiff</w>": 6949,
    "nucleus</w>": 6950,
    "az": 6951,
    "completion</w>": 6952,
    "skil": 6953,
    "engineers</w>": 6954,
    "improve</w>": 6955,
    "stra</w>": 6956,
    "thetic</w>": 6957,
    "obtained</w>": 6958,
    "renamed</w>": 6959,
    "fon": 6960,
    "scott</w>": 6961,
    "than": 6962,
    "colorado</w>": 6963,
    "statis": 6964,
    "ameter</w>": 6965,
    "jesus</w>": 6966,
    "cd</w>": 6967,
    "chorus</w>": 6968,
    "looked</w>": 6969,
    "bone</w>": 6970,
    "interested</w>": 6971,
    "examples</w>": 6972,
    "francisco</w>": 6973,
    "violence</w>": 6974,
    "ora</w>": 6975,
    "junction</w>": 6976,
    "gang": 6977,
    "hunting</w>": 6978,
    "rob": 6979,
    "ek": 6980,
    "clean</w>": 6981,
    "acid</w>": 6982,
    "sweet</w>": 6983,
    "orche": 6984,
    "convention</w>": 6985,
    "1917</w>": 6986,
    "pha": 6987,
    "bought</w>": 6988,
    "paintings</w>": 6989,
    "1983</w>": 6990,
    "1948</w>": 6991,
    "fare</w>": 6992,
    "warm</w>": 6993,
    "secure</w>": 6994,
    "replace</w>": 6995,
    "ome": 6996,
    "graded</w>": 6997,
    "supplies</w>": 6998,
    "py": 6999,
    "manner</w>": 7000,
    "reputation</w>": 7001,
    "satur": 7002,
    "raid</w>": 7003,
    "tine</w>": 7004,
    "normally</w>": 7005,
    "aboli": 7006,
    "internal</w>": 7007,
    "1978</w>": 7008,
    "arm</w>": 7009,
    "1966</w>": 7010,
    "climate</w>": 7011,
    "crowd</w>": 7012,
    "cougar</w>": 7013,
    "irataba</w>": 7014,
    "adapted</w>": 7015,
    "greatly</w>": 7016,
    "protect</w>": 7017,
    "incorporated</w>": 7018,
    "ninten": 7019,
    "passage</w>": 7020,
    "spirit</w>": 7021,
    "admitted</w>": 7022,
    "attributed</w>": 7023,
    "ssive</w>": 7024,
    "06</w>": 7025,
    "narrow</w>": 7026,
    "dney</w>": 7027,
    "bo</w>": 7028,
    "holy</w>": 7029,
    "separated</w>": 7030,
    "triple</w>": 7031,
    "scholars</w>": 7032,
    "spher": 7033,
    "circum": 7034,
    "musli": 7035,
    "label</w>": 7036,
    "kri": 7037,
    "hundre": 7038,
    "throw</w>": 7039,
    "stol</w>": 7040,
    "osc": 7041,
    "chair": 7042,
    "derived</w>": 7043,
    "speak</w>": 7044,
    "immi": 7045,
    "talk</w>": 7046,
    "rivers</w>": 7047,
    "tab": 7048,
    "02</w>": 7049,
    "gery</w>": 7050,
    "pc</w>": 7051,
    "arab</w>": 7052,
    "tribes</w>": 7053,
    "abu</w>": 7054,
    "destiny</w>": 7055,
    "professor</w>": 7056,
    "utc</w>": 7057,
    "keats</w>": 7058,
    "vietnamese</w>": 7059,
    "neverth": 7060,
    "nevertheless</w>": 7061,
    "nintendo</w>": 7062,
    "seri": 7063,
    "exter": 7064,
    "legislat": 7065,
    "won": 7066,
    "beauti": 7067,
    "dos</w>": 7068,
    "wins</w>": 7069,
    "samu": 7070,
    "97</w>": 7071,
    "magne": 7072,
    "nomination</w>": 7073,
    "athletic</w>": 7074,
    "communities</w>": 7075,
    "agu": 7076,
    "grow</w>": 7077,
    "rober": 7078,
    "competitions</w>": 7079,
    "decline</w>": 7080,
    "1913</w>": 7081,
    "norway</w>": 7082,
    "eda</w>": 7083,
    "leads</w>": 7084,
    "liked</w>": 7085,
    "grey</w>": 7086,
    "1963</w>": 7087,
    "genre</w>": 7088,
    "viruses</w>": 7089,
    "cambo": 7090,
    "outs</w>": 7091,
    "shad": 7092,
    "appropri": 7093,
    "1912</w>": 7094,
    "progress</w>": 7095,
    "fine</w>": 7096,
    "painting</w>": 7097,
    "taught</w>": 7098,
    "esting</w>": 7099,
    "agency</w>": 7100,
    "pointed</w>": 7101,
    "measure</w>": 7102,
    "selection</w>": 7103,
    "mad</w>": 7104,
    "offers</w>": 7105,
    "agents</w>": 7106,
    "mented</w>": 7107,
    "streets</w>": 7108,
    "crosses</w>": 7109,
    "nelson</w>": 7110,
    "ots</w>": 7111,
    "atives</w>": 7112,
    "fear</w>": 7113,
    "terran": 7114,
    "capable</w>": 7115,
    "soul</w>": 7116,
    "phic</w>": 7117,
    "big": 7118,
    "indicate</w>": 7119,
    "agonist</w>": 7120,
    "sels</w>": 7121,
    "onaire</w>": 7122,
    "kent</w>": 7123,
    "nathan</w>": 7124,
    "comics</w>": 7125,
    "dota</w>": 7126,
    "stom": 7127,
    "classes</w>": 7128,
    "shared</w>": 7129,
    "pattern</w>": 7130,
    "spr": 7131,
    "tioning</w>": 7132,
    "emerged</w>": 7133,
    "advoc": 7134,
    "84</w>": 7135,
    "terranean</w>": 7136,
    "egypt</w>": 7137,
    "creator</w>": 7138,
    "nership</w>": 7139,
    "schem": 7140,
    "charges</w>": 7141,
    "split</w>": 7142,
    "ducing</w>": 7143,
    "theater</w>": 7144,
    "orbit</w>": 7145,
    "eton</w>": 7146,
    "touri": 7147,
    "metro": 7148,
    "constitution</w>": 7149,
    "block</w>": 7150,
    "puzz": 7151,
    "conserva": 7152,
    "bari</w>": 7153,
    "nate</w>": 7154,
    "someone</w>": 7155,
    "purchase</w>": 7156,
    "connection</w>": 7157,
    "valu": 7158,
    "lished</w>": 7159,
    "camera</w>": 7160,
    "delivered</w>": 7161,
    "traveled</w>": 7162,
    "tests</w>": 7163,
    "rement</w>": 7164,
    "settled</w>": 7165,
    "origin</w>": 7166,
    "crossed</w>": 7167,
    "debate</w>": 7168,
    "questions</w>": 7169,
    "accounts</w>": 7170,
    "ulate</w>": 7171,
    "fore": 7172,
    "stock</w>": 7173,
    "cruiser</w>": 7174,
    "leagues</w>": 7175,
    "isab": 7176,
    "arre": 7177,
    "ratings</w>": 7178,
    "considerable</w>": 7179,
    "techniques</w>": 7180,
    "controvers": 7181,
    "controversy</w>": 7182,
    "chers</w>": 7183,
    "mar</w>": 7184,
    "belt</w>": 7185,
    "15th</w>": 7186,
    "macle": 7187,
    "alla": 7188,
    "ann</w>": 7189,
    "task</w>": 7190,
    "formal</w>": 7191,
    "bi</w>": 7192,
    "ceived</w>": 7193,
    "hori": 7194,
    "confeder": 7195,
    "cler": 7196,
    "scientific</w>": 7197,
    "atus</w>": 7198,
    "73</w>": 7199,
    "08</w>": 7200,
    "treat</w>": 7201,
    "admiral</w>": 7202,
    "income</w>": 7203,
    "sab": 7204,
    "sole</w>": 7205,
    "acces": 7206,
    "1971</w>": 7207,
    "materi": 7208,
    "puni": 7209,
    "howard</w>": 7210,
    "chairman</w>": 7211,
    "tedly</w>": 7212,
    "agricultural</w>": 7213,
    "methods</w>": 7214,
    "anthony</w>": 7215,
    "1979</w>": 7216,
    "ace": 7217,
    "turner</w>": 7218,
    "candid": 7219,
    "houston</w>": 7220,
    "yon</w>": 7221,
    "hits</w>": 7222,
    "las": 7223,
    "kang</w>": 7224,
    "isy</w>": 7225,
    "watchmen</w>": 7226,
    "iguano": 7227,
    "memory</w>": 7228,
    "tone</w>": 7229,
    "simon</w>": 7230,
    "ura</w>": 7231,
    "signing</w>": 7232,
    "winner</w>": 7233,
    "suffering</w>": 7234,
    "continuing</w>": 7235,
    "88</w>": 7236,
    "armor</w>": 7237,
    "causes</w>": 7238,
    "online</w>": 7239,
    "concerns</w>": 7240,
    "recognition</w>": 7241,
    "suggest</w>": 7242,
    "isolated</w>": 7243,
    "discussed</w>": 7244,
    "zona</w>": 7245,
    "alli": 7246,
    "hamp": 7247,
    "contex": 7248,
    "ules</w>": 7249,
    "rates</w>": 7250,
    "aster": 7251,
    "kid": 7252,
    "convic": 7253,
    "120</w>": 7254,
    "eliza": 7255,
    "adventure</w>": 7256,
    "mayor</w>": 7257,
    "marke": 7258,
    "jazz</w>": 7259,
    "cinem": 7260,
    "relative</w>": 7261,
    "07</w>": 7262,
    "argentina</w>": 7263,
    "chess</w>": 7264,
    "nock</w>": 7265,
    "typhoon</w>": 7266,
    "otherwise</w>": 7267,
    "ji</w>": 7268,
    "capacity</w>": 7269,
    "usa</w>": 7270,
    "sufficient</w>": 7271,
    "stev": 7272,
    "assistance</w>": 7273,
    "disc</w>": 7274,
    "controversi": 7275,
    "detro": 7276,
    "detroit</w>": 7277,
    "dying</w>": 7278,
    "samuel</w>": 7279,
    "sche": 7280,
    "observations</w>": 7281,
    "diameter</w>": 7282,
    "83</w>": 7283,
    "wooden</w>": 7284,
    "universe</w>": 7285,
    "deep": 7286,
    "sha</w>": 7287,
    "alexander</w>": 7288,
    "ben</w>": 7289,
    "phen": 7290,
    "soil</w>": 7291,
    "rescue</w>": 7292,
    "heaven</w>": 7293,
    "arizona</w>": 7294,
    "priest</w>": 7295,
    "certified</w>": 7296,
    "hear</w>": 7297,
    "gations</w>": 7298,
    "pet</w>": 7299,
    "legs</w>": 7300,
    "solution</w>": 7301,
    "jersey</w>": 7302,
    "patrick</w>": 7303,
    "strength": 7304,
    "03</w>": 7305,
    "sentence</w>": 7306,
    "rati": 7307,
    "turkish</w>": 7308,
    "rapid</w>": 7309,
    "bridges</w>": 7310,
    "hergé</w>": 7311,
    "thunderbirds</w>": 7312,
    "mulder</w>": 7313,
    "āda</w>": 7314,
    "myster": 7315,
    "designs</w>": 7316,
    "civilian</w>": 7317,
    "duties</w>": 7318,
    "amate": 7319,
    "1954</w>": 7320,
    "child": 7321,
    "1920</w>": 7322,
    "compete</w>": 7323,
    "ninth</w>": 7324,
    "tman</w>": 7325,
    "solid</w>": 7326,
    "trials</w>": 7327,
    "resistance</w>": 7328,
    "romantic</w>": 7329,
    "wedding</w>": 7330,
    "outstanding</w>": 7331,
    "references</w>": 7332,
    "ges": 7333,
    "depicted</w>": 7334,
    "evil</w>": 7335,
    "desire</w>": 7336,
    "tro</w>": 7337,
    "operating</w>": 7338,
    "siege</w>": 7339,
    "strike</w>": 7340,
    "assist</w>": 7341,
    "replacement</w>": 7342,
    "products</w>": 7343,
    "rio</w>": 7344,
    "involvement</w>": 7345,
    "jar": 7346,
    "ager</w>": 7347,
    "phone</w>": 7348,
    "communist</w>": 7349,
    "trail</w>": 7350,
    "doctr": 7351,
    "cket</w>": 7352,
    "champions</w>": 7353,
    "michelle</w>": 7354,
    "parallel</w>": 7355,
    "escor": 7356,
    "graphics</w>": 7357,
    "adaptation</w>": 7358,
    "message</w>": 7359,
    "gency</w>": 7360,
    "1955</w>": 7361,
    "sand</w>": 7362,
    "strate</w>": 7363,
    "insur": 7364,
    "involving</w>": 7365,
    "posted</w>": 7366,
    "cardinal</w>": 7367,
    "hills</w>": 7368,
    "sects</w>": 7369,
    "stephen</w>": 7370,
    "sell</w>": 7371,
    "displac": 7372,
    "bow</w>": 7373,
    "princess</w>": 7374,
    "buffalo</w>": 7375,
    "leadership</w>": 7376,
    "hoped</w>": 7377,
    "teacher</w>": 7378,
    "reviewer</w>": 7379,
    "xe</w>": 7380,
    "hundreds</w>": 7381,
    "var</w>": 7382,
    "facing</w>": 7383,
    "substitu": 7384,
    "affairs</w>": 7385,
    "albert</w>": 7386,
    "trust</w>": 7387,
    "elizabeth</w>": 7388,
    "nbc</w>": 7389,
    "adam</w>": 7390,
    "kem": 7391,
    "heritage</w>": 7392,
    "showing</w>": 7393,
    "blan": 7394,
    "alised</w>": 7395,
    "schu": 7396,
    "quarter": 7397,
    "dot</w>": 7398,
    "mtv</w>": 7399,
    "kni": 7400,
    "turn": 7401,
    "millionaire</w>": 7402,
    "juan</w>": 7403,
    "redshift</w>": 7404,
    "prede": 7405,
    "predecess": 7406,
    "carrying</w>": 7407,
    "none</w>": 7408,
    "vals</w>": 7409,
    "instruc": 7410,
    "250</w>": 7411,
    "10th</w>": 7412,
    "1958</w>": 7413,
    "restored</w>": 7414,
    "scat": 7415,
    "favorite</w>": 7416,
    "amon": 7417,
    "continental</w>": 7418,
    "ot": 7419,
    "shots</w>": 7420,
    "finishing</w>": 7421,
    "observatory</w>": 7422,
    "gia</w>": 7423,
    "restaurant</w>": 7424,
    "versary</w>": 7425,
    "ude</w>": 7426,
    "cycle</w>": 7427,
    "existed</w>": 7428,
    "product</w>": 7429,
    "horn": 7430,
    "rus</w>": 7431,
    "encouraged</w>": 7432,
    "lets</w>": 7433,
    "grass</w>": 7434,
    "plane</w>": 7435,
    "submarine</w>": 7436,
    "smen</w>": 7437,
    "math</w>": 7438,
    "fictional</w>": 7439,
    "historians</w>": 7440,
    "afterwards</w>": 7441,
    "approached</w>": 7442,
    "earthquake</w>": 7443,
    "meets</w>": 7444,
    "print</w>": 7445,
    "harrison</w>": 7446,
    "dar</w>": 7447,
    "pit</w>": 7448,
    "pium</w>": 7449,
    "retained</w>": 7450,
    "instruments</w>": 7451,
    "consider</w>": 7452,
    "deleg": 7453,
    "noon</w>": 7454,
    "atmosphere</w>": 7455,
    "mon</w>": 7456,
    "tted</w>": 7457,
    "ance": 7458,
    "offs</w>": 7459,
    "penalty</w>": 7460,
    "fting</w>": 7461,
    "terminus</w>": 7462,
    "monit": 7463,
    "delaware</w>": 7464,
    "gho": 7465,
    "divine</w>": 7466,
    "relationships</w>": 7467,
    "universal</w>": 7468,
    "asser": 7469,
    "sounds</w>": 7470,
    "om</w>": 7471,
    "pro</w>": 7472,
    "anger</w>": 7473,
    "shoot</w>": 7474,
    "destruction</w>": 7475,
    "pione": 7476,
    "stands</w>": 7477,
    "forests</w>": 7478,
    "absol": 7479,
    "onica</w>": 7480,
    "giant</w>": 7481,
    "believes</w>": 7482,
    "stret": 7483,
    "alu": 7484,
    "lad</w>": 7485,
    "entitled</w>": 7486,
    "fies</w>": 7487,
    "camps</w>": 7488,
    "kins</w>": 7489,
    "sale</w>": 7490,
    "atom": 7491,
    "wine</w>": 7492,
    "×</w>": 7493,
    "organisms</w>": 7494,
    "sheep</w>": 7495,
    "ego</w>": 7496,
    "boise</w>": 7497,
    "europium</w>": 7498,
    "target</w>": 7499,
    "tune</w>": 7500,
    "legislature</w>": 7501,
    "locks</w>": 7502,
    "rank</w>": 7503,
    "green": 7504,
    "cost": 7505,
    "1961</w>": 7506,
    "richar": 7507,
    "dialo": 7508,
    "dressed</w>": 7509,
    "chec": 7510,
    "hypo": 7511,
    "strongly</w>": 7512,
    "civili": 7513,
    "mista": 7514,
    "shir": 7515,
    "unusual</w>": 7516,
    "gon": 7517,
    "actual</w>": 7518,
    "fuel</w>": 7519,
    "legislation</w>": 7520,
    "respect</w>": 7521,
    "flags</w>": 7522,
    "asc": 7523,
    "oxi": 7524,
    "file</w>": 7525,
    "courts</w>": 7526,
    "democratic</w>": 7527,
    "offices</w>": 7528,
    "rice</w>": 7529,
    "jim": 7530,
    "feelings</w>": 7531,
    "global</w>": 7532,
    "sna": 7533,
    "bart</w>": 7534,
    "dublin</w>": 7535,
    "uly": 7536,
    "ulysses</w>": 7537,
    "gully</w>": 7538,
    "ánh</w>": 7539,
    "distributed</w>": 7540,
    "ading</w>": 7541,
    "apo": 7542,
    "enterprise</w>": 7543,
    "tivated</w>": 7544,
    "organizations</w>": 7545,
    "christ</w>": 7546,
    "1937</w>": 7547,
    "recogn": 7548,
    "expec": 7549,
    "phoenix</w>": 7550,
    "protest</w>": 7551,
    "87</w>": 7552,
    "remix</w>": 7553,
    "steam</w>": 7554,
    "tide</w>": 7555,
    "easily</w>": 7556,
    "roy</w>": 7557,
    "tant</w>": 7558,
    "magic</w>": 7559,
    "ja</w>": 7560,
    "victim": 7561,
    "anniversary</w>": 7562,
    "belief</w>": 7563,
    "step</w>": 7564,
    "ruled</w>": 7565,
    "environmental</w>": 7566,
    "expensive</w>": 7567,
    "acre</w>": 7568,
    "successor</w>": 7569,
    "stere": 7570,
    "ah": 7571,
    "storyline</w>": 7572,
    "sessions</w>": 7573,
    "regularly</w>": 7574,
    "credits</w>": 7575,
    "fter</w>": 7576,
    "jews</w>": 7577,
    "alization</w>": 7578,
    "germans</w>": 7579,
    "designation</w>": 7580,
    "evita</w>": 7581,
    "glori": 7582,
    "sunday</w>": 7583,
    "jamal</w>": 7584,
    "allo": 7585,
    "xy</w>": 7586,
    "mode</w>": 7587,
    "flank</w>": 7588,
    "dissipated</w>": 7589,
    "membran": 7590,
    "atops</w>": 7591,
    "atlantis</w>": 7592,
    "certain": 7593,
    "arsen": 7594,
    "ppi</w>": 7595,
    "1911</w>": 7596,
    "colour</w>": 7597,
    "walter</w>": 7598,
    "freedom</w>": 7599,
    "beautiful</w>": 7600,
    "plus</w>": 7601,
    "joining</w>": 7602,
    "inspiration</w>": 7603,
    "abled</w>": 7604,
    "gw": 7605,
    "eph": 7606,
    "superior</w>": 7607,
    "jon": 7608,
    "extreme</w>": 7609,
    "dismissed</w>": 7610,
    "practices</w>": 7611,
    "ints</w>": 7612,
    "bling</w>": 7613,
    "kal": 7614,
    "commanded</w>": 7615,
    "accom": 7616,
    "reconnaissance</w>": 7617,
    "resources</w>": 7618,
    "pitch</w>": 7619,
    "alien</w>": 7620,
    "rent</w>": 7621,
    "convoy</w>": 7622,
    "yne</w>": 7623,
    "exit</w>": 7624,
    "alities</w>": 7625,
    "parks</w>": 7626,
    "khánh</w>": 7627,
    "ultimate</w>": 7628,
    "mississi": 7629,
    "laboratory</w>": 7630,
    "elder</w>": 7631,
    "garden</w>": 7632,
    "precipit": 7633,
    "pref": 7634,
    "eat": 7635,
    "ré": 7636,
    "imple": 7637,
    "poor": 7638,
    "generated</w>": 7639,
    "tang": 7640,
    "opposite</w>": 7641,
    "ont": 7642,
    "concerned</w>": 7643,
    "behavior</w>": 7644,
    "essel</w>": 7645,
    "styles</w>": 7646,
    "bure": 7647,
    "proposal</w>": 7648,
    "sump": 7649,
    "presidential</w>": 7650,
    "rival</w>": 7651,
    "regime</w>": 7652,
    "illo</w>": 7653,
    "wearing</w>": 7654,
    "yo</w>": 7655,
    "disney</w>": 7656,
    "judge</w>": 7657,
    "planets</w>": 7658,
    "heroes</w>": 7659,
    "morgan</w>": 7660,
    "statement</w>": 7661,
    "eleven</w>": 7662,
    "coat</w>": 7663,
    "santa</w>": 7664,
    "rocky</w>": 7665,
    "iro</w>": 7666,
    "hooper</w>": 7667,
    "inc</w>": 7668,
    "aston</w>": 7669,
    "anus</w>": 7670,
    "trek</w>": 7671,
    "command": 7672,
    "liu</w>": 7673,
    "franchi": 7674,
    "franchise</w>": 7675,
    "chi</w>": 7676,
    "essential</w>": 7677,
    "responsibility</w>": 7678,
    "seemed</w>": 7679,
    "gi</w>": 7680,
    "iring</w>": 7681,
    "painted</w>": 7682,
    "freder": 7683,
    "roots</w>": 7684,
    "fair</w>": 7685,
    "art": 7686,
    "1920s</w>": 7687,
    "specimens</w>": 7688,
    "trun": 7689,
    "tale</w>": 7690,
    "disci": 7691,
    "uc": 7692,
    "research": 7693,
    "burgh</w>": 7694,
    "owner</w>": 7695,
    "accept</w>": 7696,
    "pier": 7697,
    "heat</w>": 7698,
    "hosted</w>": 7699,
    "confi": 7700,
    "attracted</w>": 7701,
    "solar</w>": 7702,
    "count</w>": 7703,
    "learning</w>": 7704,
    "nine": 7705,
    "apparent</w>": 7706,
    "standards</w>": 7707,
    "parties</w>": 7708,
    "gosla": 7709,
    "adjac": 7710,
    "mexican</w>": 7711,
    "mol": 7712,
    "1931</w>": 7713,
    "1951</w>": 7714,
    "mccar": 7715,
    "influential</w>": 7716,
    "alia</w>": 7717,
    "altar</w>": 7718,
    "kev": 7719,
    "territories</w>": 7720,
    "launch</w>": 7721,
    "russia</w>": 7722,
    "warning</w>": 7723,
    "bacterial</w>": 7724,
    "simone</w>": 7725,
    "tenny": 7726,
    "tennyson</w>": 7727,
    "ade": 7728,
    "mississippi</w>": 7729,
    "somewhat</w>": 7730,
    "documents</w>": 7731,
    "shops</w>": 7732,
    "visitors</w>": 7733,
    "dily</w>": 7734,
    "installed</w>": 7735,
    "represents</w>": 7736,
    "threatened</w>": 7737,
    "worst</w>": 7738,
    "preserved</w>": 7739,
    "joe</w>": 7740,
    "apparently</w>": 7741,
    "medium</w>": 7742,
    "productions</w>": 7743,
    "victims</w>": 7744,
    "cult</w>": 7745,
    "worship</w>": 7746,
    "vessel</w>": 7747,
    "lying</w>": 7748,
    "fis": 7749,
    "flights</w>": 7750,
    "eu</w>": 7751,
    "formally</w>": 7752,
    "concentr": 7753,
    "ć</w>": 7754,
    "simultane": 7755,
    "sach": 7756,
    "detailed</w>": 7757,
    "secured</w>": 7758,
    "tox": 7759,
    "oid</w>": 7760,
    "ee</w>": 7761,
    "academic</w>": 7762,
    "ield</w>": 7763,
    "stran": 7764,
    "emotional</w>": 7765,
    "australians</w>": 7766,
    "lder</w>": 7767,
    "burn": 7768,
    "forty</w>": 7769,
    "plun": 7770,
    "directors</w>": 7771,
    "adults</w>": 7772,
    "counties</w>": 7773,
    "elect": 7774,
    "guy</w>": 7775,
    "vert</w>": 7776,
    "homer</w>": 7777,
    "macleod</w>": 7778,
    "chelsea</w>": 7779,
    "noisy</w>": 7780,
    "divor": 7781,
    "aga</w>": 7782,
    "possession</w>": 7783,
    "stayed</w>": 7784,
    "dominant</w>": 7785,
    "vio": 7786,
    "properties</w>": 7787,
    "aci": 7788,
    "mete": 7789,
    "inian</w>": 7790,
    "inju": 7791,
    "ldn</w>": 7792,
    "require</w>": 7793,
    "mediterranean</w>": 7794,
    "aft</w>": 7795,
    "surrounded</w>": 7796,
    "slo": 7797,
    "recur": 7798,
    "philosoph": 7799,
    "yugosla": 7800,
    "adjacent</w>": 7801,
    "bic": 7802,
    "supporters</w>": 7803,
    "strand</w>": 7804,
    "atro": 7805,
    "witne": 7806,
    "wag": 7807,
    "1949</w>": 7808,
    "indeed</w>": 7809,
    "fresh</w>": 7810,
    "rabb": 7811,
    "ari</w>": 7812,
    "junior</w>": 7813,
    "offense</w>": 7814,
    "kom": 7815,
    "values</w>": 7816,
    "leman</w>": 7817,
    "dramatic</w>": 7818,
    "pati": 7819,
    "furious</w>": 7820,
    "perry</w>": 7821,
    "masters</w>": 7822,
    "partly</w>": 7823,
    "recalled</w>": 7824,
    "supposed</w>": 7825,
    "demand</w>": 7826,
    "doubt</w>": 7827,
    "eff</w>": 7828,
    "carter</w>": 7829,
    "las</w>": 7830,
    "intersection</w>": 7831,
    "attacking</w>": 7832,
    "frag": 7833,
    "languages</w>": 7834,
    "immediate</w>": 7835,
    "rid": 7836,
    "aim": 7837,
    "promised</w>": 7838,
    "corp": 7839,
    "abun": 7840,
    "colors</w>": 7841,
    "mention</w>": 7842,
    "del</w>": 7843,
    "althy</w>": 7844,
    "factory</w>": 7845,
    "operate</w>": 7846,
    "sight</w>": 7847,
    "abs": 7848,
    "coins</w>": 7849,
    "trans</w>": 7850,
    "electro": 7851,
    "electron</w>": 7852,
    "occasions</w>": 7853,
    "prison</w>": 7854,
    "opponents</w>": 7855,
    "sees</w>": 7856,
    "leon": 7857,
    "jean</w>": 7858,
    "honor": 7859,
    "measu": 7860,
    "road": 7861,
    "metropoli": 7862,
    "else": 7863,
    "territorial</w>": 7864,
    "yn</w>": 7865,
    "3d</w>": 7866,
    "rangers</w>": 7867,
    "cry": 7868,
    "files</w>": 7869,
    "resolution</w>": 7870,
    "revolu": 7871,
    "sequel</w>": 7872,
    "promote</w>": 7873,
    "page</w>": 7874,
    "favor</w>": 7875,
    "amateur</w>": 7876,
    "recommended</w>": 7877,
    "spear": 7878,
    "guardian</w>": 7879,
    "1962</w>": 7880,
    "vent": 7881,
    "hire</w>": 7882,
    "picked</w>": 7883,
    "nebr": 7884,
    "nebraska</w>": 7885,
    "definition</w>": 7886,
    "fashion</w>": 7887,
    "graphy</w>": 7888,
    "1910</w>": 7889,
    "ritual</w>": 7890,
    "hosti": 7891,
    "stric": 7892,
    "atters</w>": 7893,
    "faster</w>": 7894,
    "erly</w>": 7895,
    "notably</w>": 7896,
    "prohi": 7897,
    "effectively</w>": 7898,
    "spoke</w>": 7899,
    "surviving</w>": 7900,
    "elled</w>": 7901,
    "aftermath</w>": 7902,
    "clark</w>": 7903,
    "rox": 7904,
    "dwin</w>": 7905,
    "09</w>": 7906,
    "ling": 7907,
    "arrangement</w>": 7908,
    "audio</w>": 7909,
    "13th</w>": 7910,
    "shaman": 7911,
    "giants</w>": 7912,
    "cky</w>": 7913,
    "labour</w>": 7914,
    "edwin</w>": 7915,
    "georgian</w>": 7916,
    "vn</w>": 7917,
    "tay</w>": 7918,
    "enders</w>": 7919,
    "lose</w>": 7920,
    "oh</w>": 7921,
    "equal</w>": 7922,
    "iv</w>": 7923,
    "register</w>": 7924,
    "merged</w>": 7925,
    "apti": 7926,
    "printed</w>": 7927,
    "willing</w>": 7928,
    "gallery</w>": 7929,
    "plate</w>": 7930,
    "modified</w>": 7931,
    "starred</w>": 7932,
    "needs</w>": 7933,
    "sisters</w>": 7934,
    "flood</w>": 7935,
    "drin": 7936,
    "eri": 7937,
    "ordinary</w>": 7938,
    "wants</w>": 7939,
    "absence</w>": 7940,
    "firing</w>": 7941,
    "assassination</w>": 7942,
    "preferred</w>": 7943,
    "veronica</w>": 7944,
    "obser": 7945,
    "terr": 7946,
    "footage</w>": 7947,
    "hospit": 7948,
    "recovered</w>": 7949,
    "sy</w>": 7950,
    "interstate</w>": 7951,
    "weak</w>": 7952,
    "dle": 7953,
    "dako": 7954,
    "mushroom</w>": 7955,
    "eli</w>": 7956,
    "eggs</w>": 7957,
    "aml</w>": 7958,
    "tunnel</w>": 7959,
    "raven</w>": 7960,
    "sub</w>": 7961,
    "tated</w>": 7962,
    "ette</w>": 7963,
    "functions</w>": 7964,
    "window</w>": 7965,
    "influences</w>": 7966,
    "promise</w>": 7967,
    "ente": 7968,
    "gosp": 7969,
    "1959</w>": 7970,
    "committed</w>": 7971,
    "listing</w>": 7972,
    "gy": 7973,
    "roof</w>": 7974,
    "jon</w>": 7975,
    "east": 7976,
    "equipped</w>": 7977,
    "engines</w>": 7978,
    "jr</w>": 7979,
    "shr": 7980,
    "remin": 7981,
    "devi": 7982,
    "drums</w>": 7983,
    "lanes</w>": 7984,
    "160</w>": 7985,
    "vali": 7986,
    "concent": 7987,
    "closer</w>": 7988,
    "charged</w>": 7989,
    "leu": 7990,
    "hearts</w>": 7991,
    "suspec": 7992,
    "blocks</w>": 7993,
    "cbs</w>": 7994,
    "stock": 7995,
    "publishing</w>": 7996,
    "xes</w>": 7997,
    "davies</w>": 7998,
    "wich</w>": 7999,
    "elsewhere</w>": 8000,
    "soc": 8001,
    "tales</w>": 8002,
    "wright</w>": 8003,
    "kson</w>": 8004,
    "lis": 8005,
    "situated</w>": 8006,
    "archaeology</w>": 8007,
    "roger</w>": 8008,
    "phr": 8009,
    "subspecies</w>": 8010,
    "skyscraper</w>": 8011,
    "squad</w>": 8012,
    "sely</w>": 8013,
    "platform</w>": 8014,
    "deposi": 8015,
    "lincol": 8016,
    "11th</w>": 8017,
    "returns</w>": 8018,
    "frederick</w>": 8019,
    "institutions</w>": 8020,
    "propag": 8021,
    "diamon": 8022,
    "ouri": 8023,
    "suggesting</w>": 8024,
    "mature</w>": 8025,
    "understanding</w>": 8026,
    "lowest</w>": 8027,
    "falling</w>": 8028,
    "haiti</w>": 8029,
    "equivalent</w>": 8030,
    "flag": 8031,
    "tta</w>": 8032,
    "garian</w>": 8033,
    "destroy</w>": 8034,
    "linked</w>": 8035,
    "hornung</w>": 8036,
    "counter</w>": 8037,
    "ffs</w>": 8038,
    "inhabit": 8039,
    "lind": 8040,
    "nether": 8041,
    "licen": 8042,
    "1909</w>": 8043,
    "croatian</w>": 8044,
    "destroyers</w>": 8045,
    "repeated</w>": 8046,
    "portions</w>": 8047,
    "desert</w>": 8048,
    "watching</w>": 8049,
    "wasp</w>": 8050,
    "orist</w>": 8051,
    "measures</w>": 8052,
    "musicians</w>": 8053,
    "judi": 8054,
    "reas": 8055,
    "sav": 8056,
    "brun": 8057,
    "venues</w>": 8058,
    "partial</w>": 8059,
    "aa</w>": 8060,
    "1935</w>": 8061,
    "chair</w>": 8062,
    "moz": 8063,
    "fountain</w>": 8064,
    "constantine</w>": 8065,
    "extinc": 8066,
    "oj": 8067,
    "colonial</w>": 8068,
    "lords</w>": 8069,
    "trains</w>": 8070,
    "colonies</w>": 8071,
    "sune</w>": 8072,
    "interests</w>": 8073,
    "multi</w>": 8074,
    "ryan</w>": 8075,
    "assumed</w>": 8076,
    "colli": 8077,
    "900</w>": 8078,
    "else</w>": 8079,
    "eman</w>": 8080,
    "1938</w>": 8081,
    "bible</w>": 8082,
    "1927</w>": 8083,
    "commonwealth</w>": 8084,
    "meteor": 8085,
    "cope</w>": 8086,
    "nah</w>": 8087,
    "nic</w>": 8088,
    "neck</w>": 8089,
    "turrets</w>": 8090,
    "attempting</w>": 8091,
    "relations</w>": 8092,
    "signs</w>": 8093,
    "credit</w>": 8094,
    "exception</w>": 8095,
    "constant</w>": 8096,
    "ao</w>": 8097,
    "trained</w>": 8098,
    "segment</w>": 8099,
    "fram": 8100,
    "bank": 8101,
    "documentary</w>": 8102,
    "á</w>": 8103,
    "regard</w>": 8104,
    "bern": 8105,
    "oon</w>": 8106,
    "abc</w>": 8107,
    "attend": 8108,
    "driving</w>": 8109,
    "proto": 8110,
    "evo</w>": 8111,
    "journalist</w>": 8112,
    "bey</w>": 8113,
    "dogs</w>": 8114,
    "dino": 8115,
    "cit": 8116,
    "spacing</w>": 8117,
    "simpsons</w>": 8118,
    "jerem": 8119,
    "arc</w>": 8120,
    "hibari</w>": 8121,
    "yoshi</w>": 8122,
    "maeda</w>": 8123,
    "pennock</w>": 8124,
    "accused</w>": 8125,
    "factor</w>": 8126,
    "sei": 8127,
    "fate</w>": 8128,
    "specimen</w>": 8129,
    "reinfor": 8130,
    "citizens</w>": 8131,
    "inaug": 8132,
    "displayed</w>": 8133,
    "dent": 8134,
    "coinci": 8135,
    "forti": 8136,
    "fixed</w>": 8137,
    "landed</w>": 8138,
    "kick</w>": 8139,
    "tra</w>": 8140,
    "integr": 8141,
    "shipping</w>": 8142,
    "theology</w>": 8143,
    "arities</w>": 8144,
    "employe": 8145,
    "limit</w>": 8146,
    "isation</w>": 8147,
    "anes</w>": 8148,
    "cos</w>": 8149,
    "screen": 8150,
    "obli": 8151,
    "organ</w>": 8152,
    "whel": 8153,
    "compounds</w>": 8154,
    "characterized</w>": 8155,
    "bradford</w>": 8156,
    "conservative</w>": 8157,
    "ye</w>": 8158,
    "tering</w>": 8159,
    "mrs</w>": 8160,
    "had": 8161,
    "qed": 8162,
    "romani</w>": 8163,
    "bene": 8164,
    "representing</w>": 8165,
    "telling</w>": 8166,
    "facts</w>": 8167,
    "etings</w>": 8168,
    "1908</w>": 8169,
    "enters</w>": 8170,
    "circulation</w>": 8171,
    "04</w>": 8172,
    "upri": 8173,
    "arabic</w>": 8174,
    "venus</w>": 8175,
    "vege": 8176,
    "light": 8177,
    "appointment</w>": 8178,
    "injuries</w>": 8179,
    "raise</w>": 8180,
    "rupted</w>": 8181,
    "describe</w>": 8182,
    "mies</w>": 8183,
    "interaction</w>": 8184,
    "muslim</w>": 8185,
    "dave</w>": 8186,
    "recre": 8187,
    "ser</w>": 8188,
    "ires</w>": 8189,
    "claiming</w>": 8190,
    "reduce</w>": 8191,
    "fungus</w>": 8192,
    "donald</w>": 8193,
    "scop": 8194,
    "ensure</w>": 8195,
    "trouble</w>": 8196,
    "narrative</w>": 8197,
    "isabella</w>": 8198,
    "unsuccessful</w>": 8199,
    "personality</w>": 8200,
    "nickn": 8201,
    "rons</w>": 8202,
    "defended</w>": 8203,
    "praise</w>": 8204,
    "charity</w>": 8205,
    "hindu</w>": 8206,
    "scribed</w>": 8207,
    "elling</w>": 8208,
    "morrison</w>": 8209,
    "fallen</w>": 8210,
    "remnants</w>": 8211,
    "zero</w>": 8212,
    "ani</w>": 8213,
    "township</w>": 8214,
    "jerus": 8215,
    "jerusal": 8216,
    "dakota</w>": 8217,
    "ojib": 8218,
    "ffman</w>": 8219,
    "defences</w>": 8220,
    "karyo": 8221,
    "iguanodon</w>": 8222,
    "chako": 8223,
    "partially</w>": 8224,
    "depending</w>": 8225,
    "temporary</w>": 8226,
    "informed</w>": 8227,
    "cavalry</w>": 8228,
    "impressed</w>": 8229,
    "dens</w>": 8230,
    "sponsor": 8231,
    "gospel</w>": 8232,
    "1933</w>": 8233,
    "factors</w>": 8234,
    "hoc": 8235,
    "clock</w>": 8236,
    "ulation</w>": 8237,
    "mentation</w>": 8238,
    "elle</w>": 8239,
    "occupation</w>": 8240,
    "dal</w>": 8241,
    "convinced</w>": 8242,
    "iser</w>": 8243,
    "writings</w>": 8244,
    "firm</w>": 8245,
    "renew": 8246,
    "interven": 8247,
    "recordings</w>": 8248,
    "mming</w>": 8249,
    "ceme": 8250,
    "scheme</w>": 8251,
    "oura": 8252,
    "liar</w>": 8253,
    "persu": 8254,
    "fill</w>": 8255,
    "truj": 8256,
    "imagin": 8257,
    "politici": 8258,
    "behaviour</w>": 8259,
    "disaster</w>": 8260,
    "comedi": 8261,
    "does": 8262,
    "doesn</w>": 8263,
    "numbered</w>": 8264,
    "dell</w>": 8265,
    "proper</w>": 8266,
    "lications</w>": 8267,
    "bble</w>": 8268,
    "pron": 8269,
    "tomb</w>": 8270,
    "stron": 8271,
    "cars</w>": 8272,
    "spin": 8273,
    "videos</w>": 8274,
    "stants</w>": 8275,
    "radiation</w>": 8276,
    "adventures</w>": 8277,
    "johnston</w>": 8278,
    "nf": 8279,
    "jane": 8280,
    "lauea</w>": 8281,
    "chakotay</w>": 8282,
    "composer</w>": 8283,
    "supervi": 8284,
    "surrender</w>": 8285,
    "asp": 8286,
    "purposes</w>": 8287,
    "meetings</w>": 8288,
    "epi": 8289,
    "household</w>": 8290,
    "holiday</w>": 8291,
    "panel</w>": 8292,
    "trading</w>": 8293,
    "statistics</w>": 8294,
    "christop": 8295,
    "magnetic</w>": 8296,
    "110</w>": 8297,
    "easy</w>": 8298,
    "cape</w>": 8299,
    "communication</w>": 8300,
    "prece": 8301,
    "cancer</w>": 8302,
    "bra</w>": 8303,
    "devo": 8304,
    "origins</w>": 8305,
    "wer</w>": 8306,
    "ruler</w>": 8307,
    "sacri": 8308,
    "inher": 8309,
    "mail</w>": 8310,
    "infra": 8311,
    "difference</w>": 8312,
    "mate</w>": 8313,
    "trujillo</w>": 8314,
    "expression</w>": 8315,
    "bright</w>": 8316,
    "lli": 8317,
    "baldwin</w>": 8318,
    "scientists</w>": 8319,
    "noti": 8320,
    "igh</w>": 8321,
    "teeth</w>": 8322,
    "aw</w>": 8323,
    "eau</w>": 8324,
    "seats</w>": 8325,
    "protests</w>": 8326,
    "tube</w>": 8327,
    "kevin</w>": 8328,
    "sox</w>": 8329,
    "sap": 8330,
    "chment</w>": 8331,
    "tha</w>": 8332,
    "extension</w>": 8333,
    "charlie</w>": 8334,
    "drain</w>": 8335,
    "wrong</w>": 8336,
    "pitcher</w>": 8337,
    "lawrence</w>": 8338,
    "jain</w>": 8339,
    "ati": 8340,
    "grown</w>": 8341,
    "aser</w>": 8342,
    "crisis</w>": 8343,
    "veter": 8344,
    "emor": 8345,
    "interesting</w>": 8346,
    "flat</w>": 8347,
    "1934</w>": 8348,
    "1921</w>": 8349,
    "injured</w>": 8350,
    "fortun": 8351,
    "representative</w>": 8352,
    "caa</w>": 8353,
    "nd": 8354,
    "pushed</w>": 8355,
    "representatives</w>": 8356,
    "minimum</w>": 8357,
    "armament</w>": 8358,
    "restoration</w>": 8359,
    "instance</w>": 8360,
    "understood</w>": 8361,
    "periods</w>": 8362,
    "cous": 8363,
    "isle</w>": 8364,
    "context</w>": 8365,
    "hyp": 8366,
    "ilton</w>": 8367,
    "massach": 8368,
    "massachuse": 8369,
    "massachusetts</w>": 8370,
    "dub": 8371,
    "io": 8372,
    "ros": 8373,
    "overseas</w>": 8374,
    "surpri": 8375,
    "diplo": 8376,
    "cloud</w>": 8377,
    "architectural</w>": 8378,
    "ranges</w>": 8379,
    "nazi</w>": 8380,
    "defeating</w>": 8381,
    "norman</w>": 8382,
    "overwhel": 8383,
    "danny</w>": 8384,
    "rang</w>": 8385,
    "chu": 8386,
    "peti": 8387,
    "hatt": 8388,
    "bbons</w>": 8389,
    "eratops</w>": 8390,
    "hero": 8391,
    "confron": 8392,
    "anime</w>": 8393,
    "tier</w>": 8394,
    "cements</w>": 8395,
    "rifle</w>": 8396,
    "rifles</w>": 8397,
    "rounds</w>": 8398,
    "quick</w>": 8399,
    "aside</w>": 8400,
    "1929</w>": 8401,
    "1932</w>": 8402,
    "dae</w>": 8403,
    "refers</w>": 8404,
    "guine": 8405,
    "controversial</w>": 8406,
    "dication</w>": 8407,
    "deliber": 8408,
    "programme</w>": 8409,
    "bear</w>": 8410,
    "differences</w>": 8411,
    "align": 8412,
    "pleasure</w>": 8413,
    "fear": 8414,
    "ambas": 8415,
    "ambassad": 8416,
    "ranking</w>": 8417,
    "label": 8418,
    "elabor": 8419,
    "tum</w>": 8420,
    "creative</w>": 8421,
    "tus</w>": 8422,
    "ministry</w>": 8423,
    "movements</w>": 8424,
    "medals</w>": 8425,
    "sfield</w>": 8426,
    "lists</w>": 8427,
    "tailed</w>": 8428,
    "motor</w>": 8429,
    "concentra": 8430,
    "commerci": 8431,
    "spores</w>": 8432,
    "ignor": 8433,
    "readers</w>": 8434,
    "moments</w>": 8435,
    "expos": 8436,
    "sear": 8437,
    "christian": 8438,
    "luc": 8439,
    "ores</w>": 8440,
    "marl": 8441,
    "temperatures</w>": 8442,
    "slide</w>": 8443,
    "tei": 8444,
    "ān": 8445,
    "animated</w>": 8446,
    "duty</w>": 8447,
    "detail</w>": 8448,
    "price</w>": 8449,
    "tank</w>": 8450,
    "birth": 8451,
    "determine</w>": 8452,
    "afternoon</w>": 8453,
    "conclusion</w>": 8454,
    "sacred</w>": 8455,
    "childhood</w>": 8456,
    "lined</w>": 8457,
    "thousand</w>": 8458,
    "bapti": 8459,
    "recognised</w>": 8460,
    "sanc": 8461,
    "cave</w>": 8462,
    "intention</w>": 8463,
    "convers": 8464,
    "rhythm</w>": 8465,
    "steps</w>": 8466,
    "choir</w>": 8467,
    "georgia</w>": 8468,
    "hull</w>": 8469,
    "recovery</w>": 8470,
    "fitted</w>": 8471,
    "fundam": 8472,
    "villages</w>": 8473,
    "sk</w>": 8474,
    "fund</w>": 8475,
    "materials</w>": 8476,
    "pure</w>": 8477,
    "ections</w>": 8478,
    "aviation</w>": 8479,
    "excep": 8480,
    "inage</w>": 8481,
    "hamilton</w>": 8482,
    "corn</w>": 8483,
    "tested</w>": 8484,
    "vessels</w>": 8485,
    "week": 8486,
    "ancy</w>": 8487,
    "madness</w>": 8488,
    "wild": 8489,
    "cemetery</w>": 8490,
    "saraj": 8491,
    "sarajevo</w>": 8492,
    "tney</w>": 8493,
    "dt</w>": 8494,
    "construct</w>": 8495,
    "chase</w>": 8496,
    "driver</w>": 8497,
    "corporation</w>": 8498,
    "dir": 8499,
    "nichol": 8500,
    "ira": 8501,
    "moor</w>": 8502,
    "federation</w>": 8503,
    "jerusalem</w>": 8504,
    "condem": 8505,
    "researchers</w>": 8506,
    "infection</w>": 8507,
    "brien</w>": 8508,
    "ride</w>": 8509,
    "miner</w>": 8510,
    "roxas</w>": 8511,
    "skills</w>": 8512,
    "learn</w>": 8513,
    "mo</w>": 8514,
    "removal</w>": 8515,
    "arsenal</w>": 8516,
    "tag": 8517,
    "deemed</w>": 8518,
    "commemor": 8519,
    "collaboration</w>": 8520,
    "artistic</w>": 8521,
    "barri": 8522,
    "1928</w>": 8523,
    "broad</w>": 8524,
    "survive</w>": 8525,
    "historically</w>": 8526,
    "strea": 8527,
    "dule</w>": 8528,
    "approval</w>": 8529,
    "assisted</w>": 8530,
    "ral": 8531,
    "impossible</w>": 8532,
    "intense</w>": 8533,
    "eo</w>": 8534,
    "diagno": 8535,
    "retirement</w>": 8536,
    "initiative</w>": 8537,
    "phenom": 8538,
    "throne</w>": 8539,
    "circumstances</w>": 8540,
    "tend</w>": 8541,
    "intellec": 8542,
    "driven</w>": 8543,
    "severely</w>": 8544,
    "pt</w>": 8545,
    "brick</w>": 8546,
    "bureau</w>": 8547,
    "tler</w>": 8548,
    "protagonist</w>": 8549,
    "spiritual</w>": 8550,
    "crash</w>": 8551,
    "exposure</w>": 8552,
    "arrested</w>": 8553,
    "column</w>": 8554,
    "relation</w>": 8555,
    "yan</w>": 8556,
    "nee</w>": 8557,
    "sest</w>": 8558,
    "artificial</w>": 8559,
    "jo</w>": 8560,
    "stress</w>": 8561,
    "ghost</w>": 8562,
    "maria</w>": 8563,
    "exac": 8564,
    "criminal</w>": 8565,
    "discre": 8566,
    "madi": 8567,
    "doctrine</w>": 8568,
    "amo": 8569,
    "owa</w>": 8570,
    "sympa": 8571,
    "fia</w>": 8572,
    "brigades</w>": 8573,
    "volcano</w>": 8574,
    "bis": 8575,
    "chain</w>": 8576,
    "cock": 8577,
    "hurricanes</w>": 8578,
    "zong</w>": 8579,
    "contestant</w>": 8580,
    "rna</w>": 8581,
    "activision</w>": 8582,
    "calvert</w>": 8583,
    "kī": 8584,
    "map</w>": 8585,
    "improvements</w>": 8586,
    "achieve</w>": 8587,
    "ele</w>": 8588,
    "stationed</w>": 8589,
    "sel</w>": 8590,
    "pick</w>": 8591,
    "percent": 8592,
    "dead": 8593,
    "lington</w>": 8594,
    "kness</w>": 8595,
    "highways</w>": 8596,
    "deployed</w>": 8597,
    "owners</w>": 8598,
    "anyone</w>": 8599,
    "housing</w>": 8600,
    "adi": 8601,
    "cat</w>": 8602,
    "wer": 8603,
    "keeping</w>": 8604,
    "symbol</w>": 8605,
    "banks</w>": 8606,
    "matt</w>": 8607,
    "annually</w>": 8608,
    "displays</w>": 8609,
    "powered</w>": 8610,
    "grants</w>": 8611,
    "criticised</w>": 8612,
    "throwing</w>": 8613,
    "spin</w>": 8614,
    "grammy</w>": 8615,
    "measured</w>": 8616,
    "riding</w>": 8617,
    "reconstruction</w>": 8618,
    "1900</w>": 8619,
    "urs</w>": 8620,
    "tax</w>": 8621,
    "concerts</w>": 8622,
    "kat": 8623,
    "ensu": 8624,
    "fifteen</w>": 8625,
    "toll</w>": 8626,
    "deer</w>": 8627,
    "fire": 8628,
    "hawaiian</w>": 8629,
    "glorious</w>": 8630,
    "bei": 8631,
    "amino</w>": 8632,
    "plunke": 8633,
    "kīlauea</w>": 8634,
    "models</w>": 8635,
    "happened</w>": 8636,
    "fab": 8637,
    "thered</w>": 8638,
    "shake": 8639,
    "1926</w>": 8640,
    "tournaments</w>": 8641,
    "gging</w>": 8642,
    "requested</w>": 8643,
    "investigation</w>": 8644,
    "bee</w>": 8645,
    "tat": 8646,
    "aboard</w>": 8647,
    "dialogue</w>": 8648,
    "tious</w>": 8649,
    "zoo</w>": 8650,
    "supple": 8651,
    "bu</w>": 8652,
    "harm": 8653,
    "outbreak</w>": 8654,
    "reveals</w>": 8655,
    "quin": 8656,
    "suici": 8657,
    "originated</w>": 8658,
    "turb": 8659,
    "bearing</w>": 8660,
    "distinctive</w>": 8661,
    "institution</w>": 8662,
    "borne</w>": 8663,
    "chemi": 8664,
    "bases</w>": 8665,
    "rebels</w>": 8666,
    "cool": 8667,
    "subsi": 8668,
    "address</w>": 8669,
    "bea": 8670,
    "therea": 8671,
    "thereafter</w>": 8672,
    "northward</w>": 8673,
    "precipitation</w>": 8674,
    "wan</w>": 8675,
    "boundary</w>": 8676,
    "witz</w>": 8677,
    "alfred</w>": 8678,
    "variation</w>": 8679,
    "wart</w>": 8680,
    "wim": 8681,
    "yankovic</w>": 8682,
    "walking</w>": 8683,
    "boom</w>": 8684,
    "richardson</w>": 8685,
    "fossi": 8686,
    "cory": 8687,
    "crusad": 8688,
    "somalia</w>": 8689,
    "voiced</w>": 8690,
    "attribu": 8691,
    "1861</w>": 8692,
    "sentim": 8693,
    "bronze</w>": 8694,
    "tch": 8695,
    "130</w>": 8696,
    "1940s</w>": 8697,
    "releases</w>": 8698,
    "diver": 8699,
    "deal": 8700,
    "regu": 8701,
    "ut</w>": 8702,
    "thic": 8703,
    "erected</w>": 8704,
    "everyone</w>": 8705,
    "passengers</w>": 8706,
    "180</w>": 8707,
    "kim</w>": 8708,
    "twin</w>": 8709,
    "wal</w>": 8710,
    "nationally</w>": 8711,
    "tism</w>": 8712,
    "wra": 8713,
    "regul": 8714,
    "matters</w>": 8715,
    "hearing</w>": 8716,
    "bath</w>": 8717,
    "shifts</w>": 8718,
    "netherlands</w>": 8719,
    "bomb</w>": 8720,
    "require": 8721,
    "conc": 8722,
    "elli</w>": 8723,
    "simultaneously</w>": 8724,
    "negotiations</w>": 8725,
    "eae</w>": 8726,
    "mint</w>": 8727,
    "difficulties</w>": 8728,
    "sculpture</w>": 8729,
    "resigned</w>": 8730,
    "guer": 8731,
    "coup</w>": 8732,
    "stin</w>": 8733,
    "miller</w>": 8734,
    "athan</w>": 8735,
    "extra": 8736,
    "scriptions</w>": 8737,
    "structural</w>": 8738,
    "ome</w>": 8739,
    "survivors</w>": 8740,
    "roc": 8741,
    "waves</w>": 8742,
    "davis</w>": 8743,
    "internet</w>": 8744,
    "scand": 8745,
    "accident</w>": 8746,
    "clarkson</w>": 8747,
    "lows</w>": 8748,
    "votes</w>": 8749,
    "ore": 8750,
    "canyon</w>": 8751,
    "rh": 8752,
    "hart</w>": 8753,
    "gibbons</w>": 8754,
    "ceratop": 8755,
    "jif": 8756,
    "somali</w>": 8757,
    "teika</w>": 8758,
    "sung</w>": 8759,
    "gau": 8760,
    "ohi": 8761,
    "balance</w>": 8762,
    "onists</w>": 8763,
    "authorized</w>": 8764,
    "substantial</w>": 8765,
    "labor</w>": 8766,
    "treas": 8767,
    "withdrew</w>": 8768,
    "jan</w>": 8769,
    "hockey</w>": 8770,
    "struggle</w>": 8771,
    "1905</w>": 8772,
    "mic</w>": 8773,
    "apers</w>": 8774,
    "layer</w>": 8775,
    "prevented</w>": 8776,
    "looks</w>": 8777,
    "municipal</w>": 8778,
    "colom": 8779,
    "ontario</w>": 8780,
    "fresh": 8781,
    "godde": 8782,
    "argues</w>": 8783,
    "tribute</w>": 8784,
    "eligi": 8785,
    "concern</w>": 8786,
    "destroyer</w>": 8787,
    "circle</w>": 8788,
    "amounts</w>": 8789,
    "effici": 8790,
    "breaks</w>": 8791,
    "frequent</w>": 8792,
    "orm": 8793,
    "followers</w>": 8794,
    "globe</w>": 8795,
    "premiered</w>": 8796,
    "prehen": 8797,
    "founder</w>": 8798,
    "explains</w>": 8799,
    "usta": 8800,
    "metropolitan</w>": 8801,
    "bob": 8802,
    "kr": 8803,
    "21st</w>": 8804,
    "spoken</w>": 8805,
    "inum</w>": 8806,
    "biggest</w>": 8807,
    "inh": 8808,
    "forcing</w>": 8809,
    "clay</w>": 8810,
    "dop": 8811,
    "vell</w>": 8812,
    "iness</w>": 8813,
    "yanke": 8814,
    "evalu": 8815,
    "grav": 8816,
    "paralympics</w>": 8817,
    "bono</w>": 8818,
    "wilde</w>": 8819,
    "illa</w>": 8820,
    "nad": 8821,
    "nighting": 8822,
    "skye</w>": 8823,
    "altered</w>": 8824,
    "gon</w>": 8825,
    "yc": 8826,
    "excell": 8827,
    "scar": 8828,
    "suitable</w>": 8829,
    "1890</w>": 8830,
    "thum": 8831,
    "remarked</w>": 8832,
    "sevente": 8833,
    "extent</w>": 8834,
    "tent</w>": 8835,
    "qualified</w>": 8836,
    "molecular</w>": 8837,
    "shorter</w>": 8838,
    "consequ": 8839,
    "percentage</w>": 8840,
    "talking</w>": 8841,
    "heim</w>": 8842,
    "traveling</w>": 8843,
    "recipi": 8844,
    "musician</w>": 8845,
    "ranging</w>": 8846,
    "departure</w>": 8847,
    "sured</w>": 8848,
    "spending</w>": 8849,
    "“</w>": 8850,
    "ologies</w>": 8851,
    "understand</w>": 8852,
    "capit": 8853,
    "compri": 8854,
    "enthu": 8855,
    "enthusi": 8856,
    "formerly</w>": 8857,
    "horse": 8858,
    "ican</w>": 8859,
    "stam": 8860,
    "leukem": 8861,
    "ius</w>": 8862,
    "chamber</w>": 8863,
    "legend</w>": 8864,
    "skel": 8865,
    "physici": 8866,
    "cel</w>": 8867,
    "deva": 8868,
    "parliam": 8869,
    "louisi": 8870,
    "louisiana</w>": 8871,
    "lb": 8872,
    "pack</w>": 8873,
    "wilson</w>": 8874,
    "intensified</w>": 8875,
    "allah</w>": 8876,
    "israeli</w>": 8877,
    "athletics</w>": 8878,
    "ole</w>": 8879,
    "nightingale</w>": 8880,
    "jifna</w>": 8881,
    "kitsune</w>": 8882,
    "groza</w>": 8883,
    "lia</w>": 8884,
    "designer</w>": 8885,
    "option</w>": 8886,
    "dangerous</w>": 8887,
    "lis</w>": 8888,
    "moral</w>": 8889,
    "reinforcements</w>": 8890,
    "fifty</w>": 8891,
    "ile</w>": 8892,
    "autum": 8893,
    "sover": 8894,
    "1925</w>": 8895,
    "shakespear": 8896,
    "organisation</w>": 8897,
    "correct</w>": 8898,
    "huge</w>": 8899,
    "schedule</w>": 8900,
    "teamm": 8901,
    "toler": 8902,
    "open": 8903,
    "sixteen</w>": 8904,
    "psych": 8905,
    "grandfather</w>": 8906,
    "encing</w>": 8907,
    "ceremon": 8908,
    "apy</w>": 8909,
    "concep": 8910,
    "myth": 8911,
    "thesis</w>": 8912,
    "consistent</w>": 8913,
    "limits</w>": 8914,
    "distant</w>": 8915,
    "acknowle": 8916,
    "licated</w>": 8917,
    "root</w>": 8918,
    "agree</w>": 8919,
    "grave</w>": 8920,
    "infrastructure</w>": 8921,
    "appropriate</w>": 8922,
    "burning</w>": 8923,
    "elections</w>": 8924,
    "encountered</w>": 8925,
    "portrait</w>": 8926,
    "comments</w>": 8927,
    "vene": 8928,
    "shark</w>": 8929,
    "onia</w>": 8930,
    "carol</w>": 8931,
    "sang</w>": 8932,
    "ftw": 8933,
    "invest": 8934,
    "niel": 8935,
    "publisher</w>": 8936,
    "140</w>": 8937,
    "inhg</w>": 8938,
    "wall": 8939,
    "graham</w>": 8940,
    "communications</w>": 8941,
    "networks</w>": 8942,
    "bombs</w>": 8943,
    "owed</w>": 8944,
    "pretty</w>": 8945,
    "caes": 8946,
    "1906</w>": 8947,
    "acks</w>": 8948,
    "stevens</w>": 8949,
    "ni</w>": 8950,
    "hawaii</w>": 8951,
    "tees</w>": 8952,
    "dief": 8953,
    "diefen": 8954,
    "diefenbaker</w>": 8955,
    "animation</w>": 8956,
    "armored</w>": 8957,
    "tanks</w>": 8958,
    "antiqu": 8959,
    "adequ": 8960,
    "prompted</w>": 8961,
    "withdraw</w>": 8962,
    "indicating</w>": 8963,
    "autumn</w>": 8964,
    "wasn</w>": 8965,
    "vey</w>": 8966,
    "organised</w>": 8967,
    "bears</w>": 8968,
    "inha": 8969,
    "sson</w>": 8970,
    "cular</w>": 8971,
    "physics</w>": 8972,
    "atlanta</w>": 8973,
    "horror</w>": 8974,
    "parker</w>": 8975,
    "illness</w>": 8976,
    "án</w>": 8977,
    "ose</w>": 8978,
    "crops</w>": 8979,
    "stors</w>": 8980,
    "seem</w>": 8981,
    "dimen": 8982,
    "moderate</w>": 8983,
    "christopher</w>": 8984,
    "favorable</w>": 8985,
    "testing</w>": 8986,
    "sumption</w>": 8987,
    "uncle</w>": 8988,
    "scholar</w>": 8989,
    "reflected</w>": 8990,
    "celebra": 8991,
    "ig</w>": 8992,
    "corner</w>": 8993,
    "saved</w>": 8994,
    "conduct</w>": 8995,
    "echo": 8996,
    "nick</w>": 8997,
    "eye": 8998,
    "clearly</w>": 8999,
    "explain</w>": 9000,
    "lw": 9001,
    "battlec": 9002,
    "battlecru": 9003,
    "ona</w>": 9004,
    "marking</w>": 9005,
    "flows</w>": 9006,
    "biographer</w>": 9007,
    "mega</w>": 9008,
    "mel</w>": 9009,
    "yce</w>": 9010,
    "ohio</w>": 9011,
    "gerard</w>": 9012,
    "kent": 9013,
    "pirates</w>": 9014,
    "lennon</w>": 9015,
    "ekān": 9016,
    "banai</w>": 9017,
    "ō</w>": 9018,
    "perspective</w>": 9019,
    "arriving</w>": 9020,
    "cros": 9021,
    "eline</w>": 9022,
    "illustrated</w>": 9023,
    "ske": 9024,
    "friendly</w>": 9025,
    "delayed</w>": 9026,
    "among": 9027,
    "amongst</w>": 9028,
    "taxonom": 9029,
    "thin</w>": 9030,
    "apar": 9031,
    "stanley</w>": 9032,
    "eliminated</w>": 9033,
    "predators</w>": 9034,
    "worn</w>": 9035,
    "dge": 9036,
    "pounds</w>": 9037,
    "shells</w>": 9038,
    "diary</w>": 9039,
    "badly</w>": 9040,
    "sydney</w>": 9041,
    "violent</w>": 9042,
    "starring</w>": 9043,
    "coverage</w>": 9044,
    "tuals</w>": 9045,
    "allu": 9046,
    "depicts</w>": 9047,
    "frank": 9048,
    "poorly</w>": 9049,
    "bones</w>": 9050,
    "scent</w>": 9051,
    "unities</w>": 9052,
    "philosophy</w>": 9053,
    "ala</w>": 9054,
    "hell</w>": 9055,
    "patrol</w>": 9056,
    "costs</w>": 9057,
    "dwar": 9058,
    "inge</w>": 9059,
    "ium</w>": 9060,
    "patterns</w>": 9061,
    "awa": 9062,
    "profile</w>": 9063,
    "generals</w>": 9064,
    "bering</w>": 9065,
    "considering</w>": 9066,
    "experiences</w>": 9067,
    "exposed</w>": 9068,
    "rements</w>": 9069,
    "keys</w>": 9070,
    "galax": 9071,
    "metal": 9072,
    "obvi": 9073,
    "lum</w>": 9074,
    "attained</w>": 9075,
    "pages</w>": 9076,
    "ille</w>": 9077,
    "eries</w>": 9078,
    "mixture</w>": 9079,
    "gilbert</w>": 9080,
    "vehicle</w>": 9081,
    "hay": 9082,
    "sporting</w>": 9083,
    "northeastern</w>": 9084,
    "exerc": 9085,
    "bledon</w>": 9086,
    "fishing</w>": 9087,
    "palestine</w>": 9088,
    "rid</w>": 9089,
    "sue</w>": 9090,
    "oscar</w>": 9091,
    "asks</w>": 9092,
    "ud</w>": 9093,
    "parish</w>": 9094,
    "hn</w>": 9095,
    "paw": 9096,
    "imagine</w>": 9097,
    "mole</w>": 9098,
    "voyager</w>": 9099,
    "mantle</w>": 9100,
    "waxy</w>": 9101,
    "enemies</w>": 9102,
    "closure</w>": 9103,
    "paired</w>": 9104,
    "yle</w>": 9105,
    "attend</w>": 9106,
    "feeding</w>": 9107,
    "dity</w>": 9108,
    "pled</w>": 9109,
    "ew": 9110,
    "restricted</w>": 9111,
    "basi": 9112,
    "lip": 9113,
    "satelli": 9114,
    "span": 9115,
    "endor": 9116,
    "oak</w>": 9117,
    "demonstrated</w>": 9118,
    "disper": 9119,
    "thril": 9120,
    "whil": 9121,
    "whilst</w>": 9122,
    "wore</w>": 9123,
    "master": 9124,
    "realized</w>": 9125,
    "sler</w>": 9126,
    "cruisers</w>": 9127,
    "battleships</w>": 9128,
    "loose</w>": 9129,
    "vag": 9130,
    "eat</w>": 9131,
    "hidden</w>": 9132,
    "useful</w>": 9133,
    "innov": 9134,
    "suicide</w>": 9135,
    "doz": 9136,
    "racing</w>": 9137,
    "airline</w>": 9138,
    "strip</w>": 9139,
    "navigation</w>": 9140,
    "usage</w>": 9141,
    "preparation</w>": 9142,
    "inate</w>": 9143,
    "chemistry</w>": 9144,
    "publications</w>": 9145,
    "sings</w>": 9146,
    "neg": 9147,
    "encies</w>": 9148,
    "unt</w>": 9149,
    "wives</w>": 9150,
    "fighters</w>": 9151,
    "rough</w>": 9152,
    "prosecu": 9153,
    "mainst": 9154,
    "banned</w>": 9155,
    "mars</w>": 9156,
    "pupils</w>": 9157,
    "metre</w>": 9158,
    "rai": 9159,
    "byp": 9160,
    "indians</w>": 9161,
    "advertising</w>": 9162,
    "convection</w>": 9163,
    "saprang</w>": 9164,
    "oph": 9165,
    "wimbledon</w>": 9166,
    "mamm": 9167,
    "eous</w>": 9168,
    "xi</w>": 9169,
    "dolphins</w>": 9170,
    "bot</w>": 9171,
    "add</w>": 9172,
    "korean</w>": 9173,
    "howe</w>": 9174,
    "kilmer</w>": 9175,
    "gravit": 9176,
    "lawton</w>": 9177,
    "janeiro</w>": 9178,
    "anzac</w>": 9179,
    "goffman</w>": 9180,
    "bolí": 9181,
    "bolívar</w>": 9182,
    "manga</w>": 9183,
    "ira</w>": 9184,
    "rant</w>": 9185,
    "respective</w>": 9186,
    "span</w>": 9187,
    "emergency</w>": 9188,
    "aspect</w>": 9189,
    "smoo": 9190,
    "engage</w>": 9191,
    "foot": 9192,
    "seek</w>": 9193,
    "och": 9194,
    "further": 9195,
    "furthermore</w>": 9196,
    "diet</w>": 9197,
    "functional</w>": 9198,
    "vary</w>": 9199,
    "tempor": 9200,
    "architect</w>": 9201,
    "observation</w>": 9202,
    "continuous</w>": 9203,
    "forma": 9204,
    "conversion</w>": 9205,
    "tally</w>": 9206,
    "sati": 9207,
    "shares</w>": 9208,
    "saturday</w>": 9209,
    "cosm": 9210,
    "austria</w>": 9211,
    "spend</w>": 9212,
    "hungarian</w>": 9213,
    "centi": 9214,
    "advice</w>": 9215,
    "centers</w>": 9216,
    "opportunities</w>": 9217,
    "guilty</w>": 9218,
    "benefit</w>": 9219,
    "celebrated</w>": 9220,
    "sensi": 9221,
    "confin": 9222,
    "oxide</w>": 9223,
    "imprison": 9224,
    "discuss</w>": 9225,
    "eing</w>": 9226,
    "frequency</w>": 9227,
    "aming</w>": 9228,
    "arrive</w>": 9229,
    "buri": 9230,
    "measurements</w>": 9231,
    "honour</w>": 9232,
    "closest</w>": 9233,
    "mining</w>": 9234,
    "avoi": 9235,
    "band": 9236,
    "considers</w>": 9237,
    "plateau</w>": 9238,
    "summit</w>": 9239,
    "ardo</w>": 9240,
    "tenth</w>": 9241,
    "76": 9242,
    "contest</w>": 9243,
    "gali": 9244,
    "short": 9245,
    "rebuilt</w>": 9246,
    "homo": 9247,
    "watershed</w>": 9248,
    "derers</w>": 9249,
    "jay</w>": 9250,
    "stefan": 9251,
    "stefani</w>": 9252,
    "mills</w>": 9253,
    "sb</w>": 9254,
    "stewart</w>": 9255,
    "census</w>": 9256,
    "mosqu": 9257,
    "faste": 9258,
    "fastest</w>": 9259,
    "carl</w>": 9260,
    "brazil</w>": 9261,
    "kau": 9262,
    "burke</w>": 9263,
    "batsman</w>": 9264,
    "prero": 9265,
    "wrestling</w>": 9266,
    "starling</w>": 9267,
    "anekān": 9268,
    "mp</w>": 9269,
    "card</w>": 9270,
    "revolutionary</w>": 9271,
    "flower</w>": 9272,
    "volumes</w>": 9273,
    "unition</w>": 9274,
    "sole": 9275,
    "eties</w>": 9276,
    "strations</w>": 9277,
    "1923</w>": 9278,
    "1924</w>": 9279,
    "bition</w>": 9280,
    "disappeared</w>": 9281,
    "ilers</w>": 9282,
    "toronto</w>": 9283,
    "victories</w>": 9284,
    "saves</w>": 9285,
    "revival</w>": 9286,
    "shifted</w>": 9287,
    "newspapers</w>": 9288,
    "aning</w>": 9289,
    "tiger</w>": 9290,
    "sunk</w>": 9291,
    "temples</w>": 9292,
    "presentation</w>": 9293,
    "thinking</w>": 9294,
    "flown</w>": 9295,
    "objective</w>": 9296,
    "burned</w>": 9297,
    "feathers</w>": 9298,
    "beauty</w>": 9299,
    "application</w>": 9300,
    "dad</w>": 9301,
    "jos": 9302,
    "remove</w>": 9303,
    "succe": 9304,
    "opponent</w>": 9305,
    "esp": 9306,
    "elem": 9307,
    "hunt</w>": 9308,
    "olen</w>": 9309,
    "dispute</w>": 9310,
    "chev": 9311,
    "downs</w>": 9312,
    "farmers</w>": 9313,
    "eccle": 9314,
    "inor</w>": 9315,
    "audiences</w>": 9316,
    "nio": 9317,
    "entiation</w>": 9318,
    "philip</w>": 9319,
    "owen</w>": 9320,
    "yankees</w>": 9321,
    "wiscon": 9322,
    "wisconsin</w>": 9323,
    "mage</w>": 9324,
    "ell": 9325,
    "manhatt": 9326,
    "body": 9327,
    "titus</w>": 9328,
    "predecessor</w>": 9329,
    "ums</w>": 9330,
    "rel</w>": 9331,
    "percu": 9332,
    "valuable</w>": 9333,
    "impres": 9334,
    "consci": 9335,
    "cec": 9336,
    "trophy</w>": 9337,
    "meteorological</w>": 9338,
    "yl</w>": 9339,
    "stac": 9340,
    "retreat</w>": 9341,
    "defend</w>": 9342,
    "trium": 9343,
    "ini</w>": 9344,
    "ambassador</w>": 9345,
    "handed</w>": 9346,
    "monuments</w>": 9347,
    "helicop": 9348,
    "aero": 9349,
    "agriculture</w>": 9350,
    "bristol</w>": 9351,
    "sail": 9352,
    "alber": 9353,
    "coin</w>": 9354,
    "answer</w>": 9355,
    "dine</w>": 9356,
    "duces</w>": 9357,
    "inhabitants</w>": 9358,
    "defending</w>": 9359,
    "discover</w>": 9360,
    "premiere</w>": 9361,
    "chromo": 9362,
    "dhi": 9363,
    "columns</w>": 9364,
    "custo": 9365,
    "tico</w>": 9366,
    "ustaš": 9367,
    "jeff": 9368,
    "establishing</w>": 9369,
    "nielsen</w>": 9370,
    "seattle</w>": 9371,
    "christianity</w>": 9372,
    "tudes</w>": 9373,
    "kö": 9374,
    "slop": 9375,
    "ob</w>": 9376,
    "greg</w>": 9377,
    "alternate</w>": 9378,
    "depu": 9379,
    "mechanical</w>": 9380,
    "graduate</w>": 9381,
    "iowa</w>": 9382,
    "flies</w>": 9383,
    "epide": 9384,
    "leigh</w>": 9385,
    "ori</w>": 9386,
    "manhattan</w>": 9387,
    "ampli": 9388,
    "aniston</w>": 9389,
    "membrane</w>": 9390,
    "keamy</w>": 9391,
    "kombat</w>": 9392,
    "schumach": 9393,
    "schumacher</w>": 9394,
    "translation</w>": 9395,
    "linear</w>": 9396,
    "custom": 9397,
    "orchestra</w>": 9398,
    "ammunition</w>": 9399,
    "regiments</w>": 9400,
    "scope</w>": 9401,
    "residence</w>": 9402,
    "sume</w>": 9403,
    "jeff</w>": 9404,
    "goal": 9405,
    "drove</w>": 9406,
    "inscription</w>": 9407,
    "upgraded</w>": 9408,
    "highligh": 9409,
    "embarked</w>": 9410,
    "sigh": 9411,
    "gu</w>": 9412,
    "tours</w>": 9413,
    "engag": 9414,
    "tians</w>": 9415,
    "texts</w>": 9416,
    "artwork</w>": 9417,
    "refer</w>": 9418,
    "decisions</w>": 9419,
    "feels</w>": 9420,
    "slu": 9421,
    "advertise": 9422,
    "esses</w>": 9423,
    "liner</w>": 9424,
    "declar": 9425,
    "strategy</w>": 9426,
    "ym</w>": 9427,
    "tened</w>": 9428,
    "seeking</w>": 9429,
    "earning</w>": 9430,
    "phical</w>": 9431,
    "directing</w>": 9432,
    "spur</w>": 9433,
    "millen": 9434,
    "archbishop</w>": 9435,
    "simpson</w>": 9436,
    "sugar</w>": 9437,
    "anian</w>": 9438,
    "beaten</w>": 9439,
    "degrees</w>": 9440,
    "sory</w>": 9441,
    "novel": 9442,
    "beats</w>": 9443,
    "lé": 9444,
    "anthem</w>": 9445,
    "patt": 9446,
    "swedish</w>": 9447,
    "1907</w>": 9448,
    "phrase</w>": 9449,
    "pez</w>": 9450,
    "tennes": 9451,
    "tennessee</w>": 9452,
    "fraser</w>": 9453,
    "ida": 9454,
    "idaho</w>": 9455,
    "fei</w>": 9456,
    "jurchen</w>": 9457,
    "maggie</w>": 9458,
    "marlborough</w>": 9459,
    "gard": 9460,
    "norwe": 9461,
    "canter": 9462,
    "canterbury</w>": 9463,
    "clan</w>": 9464,
    "vander": 9465,
    "plunketts</w>": 9466,
    "raff": 9467,
    "phillies</w>": 9468,
    "cambodia</w>": 9469,
    "corytho": 9470,
    "corythosaurus</w>": 9471,
    "handled</w>": 9472,
    "copy</w>": 9473,
    "ik": 9474,
    "garrison</w>": 9475,
    "carp": 9476,
    "pace</w>": 9477,
    "closing</w>": 9478,
    "bian</w>": 9479,
    "gather": 9480,
    "youngest</w>": 9481,
    "victorian</w>": 9482,
    "lifel": 9483,
    "alpha": 9484,
    "yers</w>": 9485,
    "morph": 9486,
    "operates</w>": 9487,
    "curtis</w>": 9488,
    "personally</w>": 9489,
    "catholic": 9490,
    "brand</w>": 9491,
    "talent</w>": 9492,
    "block": 9493,
    "elevation</w>": 9494,
    "dawn</w>": 9495,
    "orous</w>": 9496,
    "dual</w>": 9497,
    "bombar": 9498,
    "like": 9499,
    "scape</w>": 9500,
    "false</w>": 9501,
    "coff": 9502,
    "dict</w>": 9503,
    "inno": 9504,
    "ortho": 9505,
    "robin": 9506,
    "robinson</w>": 9507,
    "wider</w>": 9508,
    "sation</w>": 9509,
    "dant</w>": 9510,
    "rush</w>": 9511,
    "commerce</w>": 9512,
    "striking</w>": 9513,
    "hydrogen</w>": 9514,
    "executed</w>": 9515,
    "theatrical</w>": 9516,
    "kei": 9517,
    "gold": 9518,
    "jimmy</w>": 9519,
    "magnit": 9520,
    "carved</w>": 9521,
    "carries</w>": 9522,
    "tourist</w>": 9523,
    "evolution</w>": 9524,
    "exploration</w>": 9525,
    "peaking</w>": 9526,
    "ago": 9527,
    "candidates</w>": 9528,
    "zers</w>": 9529,
    "balls</w>": 9530,
    "profit</w>": 9531,
    "nett</w>": 9532,
    "caster</w>": 9533,
    "lithu": 9534,
    "ady</w>": 9535,
    "jobs</w>": 9536,
    "graf</w>": 9537,
    "belgi": 9538,
    "platinum</w>": 9539,
    "parade</w>": 9540,
    "sciences</w>": 9541,
    "settlements</w>": 9542,
    "ml</w>": 9543,
    "gars</w>": 9544,
    "ló": 9545,
    "herald</w>": 9546,
    "documented</w>": 9547,
    "residential</w>": 9548,
    "lakes</w>": 9549,
    "reaches</w>": 9550,
    "murray</w>": 9551,
    "wildlife</w>": 9552,
[...]
